{
  "version": "1.0",
  "truncation": null,
  "padding": null,
  "added_tokens": [
    {
      "id": 0,
      "content": "<unk>",
      "single_word": false,
      "lstrip": false,
      "rstrip": false,
      "normalized": false,
      "special": true
    },
    {
      "id": 1,
      "content": "<pad>",
      "single_word": false,
      "lstrip": false,
      "rstrip": false,
      "normalized": false,
      "special": true
    },
    {
      "id": 2,
      "content": "<bos>",
      "single_word": false,
      "lstrip": false,
      "rstrip": false,
      "normalized": false,
      "special": true
    },
    {
      "id": 3,
      "content": "<eos>",
      "single_word": false,
      "lstrip": false,
      "rstrip": false,
      "normalized": false,
      "special": true
    }
  ],
  "normalizer": null,
  "pre_tokenizer": null,
  "post_processor": null,
  "decoder": null,
  "model": {
    "type": "BPE",
    "dropout": null,
    "unk_token": "<unk>",
    "continuing_subword_prefix": null,
    "end_of_word_suffix": null,
    "fuse_unk": false,
    "byte_fallback": false,
    "ignore_merges": false,
    "vocab": {
      "<unk>": 0,
      "<pad>": 1,
      "<bos>": 2,
      "<eos>": 3,
      "\u0001": 4,
      "\u0002": 5,
      "\u0003": 6,
      "\b": 7,
      "\t": 8,
      "\u000b": 9,
      "\f": 10,
      "\u000f": 11,
      "\u0011": 12,
      "\u0012": 13,
      "\u0013": 14,
      "\u0014": 15,
      "\u0015": 16,
      "\u0016": 17,
      "\u0017": 18,
      "\u0018": 19,
      "\u0019": 20,
      "\u001a": 21,
      "\u001b": 22,
      "\u001c": 23,
      " ": 24,
      "!": 25,
      "\"": 26,
      "#": 27,
      "$": 28,
      "%": 29,
      "&": 30,
      "'": 31,
      "(": 32,
      ")": 33,
      "*": 34,
      "+": 35,
      ",": 36,
      "-": 37,
      ".": 38,
      "/": 39,
      "0": 40,
      "1": 41,
      "2": 42,
      "3": 43,
      "4": 44,
      "5": 45,
      "6": 46,
      "7": 47,
      "8": 48,
      "9": 49,
      ":": 50,
      ";": 51,
      "<": 52,
      "=": 53,
      ">": 54,
      "?": 55,
      "@": 56,
      "A": 57,
      "B": 58,
      "C": 59,
      "D": 60,
      "E": 61,
      "F": 62,
      "G": 63,
      "H": 64,
      "I": 65,
      "J": 66,
      "K": 67,
      "L": 68,
      "M": 69,
      "N": 70,
      "O": 71,
      "P": 72,
      "Q": 73,
      "R": 74,
      "S": 75,
      "T": 76,
      "U": 77,
      "V": 78,
      "W": 79,
      "X": 80,
      "Y": 81,
      "Z": 82,
      "[": 83,
      "\\": 84,
      "]": 85,
      "^": 86,
      "_": 87,
      "`": 88,
      "a": 89,
      "b": 90,
      "c": 91,
      "d": 92,
      "e": 93,
      "f": 94,
      "g": 95,
      "h": 96,
      "i": 97,
      "j": 98,
      "k": 99,
      "l": 100,
      "m": 101,
      "n": 102,
      "o": 103,
      "p": 104,
      "q": 105,
      "r": 106,
      "s": 107,
      "t": 108,
      "u": 109,
      "v": 110,
      "w": 111,
      "x": 112,
      "y": 113,
      "z": 114,
      "{": 115,
      "|": 116,
      "}": 117,
      "~": 118,
      " ": 119,
      "§": 120,
      "©": 121,
      "«": 122,
      "­": 123,
      "°": 124,
      "±": 125,
      "²": 126,
      "´": 127,
      "µ": 128,
      "º": 129,
      "»": 130,
      "Á": 131,
      "Â": 132,
      "Ç": 133,
      "É": 134,
      "Î": 135,
      "Ö": 136,
      "×": 137,
      "Û": 138,
      "Ü": 139,
      "ß": 140,
      "à": 141,
      "á": 142,
      "â": 143,
      "ã": 144,
      "ä": 145,
      "ç": 146,
      "è": 147,
      "é": 148,
      "ê": 149,
      "ë": 150,
      "í": 151,
      "î": 152,
      "ñ": 153,
      "ó": 154,
      "ö": 155,
      "ú": 156,
      "û": 157,
      "ü": 158,
      "ā": 159,
      "ć": 160,
      "č": 161,
      "Ğ": 162,
      "ğ": 163,
      "Ġ": 164,
      "ġ": 165,
      "Ģ": 166,
      "Ĥ": 167,
      "ĥ": 168,
      "Ħ": 169,
      "ħ": 170,
      "ī": 171,
      "İ": 172,
      "ı": 173,
      "Ķ": 174,
      "ķ": 175,
      "ł": 176,
      "ō": 177,
      "Ś": 178,
      "ś": 179,
      "ŝ": 180,
      "Ş": 181,
      "ş": 182,
      "š": 183,
      "Ŧ": 184,
      "ŧ": 185,
      "ū": 186,
      "ź": 187,
      "ż": 188,
      "ž": 189,
      "Ǿ": 190,
      "ǿ": 191,
      "ə": 192,
      "̆": 193,
      "̇": 194,
      "̈": 195,
      "̧": 196,
      "α": 197,
      "β": 198,
      "ε": 199,
      "ι": 200,
      "μ": 201,
      "ν": 202,
      "ο": 203,
      "ρ": 204,
      "ς": 205,
      "τ": 206,
      "А": 207,
      "К": 208,
      "М": 209,
      "С": 210,
      "а": 211,
      "б": 212,
      "в": 213,
      "г": 214,
      "д": 215,
      "е": 216,
      "з": 217,
      "и": 218,
      "й": 219,
      "к": 220,
      "л": 221,
      "м": 222,
      "н": 223,
      "о": 224,
      "п": 225,
      "р": 226,
      "с": 227,
      "т": 228,
      "у": 229,
      "х": 230,
      "ч": 231,
      "ы": 232,
      "ь": 233,
      "э": 234,
      "я": 235,
      "​": 236,
      "–": 237,
      "—": 238,
      "‘": 239,
      "’": 240,
      "“": 241,
      "”": 242,
      "‟": 243,
      "•": 244,
      "…": 245,
      " ": 246,
      "−": 247,
      "★": 248,
      "♦": 249,
      "﻿": 250,
      "n ": 251,
      "e ": 252,
      "ar": 253,
      "er": 254,
      "a ": 255,
      "i ": 256,
      "il": 257,
      "k ": 258,
      "ir": 259,
      "ı ": 260,
      "an": 261,
      "in": 262,
      "al": 263,
      "el": 264,
      "en": 265,
      "ın": 266,
      "ol": 267,
      "m ": 268,
      "ma": 269,
      "u ": 270,
      "en ": 271,
      "lar": 272,
      "or": 273,
      "iy": 274,
      "bir": 275,
      ", ": 276,
      "in ": 277,
      "an ": 278,
      "et": 279,
      "ay": 280,
      "da ": 281,
      "ek": 282,
      "es": 283,
      "ler": 284,
      "de ": 285,
      ". ": 286,
      "at": 287,
      "bir ": 288,
      "ak": 289,
      "ve ": 290,
      "ed": 291,
      "un": 292,
      "em": 293,
      "as": 294,
      "aş": 295,
      "ır": 296,
      "iz": 297,
      "ey": 298,
      "is": 299,
      "on": 300,
      "ın ": 301,
      "ıl": 302,
      "ik": 303,
      "ad": 304,
      "ul": 305,
      "ur": 306,
      "iş": 307,
      "it": 308,
      "im": 309,
      "am": 310,
      "ür": 311,
      "ap": 312,
      "ış": 313,
      "ah": 314,
      "ün": 315,
      "z ": 316,
      "er ": 317,
      "bil": 318,
      "iç": 319,
      "ak ": 320,
      "ek ": 321,
      "eğ": 322,
      "üz": 323,
      "ık": 324,
      "ok ": 325,
      "im ": 326,
      "iğ": 327,
      "du": 328,
      "az": 329,
      " k": 330,
      "ağ": 331,
      "gö": 332,
      "fil": 333,
      "le ": 334,
      "ığ": 335,
      "yor": 336,
      "ön": 337,
      "ev": 338,
      "ik ": 339,
      "ec": 340,
      "dan ": 341,
      "lan": 342,
      "ar ": 343,
      "um": 344,
      "bu ": 345,
      "el ": 346,
      "ım": 347,
      "mas": 348,
      "ında ": 349,
      "ab": 350,
      "un ": 351,
      "çok ": 352,
      "ok": 353,
      "av": 354,
      "ini ": 355,
      "den ": 356,
      " y": 357,
      " s": 358,
      "iyor": 359,
      "ine ": 360,
      " d": 361,
      "la ": 362,
      "ac": 363,
      "eş": 364,
      "ama": 365,
      "inde ": 366,
      " b": 367,
      "ını ": 368,
      "ım ": 369,
      "end": 370,
      "id": 371,
      " ve ": 372,
      "ger": 373,
      "ık ": 374,
      "gör": 375,
      "film": 376,
      "ız": 377,
      "ıs": 378,
      "için ": 379,
      "anl": 380,
      "li ": 381,
      "us": 382,
      " ol": 383,
      "yap": 384,
      "ut": 385,
      "baş": 386,
      "ib": 387,
      "aç": 388,
      "ül": 389,
      "uş": 390,
      "gel": 391,
      "ist": 392,
      "esi ": 393,
      "ları ": 394,
      "inin ": 395,
      "ya ": 396,
      "oğ": 397,
      "kar": 398,
      "arak ": 399,
      "mış": 400,
      "ına ": 401,
      "ıyor": 402,
      "ver": 403,
      "st": 404,
      "lı ": 405,
      "üş": 406,
      "ün ": 407,
      "ekt": 408,
      "oy": 409,
      "uy": 410,
      "af": 411,
      "iye ": 412,
      "ü ": 413,
      "bilir": 414,
      "iler": 415,
      "on ": 416,
      "lar ": 417,
      "um ": 418,
      "son": 419,
      "leri ": 420,
      "ük": 421,
      "aha ": 422,
      "ile ": 423,
      "lik": 424,
      "kal": 425,
      "kad": 426,
      "ama ": 427,
      "duğ": 428,
      "değ": 429,
      ". B": 430,
      "tır": 431,
      "eç": 432,
      " t": 433,
      "eler": 434,
      "uz": 435,
      "ip": 436,
      "miş": 437,
      "ic": 438,
      "ma ": 439,
      "am ": 440,
      "dır": 441,
      "izl": 442,
      "ığı ": 443,
      " g": 444,
      "alar": 445,
      "san": 446,
      "üm": 447,
      "ıy": 448,
      "ız ": 449,
      "tir": 450,
      "ının ": 451,
      "kit": 452,
      " B": 453,
      "ullan": 454,
      "ından ": 455,
      "di ": 456,
      "ması ": 457,
      "daha ": 458,
      "ro": 459,
      " h": 460,
      "bul": 461,
      "ibi ": 462,
      "film ": 463,
      "ce ": 464,
      "iği ": 465,
      "öy": 466,
      "19": 467,
      "öz": 468,
      "iyi ": 469,
      "- ": 470,
      "uk": 471,
      "i, ": 472,
      "ih": 473,
      "tar": 474,
      "ta ": 475,
      "güz": 476,
      "kon": 477,
      "ez": 478,
      "ıc": 479,
      "em ": 480,
      "etm": 481,
      "ler ": 482,
      "len": 483,
      "ör": 484,
      "ark": 485,
      "if": 486,
      "op": 487,
      "ların ": 488,
      "ki ": 489,
      "öl": 490,
      "unu ": 491,
      "çık": 492,
      "üy": 493,
      "man": 494,
      "iz ": 495,
      "et ": 496,
      "dur": 497,
      "ep": 498,
      "eb": 499,
      "olarak ": 500,
      "kullan": 501,
      "20": 502,
      "ük ": 503,
      "ef": 504,
      "om": 505,
      "art": 506,
      "mak ": 507,
      "alış": 508,
      "ast": 509,
      "lem": 510,
      "sür": 511,
      "aki ": 512,
      "ter": 513,
      " A": 514,
      "inden ": 515,
      "düş": 516,
      "edil": 517,
      "e, ": 518,
      "kitap": 519,
      " m": 520,
      "uz ": 521,
      "abilir": 522,
      "a, ": 523,
      "di": 524,
      "ne ": 525,
      "güzel ": 526,
      "ot": 527,
      "eki ": 528,
      "ben": 529,
      "yan": 530,
      "ı, ": 531,
      "eden ": 532,
      "bel": 533,
      "gibi ": 534,
      "ett": 535,
      "oc": 536,
      "geç": 537,
      "yaş": 538,
      "os": 539,
      "at ": 540,
      "olduğ": 541,
      "var": 542,
      "ind": 543,
      "may": 544,
      "erk": 545,
      "ası ": 546,
      "ınd": 547,
      "etk": 548,
      "kend": 549,
      "sonr": 550,
      "isi ": 551,
      "al ": 552,
      "der": 553,
      "mak": 554,
      "likle ": 555,
      "10": 556,
      "ağl": 557,
      "hay": 558,
      "kur": 559,
      "ir ": 560,
      "kadar ": 561,
      "o ": 562,
      "önem": 563,
      "yar": 564,
      "şey": 565,
      ". A": 566,
      "çalış": 567,
      "üt": 568,
      "uğ": 569,
      "siy": 570,
      "az ": 571,
      "gerç": 572,
      "Tür": 573,
      "ekl": 574,
      "unc": 575,
      "mes": 576,
      "dı ": 577,
      "olan ": 578,
      "te ": 579,
      " K": 580,
      "ort": 581,
      "ada ": 582,
      "iyle ": 583,
      "üzer": 584,
      "mey": 585,
      "yön": 586,
      "doğ": 587,
      "yaz": 588,
      "mal": 589,
      " bir ": 590,
      "uyor": 591,
      "ebilir": 592,
      "lerin ": 593,
      "diğ": 594,
      "üç": 595,
      "eder": 596,
      "'n": 597,
      "up": 598,
      "abil": 599,
      "gen": 600,
      "muş": 601,
      "uk ": 602,
      "ans": 603,
      "yer": 604,
      "aya ": 605,
      "est": 606,
      "dı": 607,
      "tür": 608,
      "har": 609,
      "ıyla ": 610,
      "gil": 611,
      "gerek": 612,
      "ayn": 613,
      "her ": 614,
      "eli ": 615,
      "tur": 616,
      " S": 617,
      "ekil": 618,
      "sev": 619,
      "unda ": 620,
      "üm ": 621,
      "sin": 622,
      "alt": 623,
      "asında ": 624,
      "dığ": 625,
      "sa ": 626,
      "tan": 627,
      "eni ": 628,
      "sah": 629,
      "lara ": 630,
      "eh": 631,
      ". Bu ": 632,
      "sor": 633,
      "düşün": 634,
      "inc": 635,
      "insan": 636,
      "eceğ": 637,
      "üc": 638,
      "değil": 639,
      "ıt": 640,
      "karş": 641,
      "ren": 642,
      "büy": 643,
      "aman": 644,
      "bak": 645,
      "ıp": 646,
      "avs": 647,
      "lu ": 648,
      "par": 649,
      "dım ": 650,
      "sonra ": 651,
      "me ": 652,
      "ede ": 653,
      "mesi ": 654,
      "oyunc": 655,
      "ece ": 656,
      "gün": 657,
      "hal": 658,
      "tem": 659,
      "uyg": 660,
      "fark": 661,
      "den": 662,
      "ise ": 663,
      "alı ": 664,
      "ecek ": 665,
      "uc": 666,
      "mek ": 667,
      "bulun": 668,
      "olay": 669,
      "yapıl": 670,
      "tan ": 671,
      "üs": 672,
      "belir": 673,
      "imi ": 674,
      " - ": 675,
      "imiz": 676,
      "dir": 677,
      "akl": 678,
      " M": 679,
      "tr": 680,
      "gi ": 681,
      "öğ": 682,
      "ilk ": 683,
      "say": 684,
      "filmi ": 685,
      "unun ": 686,
      "yol": 687,
      "du ": 688,
      " T": 689,
      "ılar": 690,
      "gr": 691,
      "maya ": 692,
      "ayr": 693,
      "uç": 694,
      "una ": 695,
      "kat": 696,
      "üyor": 697,
      "tı ": 698,
      "dev": 699,
      "ster": 700,
      " H": 701,
      "ana ": 702,
      "ken ": 703,
      "sağl": 704,
      "yon": 705,
      "ser": 706,
      "anlat": 707,
      "larda ": 708,
      "iyat": 709,
      "kan": 710,
      "cak ": 711,
      "göre ": 712,
      "bir film ": 713,
      "üğ": 714,
      "aman ": 715,
      "mem": 716,
      " D": 717,
      "ley": 718,
      "başl": 719,
      "acak ": 720,
      "hiç": 721,
      "top": 722,
      "dığı ": 723,
      "edir": 724,
      "oku": 725,
      "acağ": 726,
      "An": 727,
      "ediğ": 728,
      "oz": 729,
      "çoc": 730,
      "vey": 731,
      "Türk": 732,
      "ekten ": 733,
      "var ": 734,
      " E": 735,
      "Bu ": 736,
      "uh": 737,
      "rah": 738,
      "eye ": 739,
      "oş": 740,
      "lik ": 741,
      "ellikle ": 742,
      "siz": 743,
      "yıl": 744,
      "enin ": 745,
      "göster": 746,
      "kes": 747,
      "zaman": 748,
      "tavsiye ": 749,
      "etkil": 750,
      "bir kitap": 751,
      "larını ": 752,
      "asıl": 753,
      "ıkl": 754,
      "sun": 755,
      "ısı ": 756,
      "aştır": 757,
      "lend": 758,
      "man ": 759,
      "şekil": 760,
      "duy": 761,
      "Al": 762,
      "teş": 763,
      "hast": 764,
      "akt": 765,
      "od": 766,
      "ez ": 767,
      "hayat": 768,
      "veya ": 769,
      "üp": 770,
      ". K": 771,
      "yüz": 772,
      "i ve ": 773,
      "faz": 774,
      "res": 775,
      "alan": 776,
      "pro": 777,
      "ebil": 778,
      "öyle ": 779,
      "mer": 780,
      "sel ": 781,
      "hak": 782,
      "kap": 783,
      " yıl": 784,
      "lerini ": 785,
      "se ": 786,
      "lere ": 787,
      "ediyor": 788,
      "ant": 789,
      "iki ": 790,
      "ıcı ": 791,
      " G": 792,
      "eri ": 793,
      "büyük ": 794,
      "söy": 795,
      "eden": 796,
      "mıştır": 797,
      "eg": 798,
      ". S": 799,
      "oluş": 800,
      "bir k": 801,
      "iniz": 802,
      "ika ": 803,
      "göz": 804,
      "zaman ": 805,
      "bağ": 806,
      "dür": 807,
      "usu ": 808,
      "tad": 809,
      "değiş": 810,
      "eler ": 811,
      "erek ": 812,
      "ici ": 813,
      "oj": 814,
      " (": 815,
      "bas": 816,
      "üks": 817,
      "kay": 818,
      "miştir": 819,
      "Fil": 820,
      "acak": 821,
      "İn": 822,
      "oldu": 823,
      "kor": 824,
      ". H": 825,
      "leş": 826,
      "ig": 827,
      " Y": 828,
      "üst": 829,
      "iyet": 830,
      " yap": 831,
      "edav": 832,
      "ılı ": 833,
      "son ": 834,
      "bi ": 835,
      "olma": 836,
      "ındaki ": 837,
      "öt": 838,
      "idir": 839,
      "başar": 840,
      "ça ": 841,
      "tı": 842,
      "sen": 843,
      "iler ": 844,
      "düz": 845,
      "18": 846,
      "şekilde ": 847,
      "azı ": 848,
      "durum": 849,
      "tek": 850,
      "zor": 851,
      "let": 852,
      "böl": 853,
      "sın": 854,
      "olduğu ": 855,
      "lık ": 856,
      "dik": 857,
      "sır": 858,
      "ca ": 859,
      "gir": 860,
      "istem": 861,
      "yon ": 862,
      ". D": 863,
      "00": 864,
      "yer ": 865,
      "kitab": 866,
      "ımı ": 867,
      "ard": 868,
      "pr": 869,
      "ka ": 870,
      "malar": 871,
      "kiş": 872,
      "ılan ": 873,
      "bile ": 874,
      "edi ": 875,
      "yet": 876,
      "çek": 877,
      "lendir": 878,
      "ürün": 879,
      "ımız": 880,
      "ileri ": 881,
      "taraf": 882,
      "men ": 883,
      "mut": 884,
      "değer": 885,
      "mekt": 886,
      "izlem": 887,
      "Ar": 888,
      "kıs": 889,
      " İ": 890,
      "lerde ": 891,
      "alın": 892,
      "kür": 893,
      "içer": 894,
      "larının ": 895,
      "met": 896,
      "eleri ": 897,
      "farklı ": 898,
      " O": 899,
      "yak": 900,
      "and": 901,
      "fazla ": 902,
      "kalit": 903,
      " P": 904,
      "yal": 905,
      "kaç": 906,
      "adece ": 907,
      "sık": 908,
      "arasında ": 909,
      "ip ": 910,
      "oloj": 911,
      "geliş": 912,
      "tak": 913,
      "avaş": 914,
      "ime ": 915,
      "ürün ": 916,
      "önce ": 917,
      "daki ": 918,
      "lerinin ": 919,
      "erkes": 920,
      "deki ": 921,
      " olarak ": 922,
      "diği ": 923,
      "işk": 924,
      "uygul": 925,
      "dön": 926,
      "emm": 927,
      "ten ": 928,
      "iv": 929,
      "tut": 930,
      "han": 931,
      "doğr": 932,
      "inlikle ": 933,
      "ayan ": 934,
      "esinde ": 935,
      "anın ": 936,
      "dün": 937,
      "liğ": 938,
      "aj": 939,
      "biz": 940,
      "hat": 941,
      "his": 942,
      "ilgil": 943,
      "önemli ": 944,
      "edim ": 945,
      "per": 946,
      "ikay": 947,
      "15": 948,
      " n": 949,
      "ub": 950,
      "gün ": 951,
      "ıdır": 952,
      "ekkür": 953,
      "etir": 954,
      "anlam": 955,
      "filmin ": 956,
      "ıca ": 957,
      "tadır": 958,
      "tes": 959,
      "ins": 960,
      "ederim": 961,
      "indeki ": 962,
      "yay": 963,
      "biraz ": 964,
      "sey": 965,
      "içinde ": 966,
      "olduğunu ": 967,
      "tek ": 968,
      "for": 969,
      "ag": 970,
      "ent": 971,
      "yüks": 972,
      "gerçekten ": 973,
      "dem": 974,
      "aynı ": 975,
      "u, ": 976,
      "hem ": 977,
      "ilen ": 978,
      "duğu ": 979,
      " gibi ": 980,
      "olur": 981,
      ". Y": 982,
      "beğ": 983,
      "onu ": 984,
      "Çok ": 985,
      "yok ": 986,
      "okt": 987,
      "çıkar": 988,
      "anı ": 989,
      "it ": 990,
      ". E": 991,
      "görün": 992,
      ") ": 993,
      "ben ": 994,
      "taş": 995,
      "neden": 996,
      "sal": 997,
      "larına ": 998,
      "git": 999,
      "diy": 1000,
      "..": 1001,
      "izley": 1002,
      "dil": 1003,
      "diğer ": 1004,
      "lardan ": 1005,
      "çev": 1006,
      "mi ": 1007,
      "lık": 1008,
      "yeni ": 1009,
      "lerden ": 1010,
      "cı ": 1011,
      "cid": 1012,
      "Öz": 1013,
      "masına ": 1014,
      "iyor ": 1015,
      "görül": 1016,
      "lerine ": 1017,
      "getir": 1018,
      "ber": 1019,
      "iş ": 1020,
      "ülk": 1021,
      "öğren": 1022,
      "tığı ": 1023,
      "üz ": 1024,
      "ünde ": 1025,
      "çocuk": 1026,
      " değ": 1027,
      "gid": 1028,
      "2 ": 1029,
      "dış": 1030,
      "güzel": 1031,
      "hep": 1032,
      "Türk ": 1033,
      "ancak ": 1034,
      "olmuş": 1035,
      " tar": 1036,
      "ran": 1037,
      "maktadır": 1038,
      "bur": 1039,
      "biri ": 1040,
      "İl": 1041,
      "dol": 1042,
      "ılma": 1043,
      "ide ": 1044,
      " yaş": 1045,
      "det": 1046,
      "i.": 1047,
      "bit": 1048,
      "birlik": 1049,
      " p": 1050,
      "topl": 1051,
      "tedav": 1052,
      "mat": 1053,
      "ortaya ": 1054,
      "uzun ": 1055,
      "İs": 1056,
      ". T": 1057,
      "en bir ": 1058,
      "üv": 1059,
      "eştir": 1060,
      "iyorum ": 1061,
      "ti ": 1062,
      "eser": 1063,
      " kad": 1064,
      ". G": 1065,
      "ılmış": 1066,
      "ara ": 1067,
      "s ": 1068,
      "ıf": 1069,
      "en, ": 1070,
      "Bir": 1071,
      "nasıl": 1072,
      ". M": 1073,
      "okun": 1074,
      "karşıl": 1075,
      ". O": 1076,
      "AR": 1077,
      "tüm ": 1078,
      "da": 1079,
      "izlen": 1080,
      "ı ve ": 1081,
      "hastal": 1082,
      "tarih": 1083,
      "ünk": 1084,
      "aat": 1085,
      "önc": 1086,
      "ıyor ": 1087,
      ": ": 1088,
      "köt": 1089,
      "las": 1090,
      "bol": 1091,
      "ilgili ": 1092,
      "; ": 1093,
      "liği ": 1094,
      "hız": 1095,
      "ulaş": 1096,
      "rahat": 1097,
      "elik ": 1098,
      "10 ": 1099,
      "belirt": 1100,
      "bır": 1101,
      "larında ": 1102,
      "Baş": 1103,
      "in, ": 1104,
      "med": 1105,
      "iden ": 1106,
      ". 19": 1107,
      "ER": 1108,
      "düğ": 1109,
      "kab": 1110,
      "lak": 1111,
      "her": 1112,
      "ınız": 1113,
      "fiyat": 1114,
      "1 ": 1115,
      "oyn": 1116,
      "bazı ": 1117,
      "meye ": 1118,
      "lerinden ": 1119,
      "neden ": 1120,
      "eyi ": 1121,
      "ov": 1122,
      "tığ": 1123,
      "tal": 1124,
      "ıyorum ": 1125,
      "arkadaş": 1126,
      "gay": 1127,
      "ımız ": 1128,
      "inci ": 1129,
      "bence ": 1130,
      "sadece ": 1131,
      "hakk": 1132,
      "ilişk": 1133,
      "dum ": 1134,
      "ele ": 1135,
      "seç": 1136,
      "og": 1137,
      "küç": 1138,
      "si ": 1139,
      "ecek": 1140,
      "bek": 1141,
      "dım": 1142,
      "arı ": 1143,
      "kom": 1144,
      "adan ": 1145,
      "yas": 1146,
      "rol": 1147,
      "lığ": 1148,
      "sahip": 1149,
      "ret": 1150,
      "başka ": 1151,
      "alan ": 1152,
      "üne ": 1153,
      "cok ": 1154,
      "14": 1155,
      "masını ": 1156,
      "sat": 1157,
      "3 ": 1158,
      "luğ": 1159,
      "devam ": 1160,
      "herkes": 1161,
      "diye ": 1162,
      " kullan": 1163,
      "nin ": 1164,
      "Er": 1165,
      "eme ": 1166,
      "nun ": 1167,
      "lerinde ": 1168,
      "ince ": 1169,
      "İst": 1170,
      "kendi ": 1171,
      "il ": 1172,
      "fak": 1173,
      "dönem": 1174,
      "16": 1175,
      "olabilir": 1176,
      "AN": 1177,
      "bun": 1178,
      "'nin ": 1179,
      "ya da ": 1180,
      "min ": 1181,
      "onun ": 1182,
      "olduk": 1183,
      "t ": 1184,
      "sik": 1185,
      " kal": 1186,
      "200": 1187,
      "tam ": 1188,
      "ilerin ": 1189,
      "esini ": 1190,
      "mektedir": 1191,
      "yen": 1192,
      "üzerine ": 1193,
      "çok güzel ": 1194,
      "an, ": 1195,
      "sız": 1196,
      "'da ": 1197,
      "ök": 1198,
      "17": 1199,
      "lat": 1200,
      "ade ": 1201,
      "mad": 1202,
      "ıda ": 1203,
      "asyon": 1204,
      "ular": 1205,
      "aklaş": 1206,
      "mayı ": 1207,
      "birlikte ": 1208,
      "aldım ": 1209,
      "Ür": 1210,
      "esine ": 1211,
      "mı ": 1212,
      "ılır": 1213,
      "laş": 1214,
      "duyg": 1215,
      "dim ": 1216,
      "müş": 1217,
      "tarafından ": 1218,
      "bir şey": 1219,
      "konuş": 1220,
      "açıkl": 1221,
      "12": 1222,
      "mak için ": 1223,
      "ses": 1224,
      "özel": 1225,
      "inan": 1226,
      "vur": 1227,
      "anbul": 1228,
      "kr": 1229,
      "karşı ": 1230,
      "ütün ": 1231,
      "de": 1232,
      "muh": 1233,
      "itap": 1234,
      "veril": 1235,
      "sahn": 1236,
      "yr": 1237,
      "teşekkür": 1238,
      "Türkiye ": 1239,
      "harika ": 1240,
      "ary": 1241,
      "yok": 1242,
      "ul ": 1243,
      "of": 1244,
      "'de ": 1245,
      "rağ": 1246,
      "lah": 1247,
      "incel": 1248,
      "Kar": 1249,
      "lay": 1250,
      "isini ": 1251,
      "üven": 1252,
      "an bir ": 1253,
      "ması gerek": 1254,
      "amış": 1255,
      "), ": 1256,
      "özellikle ": 1257,
      "çe ": 1258,
      "ağr": 1259,
      "filmde ": 1260,
      "kesinlikle ": 1261,
      "kaz": 1262,
      "tama": 1263,
      "raf": 1264,
      "ediğim ": 1265,
      "aras": 1266,
      "alar ": 1267,
      "lü ": 1268,
      "amay": 1269,
      "gerçekl": 1270,
      "sız ": 1271,
      "elim": 1272,
      "hiss": 1273,
      "(d": 1274,
      "Amer": 1275,
      "okuy": 1276,
      "amak ": 1277,
      "sit": 1278,
      "lad": 1279,
      " son": 1280,
      "kır": 1281,
      "tab": 1282,
      "hur": 1283,
      "bu": 1284,
      "li": 1285,
      "ıp ": 1286,
      "13": 1287,
      "hem": 1288,
      "uygun ": 1289,
      "akter": 1290,
      "siyon": 1291,
      "çok iyi ": 1292,
      "dah": 1293,
      "ayı ": 1294,
      "haf": 1295,
      "düzen": 1296,
      "cih": 1297,
      "dığını ": 1298,
      " kar": 1299,
      "mükemm": 1300,
      "ayd": 1301,
      " C": 1302,
      "güç": 1303,
      " baş": 1304,
      "araştır": 1305,
      "pol": 1306,
      "hikay": 1307,
      "gön": 1308,
      "haz": 1309,
      "en iyi ": 1310,
      "ya": 1311,
      "0 ": 1312,
      "ob": 1313,
      "mış ": 1314,
      "kim": 1315,
      "larla ": 1316,
      "ıkları ": 1317,
      "tavsiye ederim": 1318,
      "pek ": 1319,
      "aları ": 1320,
      "aynak": 1321,
      "re ": 1322,
      "ağır": 1323,
      "doğru ": 1324,
      "anlı ": 1325,
      "lü": 1326,
      "tel": 1327,
      "ucu ": 1328,
      "aber": 1329,
      "tah": 1330,
      "bekl": 1331,
      "siyon ": 1332,
      "elik": 1333,
      "insan ": 1334,
      "sun ": 1335,
      "5 ": 1336,
      "rar ": 1337,
      "kan ": 1338,
      "suz ": 1339,
      "izi ": 1340,
      " aç": 1341,
      "örn": 1342,
      "manın ": 1343,
      "üzel ": 1344,
      "İstanbul": 1345,
      "yine ": 1346,
      "yüksek ": 1347,
      "trol": 1348,
      "başarılı ": 1349,
      "isinde ": 1350,
      "sp": 1351,
      ". An": 1352,
      "bey": 1353,
      "şeh": 1354,
      "madan ": 1355,
      "luk": 1356,
      "ye ": 1357,
      "iht": 1358,
      "laka ": 1359,
      "lerle ": 1360,
      "bilg": 1361,
      "böyle ": 1362,
      "ra ": 1363,
      "ris": 1364,
      "lar, ": 1365,
      "ti": 1366,
      "la": 1367,
      "ask": 1368,
      "da, ": 1369,
      "iğini ": 1370,
      "'nın ": 1371,
      "değerlendir": 1372,
      "tat": 1373,
      "day": 1374,
      "seb": 1375,
      "kayb": 1376,
      "dı.": 1377,
      ". Ç": 1378,
      "'ın ": 1379,
      "yapılan ": 1380,
      "kanı ": 1381,
      "din": 1382,
      "beb": 1383,
      " al": 1384,
      "eği ": 1385,
      "geldi ": 1386,
      "uma ": 1387,
      "öz ": 1388,
      "gelen ": 1389,
      "eket": 1390,
      "oyuncul": 1391,
      "mel": 1392,
      "bir şekilde ": 1393,
      "oldukça ": 1394,
      "dest": 1395,
      "ost": 1396,
      "sistem": 1397,
      "ail": 1398,
      "elde ": 1399,
      "led": 1400,
      "ıma ": 1401,
      "undan ": 1402,
      "sağ": 1403,
      "'in ": 1404,
      "kitabı ": 1405,
      " olan ": 1406,
      "başlad": 1407,
      "bah": 1408,
      " ile ": 1409,
      "mayan ": 1410,
      "bırak": 1411,
      "asar": 1412,
      "ınız ": 1413,
      ". İ": 1414,
      "te": 1415,
      "oluştur": 1416,
      "siniz": 1417,
      "imiz ": 1418,
      "benim ": 1419,
      " kadar ": 1420,
      "ann": 1421,
      "dav": 1422,
      "müz": 1423,
      "ler, ": 1424,
      "koy": 1425,
      "di.": 1426,
      "ilg": 1427,
      "ağı ": 1428,
      "üret": 1429,
      "eşit": 1430,
      "esi": 1431,
      "asl": 1432,
      "yöntem": 1433,
      "ünü ": 1434,
      "nın ": 1435,
      "le": 1436,
      "şu ": 1437,
      "amı ": 1438,
      "rağmen ": 1439,
      "Or": 1440,
      "a da ": 1441,
      "eyen ": 1442,
      "beğend": 1443,
      " F": 1444,
      "kurul": 1445,
      "rup": 1446,
      "ekli ": 1447,
      "eceği ": 1448,
      "sonuç": 1449,
      "üzerinde ": 1450,
      "itab": 1451,
      "he ": 1452,
      "dü": 1453,
      "zaten ": 1454,
      "usunda ": 1455,
      "lüğ": 1456,
      "Amerik": 1457,
      "hav": 1458,
      "iye": 1459,
      "men": 1460,
      "re": 1461,
      "kullanıl": 1462,
      "ünkü ": 1463,
      "yat": 1464,
      "ünün ": 1465,
      "imde ": 1466,
      "ust": 1467,
      "eğit": 1468,
      " N": 1469,
      "çoğ": 1470,
      "sorun": 1471,
      "söz": 1472,
      "boy": 1473,
      "yaklaş": 1474,
      "işi ": 1475,
      "edilen ": 1476,
      "cil": 1477,
      "ederim ": 1478,
      "hazır": 1479,
      "II": 1480,
      "37": 1481,
      "luk ": 1482,
      "larından ": 1483,
      "Ak": 1484,
      "ing": 1485,
      "duk": 1486,
      " f": 1487,
      "ısından ": 1488,
      "bana ": 1489,
      "etmek ": 1490,
      "ima ": 1491,
      "mil": 1492,
      " kon": 1493,
      "düşünüyor": 1494,
      "u ve ": 1495,
      "olması ": 1496,
      "mek": 1497,
      "Kur": 1498,
      "sil": 1499,
      "AK": 1500,
      "mek için ": 1501,
      "elerin ": 1502,
      "görüş": 1503,
      "EN": 1504,
      "Av": 1505,
      "hoş": 1506,
      "kol": 1507,
      "kork": 1508,
      "miş ": 1509,
      "kız": 1510,
      "savaş": 1511,
      ". P": 1512,
      "görev": 1513,
      "aşır": 1514,
      "uv": 1515,
      "AB": 1516,
      "hızlı ": 1517,
      "mez": 1518,
      "alg": 1519,
      "mak ist": 1520,
      "gul": 1521,
      "cid:": 1522,
      "sunuz ": 1523,
      "kolay": 1524,
      "ay ": 1525,
      "mü": 1526,
      "benz": 1527,
      "hangi ": 1528,
      "iydi ": 1529,
      "bu kadar ": 1530,
      "kaliteli ": 1531,
      "süp": 1532,
      "test": 1533,
      "ence ": 1534,
      "erj": 1535,
      "esinin ": 1536,
      "güven": 1537,
      "iyorum": 1538,
      "oğl": 1539,
      "mükemmel ": 1540,
      "forman": 1541,
      "kul": 1542,
      "tık": 1543,
      " olduğ": 1544,
      "çöz": 1545,
      "eti ": 1546,
      "beklen": 1547,
      "çi ": 1548,
      "yi ": 1549,
      " Bu ": 1550,
      "bilin": 1551,
      "lük ": 1552,
      "anan ": 1553,
      "öner": 1554,
      "filme ": 1555,
      "sanız ": 1556,
      "is ": 1557,
      "gül": 1558,
      "landır": 1559,
      "erken ": 1560,
      "sam": 1561,
      "İN": 1562,
      "iver": 1563,
      "enf": 1564,
      "tekn": 1565,
      "geçir": 1566,
      "arın ": 1567,
      ", s": 1568,
      "met ": 1569,
      "ımda ": 1570,
      "yarat": 1571,
      "ölüm": 1572,
      "cer": 1573,
      "tım ": 1574,
      "bütün ": 1575,
      "yorum": 1576,
      "(cid:": 1577,
      "gönder": 1578,
      "amp": 1579,
      "ne kadar ": 1580,
      "anda ": 1581,
      "i:": 1582,
      "ili ": 1583,
      "mada ": 1584,
      "  ": 1585,
      "yeter": 1586,
      "beni ": 1587,
      "konu": 1588,
      "199": 1589,
      " sah": 1590,
      "ölç": 1591,
      "tü": 1592,
      "imin ": 1593,
      "e ve ": 1594,
      "ani ": 1595,
      "küçük ": 1596,
      "gerekt": 1597,
      "performan": 1598,
      "birçok ": 1599,
      "gerek ": 1600,
      " bul": 1601,
      "hed": 1602,
      "dığım ": 1603,
      " V": 1604,
      "hakkında ": 1605,
      "ak, ": 1606,
      "isinin ": 1607,
      "ıları ": 1608,
      "oldu ": 1609,
      "anal": 1610,
      "anlaş": 1611,
      " diye ": 1612,
      "karakter": 1613,
      "lam": 1614,
      "has": 1615,
      "uf": 1616,
      "ize ": 1617,
      "ner": 1618,
      "erkez": 1619,
      "iniz ": 1620,
      "yür": 1621,
      "değil ": 1622,
      "kontrol": 1623,
      "kem": 1624,
      "ir.": 1625,
      "4 ": 1626,
      "ümüz": 1627,
      "iğer ": 1628,
      "eng": 1629,
      "öğrenc": 1630,
      "kazan": 1631,
      "de, ": 1632,
      "uyla ": 1633,
      "kı ": 1634,
      "ibar": 1635,
      "Fr": 1636,
      "198": 1637,
      "adı ": 1638,
      "anlar ": 1639,
      "ud": 1640,
      "ılık ": 1641,
      "boz": 1642,
      "ch": 1643,
      "aba ": 1644,
      " kur": 1645,
      "plan": 1646,
      "kısa ": 1647,
      " mil": 1648,
      " ver": 1649,
      "sef": 1650,
      "siz ": 1651,
      "bölüm": 1652,
      "dül": 1653,
      "Film ": 1654,
      "bunu ": 1655,
      "şim": 1656,
      "avr": 1657,
      "ilik ": 1658,
      "li bir ": 1659,
      "güzel bir ": 1660,
      "olojik ": 1661,
      "org": 1662,
      "kas": 1663,
      "bölg": 1664,
      "artık ": 1665,
      "üzere ": 1666,
      "mutlaka ": 1667,
      "Os": 1668,
      "etkiley": 1669,
      ". N": 1670,
      "okul": 1671,
      "maz": 1672,
      "iddet": 1673,
      "asyon ": 1674,
      "sar": 1675,
      "olmas": 1676,
      "bar": 1677,
      "vet": 1678,
      "ortaya çık": 1679,
      "Ger": 1680,
      "ıç": 1681,
      "siyas": 1682,
      "ark ": 1683,
      "yönetm": 1684,
      "lanan ": 1685,
      "otur": 1686,
      " daha ": 1687,
      "br": 1688,
      "İngil": 1689,
      "oğlu ": 1690,
      "yağ": 1691,
      "hemen ": 1692,
      "gayet": 1693,
      "ıya ": 1694,
      "Ürün ": 1695,
      "uğr": 1696,
      "leştir": 1697,
      "tedavi ": 1698,
      "roman": 1699,
      "alık ": 1700,
      "su ": 1701,
      "ları": 1702,
      "isine ": 1703,
      "eğlen": 1704,
      "utbol": 1705,
      "hey": 1706,
      "ızı ": 1707,
      "senary": 1708,
      " ki ": 1709,
      "emek ": 1710,
      "Cumhur": 1711,
      "kadar": 1712,
      "8 ": 1713,
      "leri": 1714,
      "ültür": 1715,
      "rak": 1716,
      "elime ": 1717,
      " taraf": 1718,
      "orm": 1719,
      " yılında ": 1720,
      "dolay": 1721,
      "meden ": 1722,
      "dan": 1723,
      "üf": 1724,
      "eski ": 1725,
      "ıklı ": 1726,
      "ihtiy": 1727,
      "yardım": 1728,
      "sol": 1729,
      "İç": 1730,
      "(ö": 1731,
      "Gen": 1732,
      "tekrar ": 1733,
      "İR": 1734,
      "umu ": 1735,
      "11": 1736,
      "Kat": 1737,
      "ları, ": 1738,
      "sel": 1739,
      "anlık ": 1740,
      "boş": 1741,
      "oh": 1742,
      "bağlı ": 1743,
      "olsa ": 1744,
      " yön": 1745,
      "30": 1746,
      "atı ": 1747,
      "MA": 1748,
      "ünden ": 1749,
      "hareket": 1750,
      "açısından ": 1751,
      "ın, ": 1752,
      "Türkiye": 1753,
      "çeşit": 1754,
      "eyif": 1755,
      "çiz": 1756,
      "konusu ": 1757,
      "altında ": 1758,
      "tim ": 1759,
      "IN": 1760,
      "Gün": 1761,
      "aların ": 1762,
      "öyl": 1763,
      "aktör": 1764,
      "birbir": 1765,
      "enler ": 1766,
      "gu ": 1767,
      "sos": 1768,
      "lığı ": 1769,
      "gib": 1770,
      "25": 1771,
      "beğen": 1772,
      "bulunan ": 1773,
      "o kadar ": 1774,
      "(d. 19": 1775,
      "Bel": 1776,
      "gerçek ": 1777,
      "Bak": 1778,
      "hayal": 1779,
      "işl": 1780,
      "bay": 1781,
      "karg": 1782,
      "işlem": 1783,
      "izler": 1784,
      "baz": 1785,
      "vüc": 1786,
      "yönet": 1787,
      "sab": 1788,
      " say": 1789,
      "ona ": 1790,
      "vardır": 1791,
      "ayrıca ": 1792,
      "ikleri ": 1793,
      "birey": 1794,
      ". F": 1795,
      "inal": 1796,
      "kabul ": 1797,
      "anlay": 1798,
      "acı ": 1799,
      "4)": 1800,
      "bes": 1801,
      "ide": 1802,
      "6 ": 1803,
      "lar ve ": 1804,
      "ında, ": 1805,
      "yaln": 1806,
      "indir": 1807,
      "süre ": 1808,
      "öğr": 1809,
      "katıl": 1810,
      "saç": 1811,
      "mu": 1812,
      "onom": 1813,
      " Ç": 1814,
      "aslında ": 1815,
      "Ay": 1816,
      " bu ": 1817,
      "ünü": 1818,
      " R": 1819,
      "Ama ": 1820,
      "düny": 1821,
      "sürec": 1822,
      "zamanda ": 1823,
      "uygulan": 1824,
      "oğraf": 1825,
      "sine": 1826,
      "uştur": 1827,
      "eceğini ": 1828,
      "leri, ": 1829,
      "yer al": 1830,
      " olduğu ": 1831,
      "ılması ": 1832,
      ". Ö": 1833,
      "gür": 1834,
      "pat": 1835,
      "Amerikalı ": 1836,
      " değil": 1837,
      "eser ": 1838,
      "kans": 1839,
      "daha iyi ": 1840,
      " yaz": 1841,
      "genellikle ": 1842,
      "ardından ": 1843,
      "cev": 1844,
      "amaz": 1845,
      "bir film": 1846,
      "yani ": 1847,
      "mam": 1848,
      "ığını ": 1849,
      "özellik": 1850,
      "abilecek ": 1851,
      "Kon": 1852,
      "ılmaz ": 1853,
      "konu ": 1854,
      "lardır": 1855,
      "ikinci ": 1856,
      "teşem ": 1857,
      "zar": 1858,
      "ill": 1859,
      "dık": 1860,
      "lama ": 1861,
      "laz": 1862,
      "Bir ": 1863,
      "ayat": 1864,
      "performans": 1865,
      "an ve ": 1866,
      "çar": 1867,
      "mar": 1868,
      "7 ": 1869,
      "tercih": 1870,
      "mesine ": 1871,
      "kat ": 1872,
      "ler ve ": 1873,
      "kıy": 1874,
      "mıyor": 1875,
      "Kal": 1876,
      "eleştir": 1877,
      "mev": 1878,
      "gerçekleştir": 1879,
      "mesini ": 1880,
      "acağı ": 1881,
      "genel ": 1882,
      " sür": 1883,
      "ere ": 1884,
      "âl": 1885,
      "ığın ": 1886,
      " v": 1887,
      "parç": 1888,
      "Ol": 1889,
      "ifade ": 1890,
      "çocuğ": 1891,
      "sağlık ": 1892,
      "açık": 1893,
      "aber ": 1894,
      "Özellikle ": 1895,
      "leme ": 1896,
      "int": 1897,
      " ama ": 1898,
      "şiddet": 1899,
      "yerine ": 1900,
      "nedeniyle ": 1901,
      "Dev": 1902,
      "ogr": 1903,
      "acağını ": 1904,
      "lul": 1905,
      "kil": 1906,
      "olan": 1907,
      "tük": 1908,
      "oluyor": 1909,
      "egor": 1910,
      "cin": 1911,
      "sem": 1912,
      "çekil": 1913,
      "ht": 1914,
      "ettiğ": 1915,
      "yaşad": 1916,
      "197": 1917,
      "nun": 1918,
      "Har": 1919,
      "geri ": 1920,
      "l-": 1921,
      "itibar": 1922,
      "(cid:37": 1923,
      "min": 1924,
      "kaynak": 1925,
      "ema ": 1926,
      "ılar ": 1927,
      "göz ": 1928,
      "alarda ": 1929,
      "bab": 1930,
      "isi": 1931,
      "ettiği ": 1932,
      "masının ": 1933,
      "olum": 1934,
      "İş": 1935,
      "can": 1936,
      " dur": 1937,
      "İlk ": 1938,
      " geç": 1939,
      "irk": 1940,
      "dönüş": 1941,
      " güzel ": 1942,
      "kendini ": 1943,
      " hal": 1944,
      "kötü ": 1945,
      "om ": 1946,
      "İL": 1947,
      "almış": 1948,
      "ek, ": 1949,
      "Doğ": 1950,
      "tu": 1951,
      "oyuncu": 1952,
      "fayd": 1953,
      "bilgi ": 1954,
      "Frans": 1955,
      " An": 1956,
      "asına ": 1957,
      "amac": 1958,
      "geçen ": 1959,
      "fır": 1960,
      "ilere ": 1961,
      "muştur": 1962,
      "kah": 1963,
      "unut": 1964,
      "abilir.": 1965,
      "ediği ": 1966,
      "genç": 1967,
      "24": 1968,
      "iştir": 1969,
      "amaç": 1970,
      "tan sonra ": 1971,
      "İz": 1972,
      "elerini ": 1973,
      "adam": 1974,
      "âr": 1975,
      "fr": 1976,
      " sev": 1977,
      "leriyle ": 1978,
      "özel ": 1979,
      "oktor": 1980,
      "yaptığı ": 1981,
      " tarih": 1982,
      "ışı ": 1983,
      "net": 1984,
      "arası ": 1985,
      " ş": 1986,
      "sav": 1987,
      "sınır": 1988,
      "EL": 1989,
      "sak": 1990,
      "ınt": 1991,
      "azet": 1992,
      "ik ve ": 1993,
      "du.": 1994,
      ". Bir": 1995,
      "mesi gerek": 1996,
      "En": 1997,
      "oyunca ": 1998,
      "ormal": 1999,
      "eks": 2000,
      "kl": 2001,
      "asını ": 2002,
      "hes": 2003,
      "aret": 2004,
      "def": 2005,
      "Ben ": 2006,
      "nit": 2007,
      "dar": 2008,
      "27": 2009,
      "söyl": 2010,
      " da ": 2011,
      "hem de ": 2012,
      ". Ancak ": 2013,
      "progr": 2014,
      "nokt": 2015,
      "lemek ": 2016,
      "Ad": 2017,
      "mik": 2018,
      "imizi ": 2019,
      "ümk": 2020,
      " kend": 2021,
      " de ": 2022,
      " gün ": 2023,
      "lama": 2024,
      "maz ": 2025,
      "maları ": 2026,
      " Ar": 2027,
      "21": 2028,
      "ilaç": 2029,
      "ilmiş": 2030,
      "ij": 2031,
      "acaktır": 2032,
      "süper ": 2033,
      "tavsiye ederim ": 2034,
      "hatır": 2035,
      "elere ": 2036,
      "ayrı ": 2037,
      "Her ": 2038,
      "50": 2039,
      "inizi ": 2040,
      "değiştir": 2041,
      "kop": 2042,
      "geliştir": 2043,
      "saat": 2044,
      "ân": 2045,
      "dum": 2046,
      "söyley": 2047,
      "geril": 2048,
      "fark ": 2049,
      "celi ": 2050,
      " bin ": 2051,
      "izledim ": 2052,
      "El": 2053,
      "lı bir ": 2054,
      "iir": 2055,
      "fakat ": 2056,
      "AL": 2057,
      "a ve ": 2058,
      "mah": 2059,
      "yol aç": 2060,
      "en ve ": 2061,
      "ke ": 2062,
      "ısında ": 2063,
      "amer": 2064,
      "grup": 2065,
      "tamam": 2066,
      "Ün": 2067,
      " Baş": 2068,
      "Çoc": 2069,
      "ekonom": 2070,
      "hiz": 2071,
      "196": 2072,
      "mod": 2073,
      "ı.": 2074,
      "if ": 2075,
      "yoğ": 2076,
      "sur": 2077,
      "ettir": 2078,
      "ten sonra ": 2079,
      "ane ": 2080,
      "9 ": 2081,
      "ii ": 2082,
      "andır": 2083,
      "alık": 2084,
      "suç": 2085,
      "miyor": 2086,
      "eyin ": 2087,
      "dr": 2088,
      " tarafından ": 2089,
      "Tar": 2090,
      "gelir": 2091,
      "Rus": 2092,
      "mek ist": 2093,
      "yum": 2094,
      "bu film ": 2095,
      "ecekt": 2096,
      "aket": 2097,
      "söz ": 2098,
      "iyet ": 2099,
      "insanın ": 2100,
      "bunun ": 2101,
      " bel": 2102,
      "dağ": 2103,
      "keyif": 2104,
      "iksel ": 2105,
      "okum": 2106,
      "mak üzere ": 2107,
      "bat": 2108,
      "dikkat": 2109,
      "ımın ": 2110,
      "Uz": 2111,
      "ine": 2112,
      "Ab": 2113,
      "çocuk ": 2114,
      "fik": 2115,
      "ayet": 2116,
      "eşekkür": 2117,
      "ört": 2118,
      "kaf": 2119,
      "toplum": 2120,
      "ılmıştır": 2121,
      "dışında ": 2122,
      "sonunda ": 2123,
      "vak": 2124,
      "belki ": 2125,
      "yönelik ": 2126,
      "piş": 2127,
      "seyr": 2128,
      "idir.": 2129,
      "ması gereken ": 2130,
      "y ": 2131,
      "ılarak ": 2132,
      "ene ": 2133,
      "iyas": 2134,
      "duğum ": 2135,
      "aat ": 2136,
      "cez": 2137,
      "OR": 2138,
      "EK": 2139,
      "zer": 2140,
      "olu ": 2141,
      "enim ": 2142,
      "fiz": 2143,
      ". V": 2144,
      "karar": 2145,
      "uyu ": 2146,
      "maya çalış": 2147,
      "ik bir ": 2148,
      " düş": 2149,
      "22": 2150,
      "As": 2151,
      "memnun": 2152,
      "fa": 2153,
      "artır": 2154,
      "birkaç": 2155,
      "ebilir.": 2156,
      "resim": 2157,
      "’in ": 2158,
      "çünkü ": 2159,
      "’ın ": 2160,
      "üküm": 2161,
      "içerisinde ": 2162,
      "sürük": 2163,
      "çeşitli ": 2164,
      "ıv": 2165,
      "fakat": 2166,
      "prob": 2167,
      "ış ": 2168,
      "sap": 2169,
      "sebep": 2170,
      "ar ver": 2171,
      "Son": 2172,
      "sık ": 2173,
      "ıdan ": 2174,
      "Avrup": 2175,
      " düz": 2176,
      "arasındaki ": 2177,
      "tep": 2178,
      "3)": 2179,
      "prima ": 2180,
      "Ro": 2181,
      ". Ar": 2182,
      "belirlen": 2183,
      "inç": 2184,
      "şah": 2185,
      "açık ": 2186,
      "ri": 2187,
      "enler": 2188,
      "psik": 2189,
      "meyi ": 2190,
      "gayet ": 2191,
      "pu": 2192,
      "etmiş": 2193,
      "bin": 2194,
      "konusunda ": 2195,
      "akk": 2196,
      "eyse ": 2197,
      "bağl": 2198,
      "müt": 2199,
      "memnun ": 2200,
      "diğini ": 2201,
      "’l-": 2202,
      " hast": 2203,
      "dikkat ": 2204,
      "AT": 2205,
      "isim": 2206,
      "kötü": 2207,
      "üzerinden ": 2208,
      "işe ": 2209,
      "uğu ": 2210,
      "pay": 2211,
      "im ve ": 2212,
      " sor": 2213,
      "ırım ": 2214,
      "sonuc": 2215,
      " diy": 2216,
      "elerde ": 2217,
      "hiçbir ": 2218,
      "hastalık": 2219,
      "kadın": 2220,
      "ette ": 2221,
      "inde, ": 2222,
      "Ön": 2223,
      "ilerini ": 2224,
      "aksiyon ": 2225,
      "yan ": 2226,
      "her şey": 2227,
      "bu filmi ": 2228,
      "yüzde ": 2229,
      "ipar": 2230,
      "ell": 2231,
      "i?": 2232,
      "urada ": 2233,
      "kö": 2234,
      "teşekkürler": 2235,
      "insanların ": 2236,
      "çalışma ": 2237,
      "yeniden ": 2238,
      "sanat": 2239,
      " olma": 2240,
      "eyle ": 2241,
      " san": 2242,
      "durum ": 2243,
      "yazar": 2244,
      "olsun ": 2245,
      "biç": 2246,
      "ran ": 2247,
      "bir ürün ": 2248,
      "ilir": 2249,
      "tarz": 2250,
      "leri ve ": 2251,
      "büyük bir ": 2252,
      "Hal": 2253,
      "fel": 2254,
      "öldür": 2255,
      "farkl": 2256,
      "malıdır": 2257,
      "miştir.": 2258,
      "eğin ": 2259,
      "elerinin ": 2260,
      "kim ": 2261,
      "düşünc": 2262,
      "öyk": 2263,
      "evr": 2264,
      "İY": 2265,
      "yanın ": 2266,
      "ma, ": 2267,
      "ınca ": 2268,
      " L": 2269,
      "kok": 2270,
      "gec": 2271,
      "incelen": 2272,
      "futbol": 2273,
      "haber": 2274,
      "sıc": 2275,
      "sin ": 2276,
      "ifad": 2277,
      " kitap": 2278,
      "mez ": 2279,
      "ediyorum ": 2280,
      "muhteşem ": 2281,
      "Osm": 2282,
      "rar": 2283,
      "anlar": 2284,
      "ciddi ": 2285,
      " ded": 2286,
      "Eğ": 2287,
      " yer": 2288,
      "tık ": 2289,
      "ıların ": 2290,
      "yakın ": 2291,
      "ünc": 2292,
      "şehir": 2293,
      "aması ": 2294,
      "uyar": 2295,
      " olduğunu ": 2296,
      "ıyı ": 2297,
      "etkili ": 2298,
      "para ": 2299,
      "ABD": 2300,
      ".\"": 2301,
      " saat": 2302,
      "i ile ": 2303,
      "lar için ": 2304,
      "meyen ": 2305,
      "malar ": 2306,
      "yardımcı ": 2307,
      "öneml": 2308,
      " der": 2309,
      "yans": 2310,
      "hatta ": 2311,
      "'a ": 2312,
      "deş": 2313,
      "kaldır": 2314,
      "telef": 2315,
      "izin ": 2316,
      ". Ş": 2317,
      "çevr": 2318,
      "Dün": 2319,
      "masında ": 2320,
      "emiş": 2321,
      "malı ": 2322,
      "davran": 2323,
      "oz ": 2324,
      "gın ": 2325,
      "tik ": 2326,
      "ulan ": 2327,
      "yaşam ": 2328,
      "hüc": 2329,
      "siniz ": 2330,
      "kanl": 2331,
      "ank": 2332,
      "ektör": 2333,
      "ce": 2334,
      "rat": 2335,
      "dolayı ": 2336,
      "kelim": 2337,
      "adet": 2338,
      "Filmin ": 2339,
      " kitab": 2340,
      "Mer": 2341,
      "Ah": 2342,
      " için ": 2343,
      "na ": 2344,
      "tasar": 2345,
      " ser": 2346,
      "mark": 2347,
      "çok sev": 2348,
      "yanl": 2349,
      "ilmesi ": 2350,
      "ge ": 2351,
      "Kr": 2352,
      "vat": 2353,
      "tav": 2354,
      "Allah": 2355,
      "ediyorum": 2356,
      "zev": 2357,
      "değer ": 2358,
      " in ": 2359,
      " den": 2360,
      "gar": 2361,
      "oyuncu ": 2362,
      "şark": 2363,
      "herkese ": 2364,
      "kut": 2365,
      "elekt": 2366,
      "etr": 2367,
      "etti ": 2368,
      "gerçek": 2369,
      "ruh": 2370,
      "olar": 2371,
      "otoğraf": 2372,
      "Yaz": 2373,
      "ve": 2374,
      "ci ": 2375,
      "geliyor": 2376,
      " kap": 2377,
      "dam": 2378,
      "ograf": 2379,
      "öğret": 2380,
      "beğendim ": 2381,
      "onk": 2382,
      "Pro": 2383,
      "lak ": 2384,
      "tart": 2385,
      " har": 2386,
      "cu": 2387,
      "yaşan": 2388,
      "arken ": 2389,
      "üb": 2390,
      "merak ": 2391,
      "23": 2392,
      "ow": 2393,
      "ayır": 2394,
      "iyat ": 2395,
      "ken": 2396,
      "endir": 2397,
      "kez ": 2398,
      "oks": 2399,
      "heyec": 2400,
      "akıl": 2401,
      "değişik": 2402,
      "koş": 2403,
      "atıl": 2404,
      "iddi": 2405,
      "ları ve ": 2406,
      "a'": 2407,
      "mis": 2408,
      "bez": 2409,
      "lis": 2410,
      "edik": 2411,
      "ıyorum": 2412,
      "düzey": 2413,
      "Bil": 2414,
      "sak ": 2415,
      " kiş": 2416,
      "iliğ": 2417,
      "lanmış": 2418,
      "üdür": 2419,
      "Kategori:": 2420,
      "air": 2421,
      "ması, ": 2422,
      "engel": 2423,
      "nef": 2424,
      "olup": 2425,
      "adım ": 2426,
      "biy": 2427,
      "ısını ": 2428,
      "lu": 2429,
      " kay": 2430,
      "okur": 2431,
      "eğlenceli ": 2432,
      "por": 2433,
      "yl": 2434,
      "sürekli ": 2435,
      "- B": 2436,
      "Uy": 2437,
      "maç": 2438,
      "çevir": 2439,
      "ebilirim ": 2440,
      "adır": 2441,
      "lim ": 2442,
      "ET": 2443,
      "alet": 2444,
      "diğim ": 2445,
      " Ş": 2446,
      "tanım": 2447,
      "kıl": 2448,
      "tespit ": 2449,
      " gr": 2450,
      "vardı ": 2451,
      "adam ": 2452,
      "önemli bir ": 2453,
      ". C": 2454,
      "ebilecek ": 2455,
      "1)": 2456,
      ".”": 2457,
      "altına ": 2458,
      "En ": 2459,
      "sib": 2460,
      "ımc": 2461,
      "üyük ": 2462,
      "karış": 2463,
      "dık ": 2464,
      "kültür": 2465,
      "Ser": 2466,
      "a’": 2467,
      "yalnız": 2468,
      "0.": 2469,
      "urt": 2470,
      "ı'n": 2471,
      "spor": 2472,
      "ait": 2473,
      "Ok": 2474,
      "azal": 2475,
      "cut": 2476,
      "deney": 2477,
      "fer": 2478,
      " yüz": 2479,
      "yapıt": 2480,
      "hiç ": 2481,
      "(ö. ": 2482,
      "larıyla ": 2483,
      "en çok ": 2484,
      "kus": 2485,
      "herhangi ": 2486,
      "saldır": 2487,
      "muyor": 2488,
      "Mar": 2489,
      "diz": 2490,
      "adlı ": 2491,
      "ina ": 2492,
      "sinema ": 2493,
      "beri ": 2494,
      "devlet": 2495,
      "tercih ": 2496,
      "malı": 2497,
      "emey": 2498,
      "dayan": 2499,
      " kıs": 2500,
      "lar b": 2501,
      "AY": 2502,
      "akıcı ": 2503,
      "öğretm": 2504,
      "kent": 2505,
      "ilerinin ": 2506,
      "ia ": 2507,
      "ri ": 2508,
      "ice ": 2509,
      "ında": 2510,
      "dana ": 2511,
      "tiğ": 2512,
      "aret ": 2513,
      "imizin ": 2514,
      "Üniversit": 2515,
      "Tr": 2516,
      "anların ": 2517,
      "faktör": 2518,
      "luğu ": 2519,
      "içine ": 2520,
      "İM": 2521,
      "ortal": 2522,
      "amaya ": 2523,
      "gu": 2524,
      "kullanılan ": 2525,
      "Ne ": 2526,
      "için": 2527,
      "asla ": 2528,
      "abiliyor": 2529,
      "izlediğim ": 2530,
      "LAR": 2531,
      "eksik": 2532,
      "ta": 2533,
      "uzey": 2534,
      "bet": 2535,
      "en büyük ": 2536,
      "dim": 2537,
      "pan": 2538,
      "ES": 2539,
      " kalit": 2540,
      "mo": 2541,
      "Es": 2542,
      "etik ": 2543,
      "amak": 2544,
      "güt": 2545,
      "AS": 2546,
      "hedef": 2547,
      "aktar": 2548,
      "seyir": 2549,
      "a çık": 2550,
      "ku ": 2551,
      "yanı ": 2552,
      " olur": 2553,
      "insanı ": 2554,
      "bilim": 2555,
      "EM": 2556,
      "arada ": 2557,
      "ön ": 2558,
      "öv": 2559,
      "utlu ": 2560,
      "iyil": 2561,
      "teh": 2562,
      "olmayan ": 2563,
      "in ve ": 2564,
      "larımız": 2565,
      "dir ": 2566,
      "esn": 2567,
      "tartış": 2568,
      "aban": 2569,
      "UN": 2570,
      "yanında ": 2571,
      " c": 2572,
      "İnsan": 2573,
      "çarp": 2574,
      "yık": 2575,
      "oran": 2576,
      "ve bu ": 2577,
      "lenen ": 2578,
      "bilgil": 2579,
      "ilç": 2580,
      "imden ": 2581,
      "teşekkür ": 2582,
      "vaz": 2583,
      "başlan": 2584,
      "Br": 2585,
      "leyici ": 2586,
      "paylaş": 2587,
      "hafif": 2588,
      "irt": 2589,
      "asının ": 2590,
      "daha fazla ": 2591,
      "tul": 2592,
      "kalp": 2593,
      "40": 2594,
      "suz": 2595,
      "tamamen ": 2596,
      "şiir": 2597,
      "geçmiş": 2598,
      "arac": 2599,
      "ırken ": 2600,
      "amadım ": 2601,
      "ham": 2602,
      "ilerine ": 2603,
      "ışlı ": 2604,
      "Hast": 2605,
      "doktor": 2606,
      "san ": 2607,
      ", Amerikalı ": 2608,
      "âh": 2609,
      "Daha ": 2610,
      "\" ": 2611,
      "Gör": 2612,
      "ına göre ": 2613,
      "ayak": 2614,
      "sosyal": 2615,
      "yaklaşık ": 2616,
      "giriş": 2617,
      "bahs": 2618,
      "alarında ": 2619,
      "ması": 2620,
      "ıydı ": 2621,
      "HP": 2622,
      "temel ": 2623,
      "guz": 2624,
      "karşılaş": 2625,
      "ali ": 2626,
      "edilir": 2627,
      "dep": 2628,
      "etti": 2629,
      "kavr": 2630,
      "Mah": 2631,
      "sırasında ": 2632,
      "'un ": 2633,
      "çoğu ": 2634,
      "dolu ": 2635,
      "tik": 2636,
      "esinden ": 2637,
      "edd": 2638,
      "28": 2639,
      "imize ": 2640,
      "iyi bir ": 2641,
      "derece ": 2642,
      "enerj": 2643,
      "kadın ": 2644,
      "bakış": 2645,
      "varsa ": 2646,
      "part": 2647,
      "tı.": 2648,
      "başvur": 2649,
      "araç": 2650,
      "esi, ": 2651,
      "sizl": 2652,
      "kara ": 2653,
      "bitir": 2654,
      "beklent": 2655,
      "ki": 2656,
      "'e ": 2657,
      "küçük": 2658,
      "Kad": 2659,
      " dak": 2660,
      "Kitap": 2661,
      "lant": 2662,
      "nı ": 2663,
      "elikle ": 2664,
      "Gerç": 2665,
      " Al": 2666,
      "es ": 2667,
      "’nin ": 2668,
      "Ev": 2669,
      "yarg": 2670,
      "taki ": 2671,
      "Em": 2672,
      "irüs": 2673,
      "ziy": 2674,
      "çalışmalar": 2675,
      "meydana ": 2676,
      "kardeş": 2677,
      "emin ": 2678,
      "sok": 2679,
      "kapsam": 2680,
      "düşük ": 2681,
      " kır": 2682,
      "örnek": 2683,
      "sınız ": 2684,
      "Film": 2685,
      "bize ": 2686,
      "nasıl ": 2687,
      "el-": 2688,
      "Dem": 2689,
      "ettim ": 2690,
      "şekl": 2691,
      "cerrah": 2692,
      "şimdi ": 2693,
      "amel": 2694,
      "mayın ": 2695,
      "basit": 2696,
      " milyon ": 2697,
      "uda ": 2698,
      "duygus": 2699,
      "umuz ": 2700,
      "yüksel": 2701,
      ", M": 2702,
      "esiyle ": 2703,
      "çab": 2704,
      "şık ": 2705,
      "ew": 2706,
      "5)": 2707,
      "Yön": 2708,
      "çok": 2709,
      "ich": 2710,
      "esi ve ": 2711,
      "dak": 2712,
      "Bey": 2713,
      ". Bun": 2714,
      " olması ": 2715,
      "öm": 2716,
      "sınıf": 2717,
      "San": 2718,
      "adaki ": 2719,
      "emi ": 2720,
      "mesaj": 2721,
      "uvvet": 2722,
      "eceğim ": 2723,
      "program": 2724,
      "sal ": 2725,
      "yaşam": 2726,
      "ül ": 2727,
      "merkez": 2728,
      "normal": 2729,
      "daha çok ": 2730,
      "dünya ": 2731,
      "mağ": 2732,
      "verdiği ": 2733,
      "de bu ": 2734,
      "enek": 2735,
      " sır": 2736,
      "ılığ": 2737,
      "Sor": 2738,
      "ilişkin ": 2739,
      "klas": 2740,
      "tu ": 2741,
      " kat": 2742,
      "kaçır": 2743,
      "itir": 2744,
      "keş": 2745,
      "tüket": 2746,
      "sonucu ": 2747,
      "tar ": 2748,
      "mevcut": 2749,
      "Ağ": 2750,
      "verilen ": 2751,
      "süreç": 2752,
      " sahn": 2753,
      "götür": 2754,
      "mümkün ": 2755,
      "ılık": 2756,
      "yayın": 2757,
      "(d. ": 2758,
      "laştır": 2759,
      "yüzyıl": 2760,
      "mutlu ": 2761,
      "anlatan ": 2762,
      "etkileyici ": 2763,
      "Güzel ": 2764,
      "memnun kal": 2765,
      "seviy": 2766,
      "hak ": 2767,
      "edeb": 2768,
      " Bir": 2769,
      "ediy": 2770,
      "AD": 2771,
      "yazar ": 2772,
      "im, ": 2773,
      "ug": 2774,
      "iyoruz ": 2775,
      "eklen": 2776,
      "boyunca ": 2777,
      "ısıyla ": 2778,
      "sebeb": 2779,
      "han ": 2780,
      "enlerin ": 2781,
      "problem": 2782,
      "edir?": 2783,
      "rik ": 2784,
      "bizim ": 2785,
      "26": 2786,
      "unca ": 2787,
      "gerçekleş": 2788,
      "olmay": 2789,
      "onik ": 2790,
      "düşünüyorum ": 2791,
      "izleyin ": 2792,
      "ma ve ": 2793,
      "adığı ": 2794,
      "kişi ": 2795,
      "paket": 2796,
      "ayıf": 2797,
      "ediğini ": 2798,
      "azalt": 2799,
      "ini, ": 2800,
      "eğer ": 2801,
      "pl": 2802,
      "inş": 2803,
      "mıştır.": 2804,
      "işte ": 2805,
      "ile ilgili ": 2806,
      "Par": 2807,
      "imleri ": 2808,
      "adına ": 2809,
      "tip": 2810,
      "sipar": 2811,
      "u'n": 2812,
      "kayn": 2813,
      "dük": 2814,
      "oloji ": 2815,
      " doğ": 2816,
      ". Ayrıca ": 2817,
      "asit": 2818,
      "okudum ": 2819,
      "Pr": 2820,
      "osu ": 2821,
      "güc": 2822,
      "enlere ": 2823,
      "195": 2824,
      "Oy": 2825,
      " dönem": 2826,
      "aşk": 2827,
      "ü, ": 2828,
      "geler": 2829,
      "İyi ": 2830,
      " her ": 2831,
      "Bur": 2832,
      "belli ": 2833,
      "dal": 2834,
      "Osmanlı ": 2835,
      "maktan ": 2836,
      "sonrası ": 2837,
      "kir": 2838,
      "ken, ": 2839,
      "all": 2840,
      "oper": 2841,
      "IM": 2842,
      "ale ": 2843,
      "ılıyor": 2844,
      "ır.": 2845,
      "aday": 2846,
      "şöyle ": 2847,
      "söyled": 2848,
      "şey ": 2849,
      " bulun": 2850,
      "a'nın ": 2851,
      "afa ": 2852,
      ". R": 2853,
      "herhangi bir ": 2854,
      "madd": 2855,
      "Son ": 2856,
      "rom": 2857,
      "üler": 2858,
      "ült": 2859,
      " gün": 2860,
      "Sur": 2861,
      "olabil": 2862,
      "burada ": 2863,
      "ilgi ": 2864,
      "1.": 2865,
      "del": 2866,
      "çok daha ": 2867,
      "ıklık ": 2868,
      "fotoğraf": 2869,
      "ulaştı ": 2870,
      "ıntı ": 2871,
      "tern": 2872,
      "ilet": 2873,
      "istan ": 2874,
      "filmlerden ": 2875,
      "astik ": 2876,
      "cüm": 2877,
      "cevap": 2878,
      "evi ": 2879,
      "filmleri ": 2880,
      "tüm": 2881,
      "düm ": 2882,
      " yok ": 2883,
      "iyi": 2884,
      "ların": 2885,
      "sorun ": 2886,
      "aşırı ": 2887,
      "gördüğ": 2888,
      "bağım": 2889,
      "dey": 2890,
      " haf": 2891,
      "OK": 2892,
      "er ve ": 2893,
      "enüz ": 2894,
      "masına rağmen ": 2895,
      "ift": 2896,
      "leyen ": 2897,
      "üyle ": 2898,
      "herkesin ": 2899,
      "Teşekkür": 2900,
      "oyun": 2901,
      "ısına ": 2902,
      "aşk ": 2903,
      "İsl": 2904,
      "yapan ": 2905,
      "ikler": 2906,
      "oluşan ": 2907,
      "0,": 2908,
      "anları ": 2909,
      "risk": 2910,
      "başına ": 2911,
      "le, ": 2912,
      "lo": 2913,
      "yüzden ": 2914,
      "Ch": 2915,
      "izlerken ": 2916,
      "ayar": 2917,
      "fiyata ": 2918,
      "sürdür": 2919,
      "mamış": 2920,
      "ır ": 2921,
      "eğitim ": 2922,
      "mektedir.": 2923,
      "Yap": 2924,
      "Fak": 2925,
      "filmden ": 2926,
      "ini": 2927,
      "lek": 2928,
      "ıyoruz ": 2929,
      "zayıf": 2930,
      " BİR": 2931,
      "ator": 2932,
      "umar": 2933,
      "çat": 2934,
      "polit": 2935,
      "194": 2936,
      "savun": 2937,
      "layan ": 2938,
      "elerdir": 2939,
      "fen": 2940,
      "'ye ": 2941,
      "lük": 2942,
      "bilm": 2943,
      "çekt": 2944,
      "doğan ": 2945,
      "Muh": 2946,
      "unla ": 2947,
      "udur": 2948,
      "in bir ": 2949,
      "best": 2950,
      "proj": 2951,
      "alara ": 2952,
      "Kesinlikle ": 2953,
      "d ": 2954,
      "sıra ": 2955,
      "maktadır.": 2956,
      "sonu ": 2957,
      "ler için ": 2958,
      "LI": 2959,
      " yar": 2960,
      " gen": 2961,
      "asker": 2962,
      "çok güzel": 2963,
      "renk": 2964,
      "hala ": 2965,
      "(cid:374)": 2966,
      "unuz ": 2967,
      "Çocuk": 2968,
      "Kan": 2969,
      "Tan": 2970,
      "Öl": 2971,
      "be ": 2972,
      "lus": 2973,
      "lıkla ": 2974,
      "özgür": 2975,
      "bi film ": 2976,
      "anlamlı ": 2977,
      "let ": 2978,
      ". Ama ": 2979,
      "29": 2980,
      "aray": 2981,
      "etkisi ": 2982,
      ". Her ": 2983,
      "İK": 2984,
      "abart": 2985,
      "yer alan ": 2986,
      "ıldığı ": 2987,
      "edi": 2988,
      "sam ": 2989,
      "ÜR": 2990,
      "sas": 2991,
      "elerine ": 2992,
      "dü ": 2993,
      "görüyor": 2994,
      "sın ": 2995,
      "şaşır": 2996,
      "Yıl": 2997,
      "UR": 2998,
      "olacak ": 2999,
      "söylem": 3000,
      "li ve ": 3001,
      "Der": 3002,
      "imz": 3003,
      "uzur": 3004,
      "gez": 3005,
      "ızlı ": 3006,
      "inde": 3007,
      "ekte ": 3008,
      "makta ": 3009,
      "ite ": 3010,
      "Kor": 3011,
      "DE": 3012,
      "itibaren ": 3013,
      "gece ": 3014,
      "detay": 3015,
      "ÜN": 3016,
      "In": 3017,
      "rad": 3018,
      "fonk": 3019,
      "Devlet": 3020,
      "madı ": 3021,
      "buna ": 3022,
      "tay": 3023,
      "altı ": 3024,
      "Den": 3025,
      "vücut": 3026,
      "lem ": 3027,
      ", bu ": 3028,
      "işim ": 3029,
      "yada ": 3030,
      "==": 3031,
      "inize ": 3032,
      "gazet": 3033,
      "beş": 3034,
      "önem ": 3035,
      "en önemli ": 3036,
      "ediye ": 3037,
      "lid": 3038,
      "masıyla ": 3039,
      "kalan ": 3040,
      "ilt": 3041,
      " ya da ": 3042,
      "idar": 3043,
      "beraber ": 3044,
      "fes": 3045,
      "Nasıl": 3046,
      "ie ": 3047,
      " 20": 3048,
      "soy": 3049,
      "üsü ": 3050,
      "ması ve ": 3051,
      "size ": 3052,
      "ulus": 3053,
      "edilmiştir": 3054,
      "unuz": 3055,
      "enfeksiyon": 3056,
      "edin": 3057,
      "çıkan ": 3058,
      "polis": 3059,
      "nedenle ": 3060,
      "takip ": 3061,
      "LER": 3062,
      "görünt": 3063,
      "2)": 3064,
      "fir": 3065,
      "iyoruz": 3066,
      "Meh": 3067,
      "yerde ": 3068,
      "abilirsiniz": 3069,
      "Mil": 3070,
      "ateş": 3071,
      "opl": 3072,
      "ınızı ": 3073,
      "başka bir ": 3074,
      ", S": 3075,
      "tanı": 3076,
      "İT": 3077,
      "yo": 3078,
      "lenmiş": 3079,
      "'te ": 3080,
      "amacıyla ": 3081,
      "ölg": 3082,
      "up ": 3083,
      "sağlam ": 3084,
      "Yaş": 3085,
      "sanki ": 3086,
      "yeterli ": 3087,
      "ilk": 3088,
      "ısının ": 3089,
      "kurgu ": 3090,
      "aktiv": 3091,
      "ihtiyaç": 3092,
      "her zaman ": 3093,
      "geniş": 3094,
      "bildir": 3095,
      "eli": 3096,
      "elerinde ": 3097,
      "tom": 3098,
      "sizi ": 3099,
      "hüküm": 3100,
      "bugün ": 3101,
      "Ayrıca ": 3102,
      "etin ": 3103,
      ", s. ": 3104,
      "kav": 3105,
      "iyeti ": 3106,
      "Başkanı ": 3107,
      "lenme ": 3108,
      "sen ": 3109,
      "uzak ": 3110,
      "örgüt": 3111,
      "tığını ": 3112,
      "don": 3113,
      "zem": 3114,
      "üsl": 3115,
      "bebeğ": 3116,
      "edebil": 3117,
      "büt": 3118,
      "tarihi ": 3119,
      "zeng": 3120,
      "tahmin ": 3121,
      "udan ": 3122,
      "de bir ": 3123,
      "lar da ": 3124,
      "AP": 3125,
      "orta ": 3126,
      "'den ": 3127,
      ", “": 3128,
      "itt": 3129,
      "emat": 3130,
      "temel": 3131,
      "ilginç": 3132,
      " nin ": 3133,
      "ani": 3134,
      "Ancak ": 3135,
      "aynı zamanda ": 3136,
      "şun": 3137,
      ") ve ": 3138,
      "onları ": 3139,
      "oyunculuk ": 3140,
      "boyut": 3141,
      "AM": 3142,
      "atta ": 3143,
      "ekn": 3144,
      "veren ": 3145,
      "atif": 3146,
      "tas": 3147,
      "konus": 3148,
      "amda ": 3149,
      "onların ": 3150,
      "gun": 3151,
      "aks": 3152,
      "oyunculuk": 3153,
      "endi ": 3154,
      "yorum ": 3155,
      "kurtar": 3156,
      "iminde ": 3157,
      "poz": 3158,
      "amak için ": 3159,
      "se": 3160,
      "ilmiştir": 3161,
      "görüntü": 3162,
      "memiş": 3163,
      "karar ver": 3164,
      "dok": 3165,
      "sayf": 3166,
      "î ": 3167,
      "bal": 3168,
      "vas": 3169,
      "Avrupa ": 3170,
      "başlay": 3171,
      "liğini ": 3172,
      "ederek ": 3173,
      "cul": 3174,
      ". “": 3175,
      " bence ": 3176,
      "ned": 3177,
      "ko": 3178,
      "üzel": 3179,
      "icin ": 3180,
      "soğ": 3181,
      "kargo": 3182,
      "açıl": 3183,
      "fazlas": 3184,
      "Ve ": 3185,
      "aln": 3186,
      "hesap": 3187,
      "Kem": 3188,
      "büyük": 3189,
      "iliği ": 3190,
      "ürünü ": 3191,
      "adığ": 3192,
      " bi ": 3193,
      "Hep": 3194,
      "amaz ": 3195,
      "ü ve ": 3196,
      "sınız": 3197,
      "ındır": 3198,
      "şüp": 3199,
      "analiz": 3200,
      "bulunduğu ": 3201,
      "100": 3202,
      "okuduğum ": 3203,
      "ildi ": 3204,
      "maya başlad": 3205,
      "pri": 3206,
      "ah ": 3207,
      "yı ": 3208,
      "Kitab": 3209,
      "terap": 3210,
      " yol": 3211,
      "umda ": 3212,
      "anne ": 3213,
      "-i ": 3214,
      "ılığı ": 3215,
      "ders": 3216,
      "medim ": 3217,
      "yanlış": 3218,
      "anlığ": 3219,
      "rak ": 3220,
      "ilmes": 3221,
      "ban": 3222,
      "eklem": 3223,
      "daha da ": 3224,
      "guzel ": 3225,
      "hale ": 3226,
      " sonra ": 3227,
      "Fransız ": 3228,
      "Ed": 3229,
      "eliğ": 3230,
      "ilerek ": 3231,
      "mon": 3232,
      "ıza ": 3233,
      "gı ": 3234,
      "Ül": 3235,
      "imini ": 3236,
      "alınd": 3237,
      " dün": 3238,
      "van": 3239,
      "düşünüyorum": 3240,
      "şart": 3241,
      "sağlıklı ": 3242,
      "hizmet": 3243,
      "kalitesi ": 3244,
      "ayıs": 3245,
      "IR": 3246,
      "h ": 3247,
      "er, ": 3248,
      " Ö": 3249,
      "felsef": 3250,
      "rit": 3251,
      "Gel": 3252,
      "yoğun ": 3253,
      "yarar": 3254,
      "lar.": 3255,
      "ısır": 3256,
      ". Z": 3257,
      "derec": 3258,
      " sağl": 3259,
      "kendine ": 3260,
      "yere ": 3261,
      "kalk": 3262,
      "” ": 3263,
      "esel ": 3264,
      "bozuk": 3265,
      "cu ": 3266,
      "devr": 3267,
      "müştür": 3268,
      "kontrol ": 3269,
      "vekil": 3270,
      "UL": 3271,
      "ödül": 3272,
      "'nde ": 3273,
      "sunuz": 3274,
      "güzel bir kitap": 3275,
      "ç ": 3276,
      "senaryo": 3277,
      "alım ": 3278,
      "imdi ": 3279,
      "kayd": 3280,
      "bakım": 3281,
      "idir ": 3282,
      "erkek ": 3283,
      "bask": 3284,
      "Yeni ": 3285,
      "tiği ": 3286,
      "sahip ol": 3287,
      "Pol": 3288,
      "İngiliz": 3289,
      "AŞ": 3290,
      ". L": 3291,
      "hücr": 3292,
      "olduğu için ": 3293,
      "veriyor": 3294,
      "kişinin ": 3295,
      "can ": 3296,
      "İtal": 3297,
      " değer": 3298,
      "Bence ": 3299,
      "da bir ": 3300,
      " oldu ": 3301,
      "sl": 3302,
      "sayesinde ": 3303,
      "kuş": 3304,
      "amıyor": 3305,
      "siyaset": 3306,
      "müdah": 3307,
      "i'nin ": 3308,
      "alat": 3309,
      "izm ": 3310,
      "list": 3311,
      "ımızı ": 3312,
      "hava ": 3313,
      "farklı bir ": 3314,
      "bor": 3315,
      "mot": 3316,
      "iydi": 3317,
      "ustafa ": 3318,
      "ekler": 3319,
      "dönemde ": 3320,
      "IŞ": 3321,
      "öp": 3322,
      "öylece ": 3323,
      " bir film ": 3324,
      "umuz": 3325,
      "ameliyat": 3326,
      "bu filmde ": 3327,
      "mac": 3328,
      "kam": 3329,
      "us ": 3330,
      " kayb": 3331,
      "ces": 3332,
      "Gerçekten ": 3333,
      "ılabilir": 3334,
      "ilik": 3335,
      "Savaş": 3336,
      "ej": 3337,
      "rol ": 3338,
      "ira ": 3339,
      "ros": 3340,
      "etmeye ": 3341,
      "60": 3342,
      "olumsuz ": 3343,
      ", \"": 3344,
      " kor": 3345,
      ". Son": 3346,
      "zorunda ": 3347,
      "Kom": 3348,
      "eket ": 3349,
      "ümüzde ": 3350,
      "rist": 3351,
      "mesi için ": 3352,
      "arj": 3353,
      " boy": 3354,
      "ektedir": 3355,
      "daha önce ": 3356,
      "Yun": 3357,
      "yakın": 3358,
      "organ": 3359,
      "davranış": 3360,
      "izde ": 3361,
      "ası": 3362,
      "vatandaş": 3363,
      "azir": 3364,
      " Bel": 3365,
      "yansıt": 3366,
      "geldi": 3367,
      ". Bunun ": 3368,
      "’a ": 3369,
      "sonuna ": 3370,
      " sonr": 3371,
      "ayın": 3372,
      "arş": 3373,
      "müthiş": 3374,
      "bilim ": 3375,
      "kahr": 3376,
      "parator": 3377,
      "gerekir": 3378,
      "dığında ": 3379,
      "inlik": 3380,
      "dök": 3381,
      "ilerde ": 3382,
      "çünkü": 3383,
      "çer": 3384,
      "Dav": 3385,
      "ıştır": 3386,
      "hayatını ": 3387,
      "gerilim ": 3388,
      "th": 3389,
      "eci ": 3390,
      "lerce ": 3391,
      "elim ": 3392,
      "millet": 3393,
      "azar": 3394,
      "akter ": 3395,
      "yeni bir ": 3396,
      "en güzel ": 3397,
      "ON": 3398,
      "amalar": 3399,
      "önüne ": 3400,
      " olabilir": 3401,
      "ood": 3402,
      "ü b": 3403,
      "faydalı ": 3404,
      "isinden ": 3405,
      "abileceğ": 3406,
      "ümüz ": 3407,
      "bu kitap": 3408,
      "apor": 3409,
      "makla ": 3410,
      "ulu ": 3411,
      "olun": 3412,
      "kurtul": 3413,
      "cilt": 3414,
      "halk": 3415,
      "faal": 3416,
      "ikt": 3417,
      "alınan ": 3418,
      "insanlar ": 3419,
      " kişi ": 3420,
      "yem": 3421,
      "bazen ": 3422,
      " sın": 3423,
      "mak, ": 3424,
      "toplam ": 3425,
      "içi ": 3426,
      "izlemek ": 3427,
      "dun ": 3428,
      "umlu ": 3429,
      "yazılmış": 3430,
      "sa": 3431,
      "akş": 3432,
      "sağlan": 3433,
      "isi, ": 3434,
      "yavaş": 3435,
      "çevres": 3436,
      "hepsi ": 3437,
      "en iy": 3438,
      "form": 3439,
      "Alman": 3440,
      "küçükresim|": 3441,
      "e de ": 3442,
      "yaşayan ": 3443,
      "final": 3444,
      "193": 3445,
      "lin": 3446,
      "Tarih": 3447,
      "efekt": 3448,
      "AH": 3449,
      "yaygın ": 3450,
      "ref": 3451,
      ". yüzyıl": 3452,
      "oyun ": 3453,
      "Alman ": 3454,
      "teb": 3455,
      "2015": 3456,
      "ur ": 3457,
      "elerden ": 3458,
      "Joh": 3459,
      "şirk": 3460,
      "ener": 3461,
      ". İş": 3462,
      "ne": 3463,
      "LE": 3464,
      "miktar": 3465,
      "meli ": 3466,
      " karş": 3467,
      "aca ": 3468,
      "gelmiş": 3469,
      "yal ": 3470,
      "ildi": 3471,
      "ey ": 3472,
      "arab": 3473,
      "yapıyor": 3474,
      "o, ": 3475,
      "bilgis": 3476,
      "konuda ": 3477,
      "menin ": 3478,
      "gerekli ": 3479,
      "üçük ": 3480,
      "ight": 3481,
      "soru": 3482,
      "sağlay": 3483,
      "bilgiler ": 3484,
      "yapım ": 3485,
      "dik ": 3486,
      "Genel ": 3487,
      "lazım ": 3488,
      "Hol": 3489,
      "artış": 3490,
      "gerektiğini ": 3491,
      "dost": 3492,
      "defa ": 3493,
      "yu": 3494,
      "Filmi ": 3495,
      "Ali ": 3496,
      "ması için ": 3497,
      "anlığı ": 3498,
      "leri ile ": 3499,
      "Tur": 3500,
      "edeyse ": 3501,
      "şans": 3502,
      "çağ": 3503,
      " hep": 3504,
      "birşey": 3505,
      "ım, ": 3506,
      "huzur": 3507,
      "emez": 3508,
      "teslim ": 3509,
      "dan sonra ": 3510,
      "mir": 3511,
      "sa, ": 3512,
      "giy": 3513,
      "ism": 3514,
      "sa da ": 3515,
      "sıkıcı ": 3516,
      "edeki ": 3517,
      "öbr": 3518,
      "değildir": 3519,
      "filmler": 3520,
      " yaşındaki ": 3521,
      "olmak üzere ": 3522,
      "seri ": 3523,
      "olmaz": 3524,
      "Beb": 3525,
      "The ": 3526,
      "ry": 3527,
      "karşılaştır": 3528,
      "edavi ": 3529,
      "ığında ": 3530,
      "Sür": 3531,
      "İZ": 3532,
      "üyük": 3533,
      " başar": 3534,
      "halde ": 3535,
      "aile ": 3536,
      "bizi ": 3537,
      "undaki ": 3538,
      "ubu ": 3539,
      " olmuş": 3540,
      "henüz ": 3541,
      "önceki ": 3542,
      "yalnızca ": 3543,
      "e kadar ": 3544,
      "ımızda ": 3545,
      "î, ": 3546,
      "hikaye ": 3547,
      "a'da ": 3548,
      "oid": 3549,
      " bır": 3550,
      "kitabın ": 3551,
      "Kız": 3552,
      "ığına ": 3553,
      "imler": 3554,
      "etme ": 3555,
      "dair": 3556,
      "yapmış": 3557,
      "sona ": 3558,
      "boğ": 3559,
      "car": 3560,
      "zih": 3561,
      "und": 3562,
      "UM": 3563,
      "düşünül": 3564,
      "uyor ": 3565,
      "biraz daha ": 3566,
      "uan ": 3567,
      "ut ": 3568,
      "hel": 3569,
      "ine, ": 3570,
      "Bar": 3571,
      "elinde ": 3572,
      "destek ": 3573,
      " hem ": 3574,
      "günlük ": 3575,
      "tez": 3576,
      "en az ": 3577,
      "başlang": 3578,
      "not": 3579,
      "000": 3580,
      "vazgeç": 3581,
      "şek": 3582,
      "On": 3583,
      "elt": 3584,
      "Han": 3585,
      "eyn": 3586,
      "esel": 3587,
      "istan": 3588,
      "durumu ": 3589,
      " Ağ": 3590,
      "yana ": 3591,
      "asım ": 3592,
      "bağlan": 3593,
      "Nedir?": 3594,
      "ıldı": 3595,
      "10 10": 3596,
      "din ": 3597,
      "isyon": 3598,
      "akla ": 3599,
      "alın ": 3600,
      "gibi": 3601,
      "işleri ": 3602,
      "ü’l-": 3603,
      "ilerle ": 3604,
      "lar s": 3605,
      "siyonu ": 3606,
      "rahatsız": 3607,
      "I, ": 3608,
      "ital": 3609,
      "dünyanın ": 3610,
      "Yar": 3611,
      "Sağl": 3612,
      "masından ": 3613,
      "ısı, ": 3614,
      "makin": 3615,
      "Müdür": 3616,
      "ister": 3617,
      "kullanıyorum ": 3618,
      "yolu ": 3619,
      "ve çok ": 3620,
      " kırıkl": 3621,
      "mit": 3622,
      " ve bu ": 3623,
      "rahat ": 3624,
      "bağış": 3625,
      "me": 3626,
      "'i ": 3627,
      "çı ": 3628,
      " tan": 3629,
      "ete ": 3630,
      "komedi ": 3631,
      "duygu": 3632,
      "İb": 3633,
      "asıyla ": 3634,
      "ine göre ": 3635,
      "inal ": 3636,
      "Nelerdir?": 3637,
      "ehir": 3638,
      "son derece ": 3639,
      "umun ": 3640,
      "Et": 3641,
      "nüf": 3642,
      "des": 3643,
      "medi ": 3644,
      "80": 3645,
      "isel ": 3646,
      "grub": 3647,
      "acağım ": 3648,
      "başında ": 3649,
      "mesi gereken ": 3650,
      "filmlerinden ": 3651,
      "yanıt": 3652,
      "terör": 3653,
      "birisi ": 3654,
      "iyor.": 3655,
      "dığımız ": 3656,
      "silah": 3657,
      "att": 3658,
      "2014": 3659,
      "böyle bir ": 3660,
      "gider": 3661,
      "dört": 3662,
      "ti.": 3663,
      "türk ": 3664,
      "kel": 3665,
      "amada ": 3666,
      "olmuş ": 3667,
      "doğrul": 3668,
      "edebilir": 3669,
      "ekip": 3670,
      "sinir": 3671,
      "ortaya koy": 3672,
      "’n": 3673,
      "'dan ": 3674,
      "8)": 3675,
      "rn": 3676,
      "üme ": 3677,
      "45": 3678,
      "ras": 3679,
      "mam ": 3680,
      "elerle ": 3681,
      "mur": 3682,
      "üzerindeki ": 3683,
      "gor": 3684,
      "izyon": 3685,
      "ıd": 3686,
      "şır": 3687,
      "lerdir": 3688,
      "ü s": 3689,
      "edilmiş": 3690,
      "idi ": 3691,
      "lüğü ": 3692,
      "aldığı ": 3693,
      "müyor": 3694,
      "doğal": 3695,
      "imli ": 3696,
      "iyorsunuz ": 3697,
      "bir eser": 3698,
      "dukça ": 3699,
      "gerc": 3700,
      "iyordu": 3701,
      "edebiyat": 3702,
      " grub": 3703,
      "benzer ": 3704,
      "ci": 3705,
      "pek çok ": 3706,
      "bir kitap ": 3707,
      "yük": 3708,
      "imle ": 3709,
      "etti.": 3710,
      "rast": 3711,
      " kaz": 3712,
      "tuğ": 3713,
      "önünde ": 3714,
      "lı": 3715,
      "At": 3716,
      "biz ": 3717,
      "abileceği ": 3718,
      "ku": 3719,
      "serinin ": 3720,
      "(ö. 19": 3721,
      "ar ve ": 3722,
      "iler, ": 3723,
      "iyileş": 3724,
      "oo": 3725,
      "Herkes": 3726,
      "ald": 3727,
      "pişman ": 3728,
      "iyorsanız ": 3729,
      "mak ve ": 3730,
      "taşıy": 3731,
      " seviy": 3732,
      " dedi.": 3733,
      "...": 3734,
      "toplan": 3735,
      " kes": 3736,
      "roman ": 3737,
      "alır": 3738,
      "sert": 3739,
      "ekonomik ": 3740,
      "tekrar": 3741,
      "Kay": 3742,
      "bakış aç": 3743,
      "adım": 3744,
      "sonucunda ": 3745,
      "ını, ": 3746,
      "ımızın ": 3747,
      "korun": 3748,
      "emmuz ": 3749,
      "deniz": 3750,
      "meye çalış": 3751,
      "piyas": 3752,
      " tak": 3753,
      "dı ve ": 3754,
      "olmadığı ": 3755,
      "la, ": 3756,
      "kitap ": 3757,
      " tab": 3758,
      "İk": 3759,
      "alıyor": 3760,
      "sipariş ": 3761,
      "12 ": 3762,
      "tic": 3763,
      "şeklinde ": 3764,
      "ışık ": 3765,
      "seniz ": 3766,
      "hap": 3767,
      "itam": 3768,
      "Tek ": 3769,
      "kurg": 3770,
      "İstanbul ": 3771,
      "DA": 3772,
      "ang": 3773,
      "adem": 3774,
      "fırsat": 3775,
      "Çalış": 3776,
      "Le": 3777,
      "şiş": 3778,
      "sim": 3779,
      "İm": 3780,
      " VE": 3781,
      "6)": 3782,
      " ben": 3783,
      "zek": 3784,
      "bağlı olarak ": 3785,
      "fikir": 3786,
      " Mart": 3787,
      "ayet ": 3788,
      "sıv": 3789,
      "2016": 3790,
      "aa": 3791,
      "emin": 3792,
      "çocukların ": 3793,
      "nes": 3794,
      "bağır": 3795,
      "köy": 3796,
      "yokt": 3797,
      "sorgul": 3798,
      "düşür": 3799,
      " OL": 3800,
      "aklık ": 3801,
      "cerrahi ": 3802,
      "9)": 3803,
      "inanılmaz ": 3804,
      "etkilen": 3805,
      "lamış": 3806,
      "edir ": 3807,
      "olmuştur": 3808,
      "etraf": 3809,
      "ulmuş": 3810,
      "sürede ": 3811,
      "yazarın ": 3812,
      "ortak ": 3813,
      " dedi ": 3814,
      " düzey": 3815,
      "yanı sıra ": 3816,
      "izim ": 3817,
      "ısı": 3818,
      "alarını ": 3819,
      "almıştım ": 3820,
      "atist": 3821,
      "ettiğim ": 3822,
      ". Daha ": 3823,
      "okurken ": 3824,
      "ler de ": 3825,
      "gal": 3826,
      "yine de ": 3827,
      "olduğu gibi ": 3828,
      "Uzun ": 3829,
      "larca ": 3830,
      "sonrasında ": 3831,
      "Şub": 3832,
      "çok fazla ": 3833,
      "ustos": 3834,
      "ülke ": 3835,
      " kom": 3836,
      "aw": 3837,
      "açıdan ": 3838,
      "varlığ": 3839,
      "Ter": 3840,
      "zamanlarda ": 3841,
      "başta ": 3842,
      "ınızda ": 3843,
      "âm": 3844,
      "Hayat": 3845,
      "tör": 3846,
      ". Özellikle ": 3847,
      "uyorum ": 3848,
      "Ber": 3849,
      "anlamda ": 3850,
      "tor": 3851,
      "bulutlu ": 3852,
      "adı": 3853,
      "çift": 3854,
      "zevk": 3855,
      "Fiyat": 3856,
      "eyim ": 3857,
      "Ulus": 3858,
      ". Ay": 3859,
      "kavram": 3860,
      "bende ": 3861,
      " sistem": 3862,
      "ımdan ": 3863,
      " Er": 3864,
      "ile birlikte ": 3865,
      "enli ": 3866,
      "iminin ": 3867,
      "rek": 3868,
      "tavsiy": 3869,
      "üper ": 3870,
      "90": 3871,
      "Paş": 3872,
      "ılmadan ": 3873,
      "ormal ": 3874,
      "unsur": 3875,
      "ullah": 3876,
      "ımıza ": 3877,
      "Part": 3878,
      "seniz": 3879,
      "ı?": 3880,
      "hoc": 3881,
      "Sel": 3882,
      "çası ": 3883,
      "se de ": 3884,
      "görülen ": 3885,
      "yalı ": 3886,
      "diyebilirim ": 3887,
      "ı da ": 3888,
      "yürüt": 3889,
      "düğü ": 3890,
      "haline ": 3891,
      "başyapıt": 3892,
      "gereken ": 3893,
      "hip": 3894,
      "sk": 3895,
      "üley": 3896,
      "edildi": 3897,
      "yaşay": 3898,
      " ın ": 3899,
      "qu": 3900,
      "sürükleyici ": 3901,
      "ly": 3902,
      "dis": 3903,
      "fi": 3904,
      "neredeyse ": 3905,
      " med": 3906,
      "kapat": 3907,
      "35": 3908,
      "Üniversitesi ": 3909,
      " kaç": 3910,
      "hareket ": 3911,
      "Sul": 3912,
      "çok başarılı ": 3913,
      "saptan": 3914,
      "o da ": 3915,
      "yapılmış": 3916,
      "- K": 3917,
      "alarının ": 3918,
      "kendisine ": 3919,
      "siyasi ": 3920,
      "üksek ": 3921,
      " tut": 3922,
      "ortam": 3923,
      "yoktur": 3924,
      "sonraki ": 3925,
      "söylen": 3926,
      "mesi ve ": 3927,
      "asyonu ": 3928,
      "tehlik": 3929,
      "dokun": 3930,
      "ölüm ": 3931,
      "iyiydi ": 3932,
      "ılan": 3933,
      "beklem": 3934,
      "düzenli ": 3935,
      "gü": 3936,
      "- S": 3937,
      "gun ": 3938,
      "alesef": 3939,
      "sermay": 3940,
      "enn": 3941,
      "eseri ": 3942,
      " düşün": 3943,
      "ya, ": 3944,
      "filmdi ": 3945,
      "kuvvet": 3946,
      "ahr": 3947,
      "’de ": 3948,
      "hassas": 3949,
      "kelimeyle ": 3950,
      "çıktı ": 3951,
      "yerleş": 3952,
      "Kaynak": 3953,
      " Z": 3954,
      "ayrıl": 3955,
      "aziran ": 3956,
      "mızı ": 3957,
      "diş": 3958,
      "karakter ": 3959,
      " sık": 3960,
      "değil, ": 3961,
      "gin ": 3962,
      "iç ": 3963,
      "Geç": 3964,
      "sıkıl": 3965,
      "bir eser ": 3966,
      "küt": 3967,
      " dem": 3968,
      " dış": 3969,
      "memnunum ": 3970,
      "gelecek ": 3971,
      "etmez": 3972,
      "cel": 3973,
      " met": 3974,
      "bir filmdi ": 3975,
      "olabilir.": 3976,
      "etmek için ": 3977,
      "bayıl": 3978,
      "Sev": 3979,
      "sayısı ": 3980,
      "araya ": 3981,
      "eder ": 3982,
      "severek ": 3983,
      "alog": 3984,
      "Dünya ": 3985,
      "âb": 3986,
      "fonksiyon": 3987,
      "dair ": 3988,
      "eter": 3989,
      "had": 3990,
      "allah": 3991,
      "göre, ": 3992,
      "go": 3993,
      "harc": 3994,
      "imizde ": 3995,
      "ama bu ": 3996,
      "urun ": 3997,
      "üniversit": 3998,
      "sek ": 3999,
      "çoğun": 4000,
      "alı": 4001,
      "inede ": 4002,
      " bak": 4003,
      "mutlul": 4004,
      " kesinlikle ": 4005,
      "evde ": 4006,
      " hayat": 4007,
      "isan ": 4008,
      "    ": 4009,
      "sad": 4010,
      "örnek ": 4011,
      "izleyic": 4012,
      "taşı": 4013,
      "yumuş": 4014,
      "giden ": 4015,
      "’da ": 4016,
      "Kap": 4017,
      "yoksa ": 4018,
      "ıyor ve ": 4019,
      "yeri ": 4020,
      "geçer": 4021,
      "1-": 4022,
      "profes": 4023,
      "Per": 4024,
      "Jap": 4025,
      "iliş": 4026,
      "kalar": 4027,
      "elime ulaştı ": 4028,
      ". Al": 4029,
      "olmak ": 4030,
      "tabi ": 4031,
      "bir süre ": 4032,
      "hâl": 4033,
      "su": 4034,
      "mücadel": 4035,
      "2020": 4036,
      "gayet güzel ": 4037,
      "ilebilir": 4038,
      "abet": 4039,
      "üstü ": 4040,
      "urad": 4041,
      "diğinde ": 4042,
      " gib": 4043,
      "imine ": 4044,
      "Mustafa ": 4045,
      "Bul": 4046,
      "içindeki ": 4047,
      "yardım ": 4048,
      " dev": 4049,
      "vakit": 4050,
      " ter": 4051,
      "enler için ": 4052,
      "Gr": 4053,
      "bin ": 4054,
      " oluyor": 4055,
      "ortaya çıkar": 4056,
      " bit": 4057,
      "yönetmen ": 4058,
      "hayal kırıkl": 4059,
      "gerektir": 4060,
      "larım ": 4061,
      "2018": 4062,
      "amanın ": 4063,
      "ilerden ": 4064,
      "Ankara ": 4065,
      "hediye ": 4066,
      "Öğ": 4067,
      "van ": 4068,
      "koru": 4069,
      "görsel ": 4070,
      "arka ": 4071,
      " sen": 4072,
      "ST": 4073,
      "ortalama ": 4074,
      "ağa ": 4075,
      "hafta ": 4076,
      "başlayan ": 4077,
      ". Çalış": 4078,
      "neler ": 4079,
      "ecer": 4080,
      "meleri ": 4081,
      "gözlem": 4082,
      "omb": 4083,
      "herşey": 4084,
      "Cumhurbaşkanı ": 4085,
      "mesel": 4086,
      "Oyunc": 4087,
      "devam": 4088,
      "sıcak ": 4089,
      "edem": 4090,
      "bir kıs": 4091,
      "duğunu ": 4092,
      "rik": 4093,
      "ion": 4094,
      "2.": 4095,
      "beyaz ": 4096,
      "onlara ": 4097,
      "kitapları ": 4098,
      "sahip ": 4099,
      "hep ": 4100,
      "ıyoruz": 4101,
      "diğer": 4102,
      "tec": 4103,
      "iter": 4104,
      "giz": 4105,
      "Hak": 4106,
      "çal": 4107,
      "ây": 4108,
      "ayda ": 4109,
      ". (": 4110,
      "müzik": 4111,
      "çözüm": 4112,
      " oldu": 4113,
      "mus": 4114,
      "enerji ": 4115,
      "öne ": 4116,
      "ıklık": 4117,
      "duvar": 4118,
      "2019": 4119,
      "bez ": 4120,
      "mec": 4121,
      "ton": 4122,
      " yok": 4123,
      "endim ": 4124,
      "Üst": 4125,
      "param": 4126,
      "insanlar": 4127,
      "İngiliz ": 4128,
      "politik": 4129,
      " Gen": 4130,
      " kim": 4131,
      "kaçın": 4132,
      ", Türk ": 4133,
      "günü ": 4134,
      "yazık ": 4135,
      "olmadığını ": 4136,
      "meler ": 4137,
      "sek": 4138,
      "kullanışlı ": 4139,
      " Mayıs": 4140,
      "içeren ": 4141,
      "yolcul": 4142,
      "araştırma ": 4143,
      "aldığım ": 4144,
      "ülen ": 4145,
      "Önc": 4146,
      "yandan ": 4147,
      "kuzey": 4148,
      "korku ": 4149,
      "CHP": 4150,
      "ert": 4151,
      "macer": 4152,
      " Ama ": 4153,
      "söylüyor": 4154,
      "gam": 4155,
      "mesi": 4156,
      "egzer": 4157,
      "yaşanan ": 4158,
      "elef": 4159,
      "madım ": 4160,
      "başlamış": 4161,
      "i (": 4162,
      "kendimi ": 4163,
      "efsan": 4164,
      "Başbak": 4165,
      "fıl": 4166,
      "rahatsız ": 4167,
      ". Bir ": 4168,
      "irken ": 4169,
      "dün ": 4170,
      "güzeldi ": 4171,
      " yıl ": 4172,
      "isiyle ": 4173,
      "yüz ": 4174,
      ". Gen": 4175,
      "ızın ": 4176,
      "vurgul": 4177,
      "IL": 4178,
      "hab": 4179,
      "ugün ": 4180,
      "incelem": 4181,
      ". Bel": 4182,
      "mıs": 4183,
      "ınıza ": 4184,
      "ava ": 4185,
      "birik": 4186,
      "elb": 4187,
      "iyor ve ": 4188,
      "olacak": 4189,
      "etmesi ": 4190,
      "fiziksel ": 4191,
      "için, ": 4192,
      "70": 4193,
      "ündeki ": 4194,
      "edik ": 4195,
      "model": 4196,
      "sahne ": 4197,
      "dig": 4198,
      "alım": 4199,
      "anlık": 4200,
      "üsü": 4201,
      "güneş": 4202,
      "arak, ": 4203,
      "pen": 4204,
      "rapor": 4205,
      "insanları ": 4206,
      "ınday": 4207,
      "endiğ": 4208,
      "hukuk": 4209,
      " kitabı ": 4210,
      "en az": 4211,
      "tanış": 4212,
      ". Araştır": 4213,
      "dünyada ": 4214,
      "ı'nın ": 4215,
      "atür": 4216,
      "nefes": 4217,
      "sig": 4218,
      "durumlarda ": 4219,
      "te, ": 4220,
      "dedi ": 4221,
      ". \"": 4222,
      " ben ": 4223,
      "olog": 4224,
      "tarz ": 4225,
      "ları ile ": 4226,
      "sahneler ": 4227,
      "tum ": 4228,
      "Top": 4229,
      "p ": 4230,
      "kullanım": 4231,
      "leyic": 4232,
      "sığ": 4233,
      "heps": 4234,
      "animas": 4235,
      "ampiy": 4236,
      "Değ": 4237,
      "marka ": 4238,
      "İD": 4239,
      "psikolojik ": 4240,
      "Sin": 4241,
      "ayın ": 4242,
      "etik": 4243,
      " değiş": 4244,
      "Mec": 4245,
      "teki ": 4246,
      "teknik ": 4247,
      "koşul": 4248,
      "eve ": 4249,
      "ükemmel ": 4250,
      "inda ": 4251,
      "11 ": 4252,
      "land": 4253,
      "mükemmel": 4254,
      "mesi, ": 4255,
      "ya'nın ": 4256,
      " U": 4257,
      "ıyordu": 4258,
      "lanır": 4259,
      "kanser": 4260,
      "bundan ": 4261,
      "Büyük ": 4262,
      "bulaş": 4263,
      "devam ediyor": 4264,
      "yaptığ": 4265,
      "görülür": 4266,
      "Sen": 4267,
      "şarj": 4268,
      "istatist": 4269,
      "olumlu ": 4270,
      "senin ": 4271,
      "harik": 4272,
      "....": 4273,
      "devam ed": 4274,
      "üçünc": 4275,
      "kendisini ": 4276,
      "Harika ": 4277,
      "Diy": 4278,
      "ufak ": 4279,
      "he": 4280,
      "aşağ": 4281,
      "yıllarda ": 4282,
      "tümör": 4283,
      "edildi ": 4284,
      "kargo ": 4285,
      "faaliyet": 4286,
      "uzun sür": 4287,
      "sistemi ": 4288,
      "cam": 4289,
      "yalnız ": 4290,
      "temizl": 4291,
      " dön": 4292,
      "mücadele ": 4293,
      "IK": 4294,
      "Türkiye'nin ": 4295,
      "belki de ": 4296,
      "mos": 4297,
      "sul": 4298,
      "asından ": 4299,
      "tavsiye ediyorum": 4300,
      "komik ": 4301,
      "a-": 4302,
      "ret ": 4303,
      "ten": 4304,
      "ki, ": 4305,
      "yaptır": 4306,
      "öncesi ": 4307,
      "ölçü": 4308,
      "manı ": 4309,
      "bilinen ": 4310,
      "les": 4311,
      "bugün": 4312,
      "Türkçe ": 4313,
      "cihaz": 4314,
      "Türkiye'de ": 4315,
      "36": 4316,
      "oranı ": 4317,
      " ya ": 4318,
      "Ödül": 4319,
      "”, ": 4320,
      "vermiş": 4321,
      "cinsel ": 4322,
      "Ef": 4323,
      "şikay": 4324,
      "a.": 4325,
      "kesin ": 4326,
      "'ta ": 4327,
      "bebek ": 4328,
      "da bu ": 4329,
      "sizin ": 4330,
      "pop": 4331,
      "değişiklik": 4332,
      "2017": 4333,
      " Temmuz ": 4334,
      "ıntı": 4335,
      "göl": 4336,
      "takım ": 4337,
      "kalmış": 4338,
      "Ahmet ": 4339,
      "falan ": 4340,
      "oyu ": 4341,
      "aylık ": 4342,
      "dile ": 4343,
      "aberin Tamamı ": 4344,
      "aberin Tamamı İç": 4345,
      "tıkları ": 4346,
      "ığa ": 4347,
      "hayata ": 4348,
      "dönem ": 4349,
      "hasta ": 4350,
      "IZ": 4351,
      "teşekkürler ": 4352,
      "gibi bir ": 4353,
      "kanıt": 4354,
      "yıl ": 4355,
      "i bir ": 4356,
      "saçma ": 4357,
      "ça": 4358,
      "sahiptir": 4359,
      "Güney": 4360,
      "dar ": 4361,
      "gösteren ": 4362,
      "aldır": 4363,
      "sever": 4364,
      "müzik ": 4365,
      "kusur": 4366,
      "osyal": 4367,
      "Cumhuriyet": 4368,
      "çok beğendim ": 4369,
      "leri de ": 4370,
      "anlatıyor": 4371,
      " Part": 4372,
      ". El": 4373,
      "aydın": 4374,
      "'deki ": 4375,
      "bl": 4376,
      "7)": 4377,
      "dili ": 4378,
      "futbolcu": 4379,
      "verdim ": 4380,
      "prat": 4381,
      "aktivit": 4382,
      "'ya ": 4383,
      "edilebilir": 4384,
      "kamer": 4385,
      "Has": 4386,
      "üç ": 4387,
      "str": 4388,
      "benim için ": 4389,
      "koruy": 4390,
      "HA": 4391,
      "Kullan": 4392,
      "iyordum ": 4393,
      "değildi ": 4394,
      "ex": 4395,
      "tit": 4396,
      "ler s": 4397,
      " yönet": 4398,
      "yabancı ": 4399,
      " geçir": 4400,
      "eşik": 4401,
      "kendisi ": 4402,
      "anlara ": 4403,
      "ılarının ": 4404,
      "virüs": 4405,
      "ler b": 4406,
      "hastanın ": 4407,
      "yerinde ": 4408,
      "aklı ": 4409,
      "ton ": 4410,
      "alanında ": 4411,
      "risk ": 4412,
      "ım ve ": 4413,
      "ayas": 4414,
      ". On": 4415,
      "hiç bir ": 4416,
      "öbrek ": 4417,
      "başlat": 4418,
      "hatırlat": 4419,
      "ektir": 4420,
      "Kır": 4421,
      "etki ": 4422,
      "güçlü ": 4423,
      "ildi.": 4424,
      "Dur": 4425,
      "Her": 4426,
      "türlü ": 4427,
      "öyle bir ": 4428,
      "derim": 4429,
      "ömür": 4430,
      "saf": 4431,
      " durum": 4432,
      "ED": 4433,
      "iss": 4434,
      "kurum": 4435,
      "ısı ve ": 4436,
      "ne de ": 4437,
      "di, ": 4438,
      "sayıda ": 4439,
      "Türkç": 4440,
      "Eğer ": 4441,
      "ücü ": 4442,
      "telefon ": 4443,
      "Ver": 4444,
      "ağrı ": 4445,
      "(cid:373)": 4446,
      "umut": 4447,
      "doldur": 4448,
      "fena ": 4449,
      "uğraş": 4450,
      "dolaş": 4451,
      "ülkem": 4452,
      "acı": 4453,
      "çatış": 4454,
      "ila ": 4455,
      "dalg": 4456,
      "çok hoş": 4457,
      "antaj": 4458,
      "daha sonra ": 4459,
      "emen ": 4460,
      "sanırım ": 4461,
      "ber ": 4462,
      " kr": 4463,
      "madığı ": 4464,
      "akış": 4465,
      "ları da ": 4466,
      "leri arasında ": 4467,
      "teknoloj": 4468,
      "ester": 4469,
      " dakika ": 4470,
      "car ": 4471,
      "Arap": 4472,
      " etm": 4473,
      "Kür": 4474,
      "çap": 4475,
      "işlen": 4476,
      " köt": 4477,
      "kuruluş": 4478,
      "halinde ": 4479,
      "tim": 4480,
      "ağan": 4481,
      " yani ": 4482,
      "pir": 4483,
      " kez ": 4484,
      "elde edilen ": 4485,
      "biş": 4486,
      "gibi, ": 4487,
      "9 - ": 4488,
      "ecektir": 4489,
      "öğretim ": 4490,
      "nad": 4491,
      "Wil": 4492,
      "ondan ": 4493,
      "4 - ": 4494,
      "döneminde ": 4495,
      "Eğit": 4496,
      "dahi ": 4497,
      "Man": 4498,
      " top": 4499,
      "kullanımı ": 4500,
      "demek ": 4501,
      "ine de ": 4502,
      "nedeni ": 4503,
      "mekan": 4504,
      "duyur": 4505,
      "gerek yok ": 4506,
      "ayında ": 4507,
      "2 - ": 4508,
      "oca ": 4509,
      "ısız ": 4510,
      "EY": 4511,
      "tutul": 4512,
      "00 ": 4513,
      "as ": 4514,
      "etten ": 4515,
      " Ekim ": 4516,
      " the ": 4517,
      "maş": 4518,
      "azi ": 4519,
      "Hay": 4520,
      "sektör": 4521,
      "adet ": 4522,
      "sahibi ": 4523,
      "1 - ": 4524,
      " kil": 4525,
      "Mal": 4526,
      "horm": 4527,
      "ınc": 4528,
      "adını ": 4529,
      "harika bir ": 4530,
      "çıkart": 4531,
      "me, ": 4532,
      "8 - ": 4533,
      "İspan": 4534,
      " tarihinde ": 4535,
      "şair": 4536,
      "ettiğini ": 4537,
      "derim ": 4538,
      "(d. 18": 4539,
      "ho": 4540,
      "uygun": 4541,
      "ılarını ": 4542,
      "türk": 4543,
      "iyim ": 4544,
      " Aralık ": 4545,
      "ıcı": 4546,
      ". Çünkü ": 4547,
      "İnsan ": 4548,
      "'ne ": 4549,
      "3 - ": 4550,
      "sahneleri ": 4551,
      " veya ": 4552,
      "arkadaşlar ": 4553,
      "yayım": 4554,
      "hik": 4555,
      "hastan": 4556,
      "evl": 4557,
      "çocuğun ": 4558,
      "önlem": 4559,
      " J": 4560,
      "Tavsiye ederim": 4561,
      "ını": 4562,
      "trans": 4563,
      "görür": 4564,
      "yakal": 4565,
      "erkez ": 4566,
      "amas": 4567,
      "sup": 4568,
      "gerekiyor": 4569,
      "ilişki ": 4570,
      "Aş": 4571,
      "yoğun": 4572,
      "ebileceğ": 4573,
      "yaşadığı ": 4574,
      "mekten ": 4575,
      "azz": 4576,
      "Ham": 4577,
      " test": 4578,
      "yle ": 4579,
      "esk": 4580,
      "imar": 4581,
      "orj": 4582,
      "lanmıştır": 4583,
      "senar": 4584,
      "2-": 4585,
      "IS": 4586,
      " un ": 4587,
      "-ı ": 4588,
      "bu filme ": 4589,
      " İl": 4590,
      "KK": 4591,
      "işlev": 4592,
      "denem": 4593,
      "erkek": 4594,
      "ât": 4595,
      "lik ve ": 4596,
      "6 - ": 4597,
      "akta ": 4598,
      "zorun": 4599,
      "filmler ": 4600,
      "durumda ": 4601,
      "klasik ": 4602,
      "enen ": 4603,
      "ları arasında ": 4604,
      " yan": 4605,
      "oda ": 4606,
      "Oğ": 4607,
      "alığı ": 4608,
      "dahil": 4609,
      "ağz": 4610,
      " Başkanı ": 4611,
      ". Baş": 4612,
      " hiç": 4613,
      "ücret": 4614,
      "iyot": 4615,
      "bakımından ": 4616,
      ". En ": 4617,
      "bir kez ": 4618,
      "çerçev": 4619,
      "İngilter": 4620,
      "mediği ": 4621,
      "semptom": 4622,
      "hayatı ": 4623,
      "ideal": 4624,
      "matemat": 4625,
      "ni ": 4626,
      "eniz ": 4627,
      "eylem": 4628,
      "ÜZ": 4629,
      "önemlidir": 4630,
      "Araştır": 4631,
      "ion ": 4632,
      "Mehmet ": 4633,
      "sonuna kadar ": 4634,
      "s, ": 4635,
      " karakter": 4636,
      "e-": 4637,
      "hend": 4638,
      "olmasına rağmen ": 4639,
      "hayatta ": 4640,
      "bunların ": 4641,
      "kapsamında ": 4642,
      "hük": 4643,
      "sağlayan ": 4644,
      "sorum": 4645,
      "olan bir ": 4646,
      "ait ": 4647,
      "özelliği ": 4648,
      "eğen": 4649,
      "söz konusu ": 4650,
      "egen": 4651,
      "eksik ": 4652,
      "enz": 4653,
      "Anadolu ": 4654,
      "ler.": 4655,
      "ihtiyac": 4656,
      "eygam": 4657,
      "iyatro": 4658,
      "yakış": 4659,
      "Kıs": 4660,
      "Res": 4661,
      "ildiği ": 4662,
      "eniz": 4663,
      "rez": 4664,
      "akadem": 4665,
      " Kasım ": 4666,
      "arz": 4667,
      "renk ": 4668,
      " 3": 4669,
      "şiddetle ": 4670,
      "zat": 4671,
      "hil": 4672,
      "alak": 4673,
      "edim": 4674,
      " dil": 4675,
      "Prima ": 4676,
      "soru ": 4677,
      "üretim ": 4678,
      "Sadece ": 4679,
      "orada ": 4680,
      "pot": 4681,
      "ihtim": 4682,
      "kız ": 4683,
      "meş": 4684,
      "Gül": 4685,
      "kök": 4686,
      "endrom": 4687,
      "söyledi ": 4688,
      "Hızlı ": 4689,
      "esin": 4690,
      "sıradan ": 4691,
      "adlandır": 4692,
      " tem": 4693,
      "edici ": 4694,
      "duygusal": 4695,
      "ıdaki ": 4696,
      "kitaplarını ": 4697,
      "u'nun ": 4698,
      "akşam ": 4699,
      "Bazı ": 4700,
      "., ": 4701,
      "Tab": 4702,
      "zir": 4703,
      "ep ": 4704,
      "ga ": 4705,
      "Sar": 4706,
      "uyandır": 4707,
      "fl": 4708,
      "bir tan": 4709,
      "ıydı": 4710,
      "i)": 4711,
      "elerinden ": 4712,
      "okuyor": 4713,
      "tutuk": 4714,
      "fiyat ": 4715,
      "amamış": 4716,
      "limat": 4717,
      "BM": 4718,
      "anlaşıl": 4719,
      "profesyon": 4720,
      "oğlum ": 4721,
      "ir ve ": 4722,
      "dek": 4723,
      "sabah": 4724,
      "Sonuç": 4725,
      " Haziran ": 4726,
      "prote": 4727,
      "bölgeler": 4728,
      "arttır": 4729,
      "aktif": 4730,
      "mesinin ": 4731,
      "yatır": 4732,
      "SS": 4733,
      "bozul": 4734,
      "eceğiz": 4735,
      "5 - ": 4736,
      "ayrı bir ": 4737,
      "ende ": 4738,
      "izlemeye ": 4739,
      "üzül": 4740,
      "izm": 4741,
      "Diğer ": 4742,
      "eyr": 4743,
      "uzun süre ": 4744,
      "ted": 4745,
      "tüğ": 4746,
      "rı ": 4747,
      "zorunda kal": 4748,
      "ezi ": 4749,
      "ettik": 4750,
      "sıkıntı ": 4751,
      "la ilgili ": 4752,
      "kanlığı ": 4753,
      " sadece ": 4754,
      "kitabını ": 4755,
      "one ": 4756,
      "ıyor.": 4757,
      "amayı ": 4758,
      "Neden ": 4759,
      "amın ": 4760,
      "ülkenin ": 4761,
      "güney": 4762,
      "öykü": 4763,
      "dukları ": 4764,
      "etmey": 4765,
      "doy": 4766,
      "acağınız ": 4767,
      "enleri ": 4768,
      "işin ": 4769,
      "fazlasıyla ": 4770,
      "tef": 4771,
      "cen": 4772,
      "ızda ": 4773,
      "Benim ": 4774,
      "yıld": 4775,
      "kullandım ": 4776,
      "Erdoğan ": 4777,
      "adeta ": 4778,
      "sist": 4779,
      " gid": 4780,
      "etmem": 4781,
      "vardı": 4782,
      "amayan ": 4783,
      "elem": 4784,
      "ığının ": 4785,
      "Dış": 4786,
      "aklan": 4787,
      "adiş": 4788,
      "mekte ": 4789,
      "Fer": 4790,
      "ack ": 4791,
      "ilerinden ": 4792,
      "matik ": 4793,
      "ter ": 4794,
      "zamanla ": 4795,
      "'daki ": 4796,
      "olacaktır": 4797,
      "gayet iyi ": 4798,
      "katk": 4799,
      " Ocak ": 4800,
      "kov": 4801,
      "ond": 4802,
      "ıca, ": 4803,
      "AZ": 4804,
      "gın": 4805,
      "kın": 4806,
      "rahim ": 4807,
      "sırada ": 4808,
      " hafta ": 4809,
      "alatasar": 4810,
      "enizi ": 4811,
      "tarzı ": 4812,
      "iyo": 4813,
      "esin ": 4814,
      "nok": 4815,
      "John ": 4816,
      "çok beğend": 4817,
      "fiyatı ": 4818,
      "usunu ": 4819,
      "biçimde ": 4820,
      "iltih": 4821,
      "yerini ": 4822,
      "olursa ": 4823,
      "yerleştir": 4824,
      "filmdeki ": 4825,
      "istey": 4826,
      "kamp": 4827,
      "ack": 4828,
      "İŞ": 4829,
      "Mu": 4830,
      "yapım": 4831,
      "dikleri ": 4832,
      "lardaki ": 4833,
      "Üç": 4834,
      "iğin ": 4835,
      "malzem": 4836,
      " bırak": 4837,
      "YOR": 4838,
      "dör": 4839,
      "avantaj": 4840,
      "toprak": 4841,
      ", K": 4842,
      "oğlu, ": 4843,
      "genel olarak ": 4844,
      "ürünün ": 4845,
      "kararı ": 4846,
      "right": 4847,
      " tür": 4848,
      "abı ": 4849,
      "duruyor": 4850,
      "yaralan": 4851,
      " dakik": 4852,
      "ocuk": 4853,
      " 2": 4854,
      "şer": 4855,
      "ki de ": 4856,
      "yar ": 4857,
      "hastalık ": 4858,
      "ne yap": 4859,
      " güzel": 4860,
      "mesiyle ": 4861,
      "alanda ": 4862,
      "Müz": 4863,
      "Mur": 4864,
      "karar ": 4865,
      "fet": 4866,
      "gerçekten çok ": 4867,
      "Kend": 4868,
      "olsun": 4869,
      "teşhis": 4870,
      "emez ": 4871,
      ". Aynı ": 4872,
      "puan ": 4873,
      "ektif": 4874,
      "mesl": 4875,
      "muk": 4876,
      "çalışan ": 4877,
      "dü.": 4878,
      " Ağustos": 4879,
      "dile getir": 4880,
      ", B": 4881,
      "Teşekkürler": 4882,
      "Fat": 4883,
      "IV": 4884,
      ", bir ": 4885,
      "inizde ": 4886,
      "bu tür": 4887,
      "tam bir ": 4888,
      "usunun ": 4889,
      "sevg": 4890,
      "öncelikle ": 4891,
      "ans ": 4892,
      "yukar": 4893,
      "başlangıç": 4894,
      "Car": 4895,
      "Ek": 4896,
      "imi": 4897,
      "eğe ": 4898,
      "hastalığın ": 4899,
      "Kral": 4900,
      "tam olarak ": 4901,
      "kural": 4902,
      "dikkat çek": 4903,
      "heyecan": 4904,
      "aynak ": 4905,
      "tedavisi ": 4906,
      "destekl": 4907,
      "ılaş": 4908,
      "atın ": 4909,
      "tım": 4910,
      "ordu": 4911,
      "üzün": 4912,
      "mıyor ": 4913,
      "çözüm ": 4914,
      "peş": 4915,
      "AF": 4916,
      "OL": 4917,
      "tok": 4918,
      "ha ": 4919,
      "ıyorsunuz ": 4920,
      "fant": 4921,
      "eğini ": 4922,
      "şehr": 4923,
      "bert": 4924,
      "ılmış ": 4925,
      "egzersiz": 4926,
      "yemek ": 4927,
      " oluştur": 4928,
      "alarına ": 4929,
      "ıdır.": 4930,
      "sez": 4931,
      "iyordu ": 4932,
      "kısm": 4933,
      "bırakt": 4934,
      "bu kitabı ": 4935,
      "ılmaz": 4936,
      "Hiç": 4937,
      "şaşırt": 4938,
      "niyet": 4939,
      "mayın": 4940,
      "dı, ": 4941,
      "nde ": 4942,
      "zorlan": 4943,
      " bağ": 4944,
      "bulunur": 4945,
      "resmen ": 4946,
      "Yazarın ": 4947,
      "ayrınt": 4948,
      "senaryo ": 4949,
      "val": 4950,
      " tedav": 4951,
      "iddia ": 4952,
      "Filmde ": 4953,
      "Düş": 4954,
      "canlı ": 4955,
      "larındaki ": 4956,
      "soruştur": 4957,
      "ol ": 4958,
      "alışver": 4959,
      "adamın ": 4960,
      "uzat": 4961,
      "okumak ": 4962,
      "acık ": 4963,
      "Şah": 4964,
      " mi ": 4965,
      "AV": 4966,
      "dır ": 4967,
      "wood": 4968,
      "ik, ": 4969,
      ". Eğer ": 4970,
      "performansı ": 4971,
      "hastaların ": 4972,
      "uluslararası ": 4973,
      "yiy": 4974,
      "birinin ": 4975,
      "hayran ": 4976,
      "ırsız": 4977,
      " saat ": 4978,
      "kullanılır": 4979,
      "7 - ": 4980,
      ". Hast": 4981,
      "mer ": 4982,
      "tehd": 4983,
      "iğer": 4984,
      "Tavsiye ": 4985,
      "imi, ": 4986,
      "değin": 4987,
      "mıştı ": 4988,
      "teor": 4989,
      "prima": 4990,
      "inter": 4991,
      "kayıt": 4992,
      "satın ": 4993,
      "işler": 4994,
      " tane ": 4995,
      "yazıl": 4996,
      "Alt": 4997,
      "'ı ": 4998,
      "ata ": 4999,
      "34": 5000,
      "1,": 5001,
      "süt": 5002,
      "ıb": 5003,
      "Af": 5004,
      "net ": 5005,
      "tavsiye ediyorum ": 5006,
      "mill": 5007,
      "üye ": 5008,
      "siyet": 5009,
      "ya'da ": 5010,
      "ilk kez ": 5011,
      "alerj": 5012,
      "ısın": 5013,
      "olduğuna ": 5014,
      "Bakanı ": 5015,
      "DP": 5016,
      "benim": 5017,
      "yum ": 5018,
      "bir şey ": 5019,
      "malıdır.": 5020,
      "okrat": 5021,
      "ödem": 5022,
      "ması gereken bir ": 5023,
      "kelime ": 5024,
      "maalesef": 5025,
      "se, ": 5026,
      "alb": 5027,
      "ımla ": 5028,
      "g ": 5029,
      "o b": 5030,
      "gercekten ": 5031,
      "3.": 5032,
      "imler ": 5033,
      "lider": 5034,
      "obil": 5035,
      "an B": 5036,
      "un, ": 5037,
      "sorunu ": 5038,
      "f ": 5039,
      "Fran": 5040,
      "güv": 5041,
      "hic": 5042,
      "Abd": 5043,
      "diren": 5044,
      "hayatın ": 5045,
      " ağr": 5046,
      " günde ": 5047,
      " başarılı ": 5048,
      "manız ": 5049,
      "becer": 5050,
      "meme ": 5051,
      "birinci ": 5052,
      "bir çok ": 5053,
      "esi ile ": 5054,
      "alıp ": 5055,
      "ayla ": 5056,
      "lar arasında ": 5057,
      "oğu ": 5058,
      "ürünü": 5059,
      " olmas": 5060,
      "yayı ": 5061,
      "mikro": 5062,
      "hazırlan": 5063,
      "şirket": 5064,
      "me ve ": 5065,
      "insana ": 5066,
      "Birleşik ": 5067,
      "hakkını ": 5068,
      "canlandır": 5069,
      "tatmin ": 5070,
      "hid": 5071,
      "düşünür": 5072,
      "cep": 5073,
      "Un": 5074,
      "lemek için ": 5075,
      ". Ben ": 5076,
      "sıkınt": 5077,
      "büyüm": 5078,
      "süreci ": 5079,
      "azen ": 5080,
      "uygulam": 5081,
      "Hem ": 5082,
      "yen ": 5083,
      "atır": 5084,
      "durul": 5085,
      "kalıcı ": 5086,
      "amacı ": 5087,
      "yasal": 5088,
      "dos": 5089,
      "sayg": 5090,
      "3-": 5091,
      "igi ": 5092,
      "’e ": 5093,
      " Mil": 5094,
      "bağışıklık ": 5095,
      "ork": 5096,
      "üstüne ": 5097,
      "yönetmen": 5098,
      "süper": 5099,
      "vad": 5100,
      "izlediğ": 5101,
      ". Er": 5102,
      "bunları ": 5103,
      "acaba ": 5104,
      "zamanında ": 5105,
      "rol oyn": 5106,
      "ümü ": 5107,
      "üslüm": 5108,
      "pozit": 5109,
      "antin": 5110,
      "okut": 5111,
      "doğrudan ": 5112,
      "edilmesi ": 5113,
      "sinemada ": 5114,
      "yer yer ": 5115,
      "gündem": 5116,
      " değil ": 5117,
      "kış": 5118,
      "ağaç": 5119,
      " AL": 5120,
      "o s": 5121,
      "atan ": 5122,
      "pil": 5123,
      "yinede ": 5124,
      "şeyler": 5125,
      " kan": 5126,
      "unda, ": 5127,
      "38": 5128,
      "sı ": 5129,
      "birden ": 5130,
      "filmini ": 5131,
      "zevk ": 5132,
      "emem": 5133,
      "buy": 5134,
      "ayar ": 5135,
      "mayacak ": 5136,
      "Tüm ": 5137,
      "barındır": 5138,
      "ileri": 5139,
      "ica ": 5140,
      "-19": 5141,
      "ise, ": 5142,
      "anlayış": 5143,
      "stres": 5144,
      "güzel bir film ": 5145,
      "oç": 5146,
      "pah": 5147,
      "usuna ": 5148,
      " mi?": 5149,
      "uya ": 5150,
      "ire ": 5151,
      "durumunda ": 5152,
      "birer ": 5153,
      "anlar için ": 5154,
      " ÇOK": 5155,
      "eler, ": 5156,
      "anlamına ": 5157,
      "Hastan": 5158,
      " yöntem": 5159,
      "kahraman": 5160,
      "iyorlar": 5161,
      "şeyi ": 5162,
      "!”": 5163,
      "esindeki ": 5164,
      " hay": 5165,
      "Amerika ": 5166,
      ". Bu nedenle ": 5167,
      "derecede ": 5168,
      "vekili ": 5169,
      "’un ": 5170,
      "ırt": 5171,
      "isi ve ": 5172,
      "Amerikan ": 5173,
      "di ve ": 5174,
      "tu.": 5175,
      " kendi ": 5176,
      " te ": 5177,
      "sergil": 5178,
      "indey": 5179,
      "gur": 5180,
      "im için ": 5181,
      "göç": 5182,
      "olmadan ": 5183,
      "keşf": 5184,
      "espr": 5185,
      "edip": 5186,
      "yoloj": 5187,
      "CE": 5188,
      "uyku ": 5189,
      "ana kadar ": 5190,
      "Doğu ": 5191,
      "bütün": 5192,
      ". Ayr": 5193,
      "bilinç": 5194,
      "hikayesi ": 5195,
      "afet": 5196,
      "liğine ": 5197,
      "Dİ": 5198,
      "YA": 5199,
      "Bağ": 5200,
      "ılı": 5201,
      "itik ": 5202,
      "âm ": 5203,
      "ekkur": 5204,
      "serbest": 5205,
      "bayr": 5206,
      "Suriye ": 5207,
      "ıldı ": 5208,
      "Demir": 5209,
      "nn": 5210,
      "okras": 5211,
      "resmi ": 5212,
      "görsel": 5213,
      ". Or": 5214,
      "fer ": 5215,
      "saydı ": 5216,
      "eşiktaş": 5217,
      "derin ": 5218,
      "biri": 5219,
      "görünüyor": 5220,
      "mı?": 5221,
      "aral": 5222,
      "uma git": 5223,
      "Fenerbah": 5224,
      "zeme ": 5225,
      "modern ": 5226,
      "Sp": 5227,
      "döv": 5228,
      "atmos": 5229,
      "mesinde ": 5230,
      "olacağını ": 5231,
      "insanlara ": 5232,
      "göğ": 5233,
      "kokusu ": 5234,
      "lim": 5235,
      "ron": 5236,
      "ın ve ": 5237,
      "güçlü": 5238,
      "ır ve ": 5239,
      "ortadan ": 5240,
      "etkileyen ": 5241,
      "kazandır": 5242,
      "ölçüde ": 5243,
      "dedir": 5244,
      "mış ve ": 5245,
      " olay": 5246,
      "mak istey": 5247,
      "anlatımı ": 5248,
      "uygulama ": 5249,
      "Bat": 5250,
      "lar y": 5251,
      " söz": 5252,
      "rr": 5253,
      "Val": 5254,
      ". Örn": 5255,
      "uzman": 5256,
      "pas": 5257,
      "kişiler ": 5258,
      "saat ": 5259,
      "lediği ": 5260,
      "İtalyan ": 5261,
      "olar ": 5262,
      "Olay": 5263,
      "5-": 5264,
      " Ak": 5265,
      "birleş": 5266,
      "mm": 5267,
      "aklık": 5268,
      "mamız ": 5269,
      "kaş": 5270,
      "yarış": 5271,
      "birbirine ": 5272,
      "duyar": 5273,
      "başı ": 5274,
      "imi ve ": 5275,
      "ladığı ": 5276,
      "Biz": 5277,
      "süz ": 5278,
      "en azından ": 5279,
      "31": 5280,
      "ilan ": 5281,
      "müdahale ": 5282,
      " Par": 5283,
      "ya ve ": 5284,
      "seyirc": 5285,
      " hakkında ": 5286,
      " kab": 5287,
      "verir": 5288,
      "Kul": 5289,
      "güzel ve ": 5290,
      "buldum ": 5291,
      "düşündüğ": 5292,
      "bence": 5293,
      "rem": 5294,
      "bu filmin ": 5295,
      "?”": 5296,
      "mu ": 5297,
      "--": 5298,
      " ye ": 5299,
      "lin ": 5300,
      "kalite ": 5301,
      "başlar": 5302,
      "önerir": 5303,
      "otom": 5304,
      "8 10": 5305,
      "AA": 5306,
      "ünüz": 5307,
      ". Ve ": 5308,
      "geb": 5309,
      "ansiy": 5310,
      "uzun": 5311,
      "zarar ver": 5312,
      " doğr": 5313,
      "inin, ": 5314,
      "diyebilir": 5315,
      "Re": 5316,
      " yaş ": 5317,
      "ı'nda ": 5318,
      "stand": 5319,
      " sonuç": 5320,
      "bakter": 5321,
      "ahat": 5322,
      "uyum ": 5323,
      "farkı ": 5324,
      "yurt": 5325,
      " Bir ": 5326,
      "upright=": 5327,
      "liğinde ": 5328,
      "i-": 5329,
      "birini ": 5330,
      "vide": 5331,
      "kişilerin ": 5332,
      "lardan biri ": 5333,
      "Uygul": 5334,
      "isim ": 5335,
      "arkadaşlar": 5336,
      " git": 5337,
      "degil": 5338,
      "fazl": 5339,
      "eğil": 5340,
      " Genel ": 5341,
      "eline ": 5342,
      "pet": 5343,
      "normal ": 5344,
      "üstünde ": 5345,
      "işkin": 5346,
      "fen ": 5347,
      " Ben ": 5348,
      "değişik ": 5349,
      "miy": 5350,
      "sanatç": 5351,
      "okuma ": 5352,
      ". Gün": 5353,
      "ben de ": 5354,
      "belirten ": 5355,
      "Ma": 5356,
      "siv": 5357,
      "demir": 5358,
      "olarak, ": 5359,
      "meli": 5360,
      "adişah": 5361,
      "reh": 5362,
      "acağız": 5363,
      "doğum ": 5364,
      "tral": 5365,
      "ink": 5366,
      "dışar": 5367,
      " kadar": 5368,
      "ha": 5369,
      "edecek ": 5370,
      "yenil": 5371,
      "liğin ": 5372,
      "İslam ": 5373,
      "dıktan sonra ": 5374,
      "sizlik ": 5375,
      "romantik ": 5376,
      " sonrası ": 5377,
      "beyaz": 5378,
      "gelenek": 5379,
      "190": 5380,
      "Ülk": 5381,
      "düm": 5382,
      "sem ": 5383,
      "gem": 5384,
      "gan": 5385,
      "derin": 5386,
      "alarak ": 5387,
      "yeş": 5388,
      ". İşte ": 5389,
      "tü ": 5390,
      "alardan ": 5391,
      "askeri ": 5392,
      "iğe ": 5393,
      "herkes ": 5394,
      "mor": 5395,
      "teslimat": 5396,
      " kaliteli ": 5397,
      "Açık": 5398,
      "yüzey": 5399,
      "İB": 5400,
      "güvenlik ": 5401,
      "lerim ": 5402,
      "ele alın": 5403,
      "Belirt": 5404,
      "liy": 5405,
      "hissettir": 5406,
      " bir kitap": 5407,
      "l ": 5408,
      "13 ": 5409,
      "ihtiyaç ": 5410,
      "taz": 5411,
      "tıb": 5412,
      "redd": 5413,
      "akc": 5414,
      "ilk defa ": 5415,
      "gözük": 5416,
      "emedim ": 5417,
      "A ": 5418,
      "etmen ": 5419,
      "olmaz ": 5420,
      "bir araya ": 5421,
      "onlar ": 5422,
      "tanıt": 5423,
      "ından, ": 5424,
      "Sır": 5425,
      "lamak ": 5426,
      "gören ": 5427,
      "bozukluk": 5428,
      "Tek": 5429,
      "anc": 5430,
      "Kaynakça": 5431,
      "tanın": 5432,
      " bölüm": 5433,
      "ihtiyacı ": 5434,
      "Kalit": 5435,
      "bir de ": 5436,
      "usu": 5437,
      "esiz": 5438,
      "Yah": 5439,
      "duygu ": 5440,
      " kol": 5441,
      "sıvı ": 5442,
      "işaret ": 5443,
      "ardeş": 5444,
      "Arkadaş": 5445,
      "İLM": 5446,
      "2021": 5447,
      "motor": 5448,
      "mide ": 5449,
      "Ankar": 5450,
      "önceden ": 5451,
      "keşke ": 5452,
      "ılara ": 5453,
      " tek ": 5454,
      "azar ": 5455,
      "Kol": 5456,
      "O ": 5457,
      "deterj": 5458,
      "kullanım ": 5459,
      "zarar": 5460,
      "Sam": 5461,
      "işç": 5462,
      "ıcı ve ": 5463,
      "laması ": 5464,
      "mahal": 5465,
      " beb": 5466,
      "siyah": 5467,
      "yakalan": 5468,
      "yol ": 5469,
      "uygulanan ": 5470,
      ": K": 5471,
      "ded": 5472,
      "amadan ": 5473,
      "kalır": 5474,
      "aldı": 5475,
      "hek": 5476,
      "avuk": 5477,
      "dünyaya ": 5478,
      "sosyal med": 5479,
      "hâ": 5480,
      "65": 5481,
      "kanser ": 5482,
      "açıklan": 5483,
      ", H": 5484,
      "çizgi ": 5485,
      "hastalığı ": 5486,
      "Fark": 5487,
      "ham ": 5488,
      "ook ": 5489,
      "haber ": 5490,
      "eral": 5491,
      "anlatım ": 5492,
      "mek ve ": 5493,
      "New": 5494,
      "için de ": 5495,
      "istik ": 5496,
      "enj": 5497,
      " olsun ": 5498,
      "seçim ": 5499,
      "sade ": 5500,
      "asındaki ": 5501,
      "Türkiye nin ": 5502,
      " sınıf": 5503,
      "kadro": 5504,
      "anım": 5505,
      "ayak ": 5506,
      "usta ": 5507,
      ". Kend": 5508,
      "alanı ": 5509,
      "liğinin ": 5510,
      "genetik ": 5511,
      "ici": 5512,
      "Mad": 5513,
      "Ur": 5514,
      "evren": 5515,
      "izledik": 5516,
      "kuru ": 5517,
      "okunmalı": 5518,
      "mi?": 5519,
      "a kadar ": 5520,
      " boyunca ": 5521,
      "39": 5522,
      "Mısır": 5523,
      " kontrol": 5524,
      ", T": 5525,
      "ismi ": 5526,
      "riski ": 5527,
      "lukla ": 5528,
      "çağr": 5529,
      "iri ": 5530,
      "İşte ": 5531,
      "Sık": 5532,
      "uyan": 5533,
      " mod": 5534,
      "maruz ": 5535,
      "İS": 5536,
      "yararlan": 5537,
      "bir ürün": 5538,
      "ney": 5539,
      "ması gereken bir kitap": 5540,
      "Mat": 5541,
      "x ": 5542,
      "etim ": 5543,
      "belirtiler ": 5544,
      "etkin": 5545,
      "ası, ": 5546,
      "elen": 5547,
      "189": 5548,
      "öldürül": 5549,
      "nam": 5550,
      "bu fiyata ": 5551,
      "abah": 5552,
      "acağım": 5553,
      "(cid:27": 5554,
      "bon": 5555,
      "lig": 5556,
      "a gir": 5557,
      "cüml": 5558,
      " boz": 5559,
      " DE": 5560,
      "olsa da ": 5561,
      "beyin ": 5562,
      " yaşında ": 5563,
      "değerlendiril": 5564,
      " milyar ": 5565,
      "İmparator": 5566,
      "ukta ": 5567,
      "bebek": 5568,
      "dakik": 5569,
      "Asl": 5570,
      "48": 5571,
      ", ancak ": 5572,
      "sızlık ": 5573,
      "akın ": 5574,
      "günümüz": 5575,
      "oyunculuğ": 5576,
      " oluş": 5577,
      "gelen": 5578,
      "serv": 5579,
      "farklılık ": 5580,
      "kimse ": 5581,
      "lüt": 5582,
      "sefer": 5583,
      " yüzden ": 5584,
      "soğuk ": 5585,
      "stat": 5586,
      "liğe ": 5587,
      "bot": 5588,
      "ıyordu ": 5589,
      "eleri, ": 5590,
      "gösterir": 5591,
      "dışı ": 5592,
      "ortaya çıkan ": 5593,
      "our": 5594,
      "yapar": 5595,
      "içinden ": 5596,
      "gerekl": 5597,
      ": “": 5598,
      "kabul edil": 5599,
      "Mes": 5600,
      "görüntül": 5601,
      "yaşadığ": 5602,
      "Mac": 5603,
      "konul": 5604,
      "mümkün": 5605,
      "lı ve ": 5606,
      "oynamış": 5607,
      "okumuş": 5608,
      "İr": 5609,
      "sizlik": 5610,
      " seç": 5611,
      "yeten": 5612,
      "dıkları ": 5613,
      "ahş": 5614,
      "kaynaklan": 5615,
      "' ": 5616,
      "lığını ": 5617,
      "baya ": 5618,
      "etkileri ": 5619,
      "bir n": 5620,
      "sahnesi ": 5621,
      "alıp": 5622,
      "Dr": 5623,
      " olmak üzere ": 5624,
      ". Yap": 5625,
      "anlaşılır": 5626,
      "abz": 5627,
      "idi": 5628,
      "belirtileri ": 5629,
      "com ": 5630,
      " hikay": 5631,
      "süresi ": 5632,
      "Orta ": 5633,
      "avv": 5634,
      "izleyin": 5635,
      "ansı ": 5636,
      "fiyatına göre ": 5637,
      "com": 5638,
      "ur?": 5639,
      "ağır ": 5640,
      "ılacak ": 5641,
      "izlemiş": 5642,
      "neden olabilir": 5643,
      "lez": 5644,
      "melidir": 5645,
      " İş": 5646,
      "tabii ": 5647,
      "memnun kaldım ": 5648,
      "udi ": 5649,
      "bişey": 5650,
      "istediğ": 5651,
      "veri ": 5652,
      "- D": 5653,
      "yoktu ": 5654,
      "ından": 5655,
      "benzer": 5656,
      "Tedav": 5657,
      "ler arasında ": 5658,
      "OS": 5659,
      "hus": 5660,
      "şunu ": 5661,
      " Or": 5662,
      "ilgilen": 5663,
      "riskini ": 5664,
      "izlenebilir": 5665,
      "bu da ": 5666,
      "kullanılarak ": 5667,
      "geçti ": 5668,
      "çalışmada ": 5669,
      "aldığ": 5670,
      "una göre ": 5671,
      "ilerlem": 5672,
      "ebilirsiniz": 5673,
      "değerli ": 5674,
      "Söz": 5675,
      "i de ": 5676,
      "Tem": 5677,
      " yerine ": 5678,
      "lerimiz": 5679,
      "ucuz ": 5680,
      "kızım ": 5681,
      "el ve ": 5682,
      "gelince ": 5683,
      "eceksiniz": 5684,
      "umarım ": 5685,
      "ne zaman ": 5686,
      "beslenme ": 5687,
      "vücudun ": 5688,
      "ele geçir": 5689,
      "filminde ": 5690,
      "oyuncular": 5691,
      "unutul": 5692,
      "kimi ": 5693,
      "olma ": 5694,
      "mem ": 5695,
      "oya ": 5696,
      "tiğini ": 5697,
      "çıkış": 5698,
      "inden": 5699,
      "o nun ": 5700,
      "tır.": 5701,
      "takdir": 5702,
      ". Ayrıca, ": 5703,
      "madı": 5704,
      "ediğim gibi ": 5705,
      "işaret": 5706,
      " kul": 5707,
      "eşke ": 5708,
      "sevdiğim ": 5709,
      "a’nın ": 5710,
      "oterap": 5711,
      "İki ": 5712,
      "biri olarak ": 5713,
      "zengin ": 5714,
      "kötül": 5715,
      "elektr": 5716,
      "eddüt": 5717,
      "bağımsız ": 5718,
      "Şeh": 5719,
      "dağıt": 5720,
      "halk ": 5721,
      "ee": 5722,
      "otor": 5723,
      "hastalarda ": 5724,
      "gular": 5725,
      "ına": 5726,
      "kısa sürede ": 5727,
      "günde ": 5728,
      "işlem ": 5729,
      "Tam ": 5730,
      "mek, ": 5731,
      "görmek ": 5732,
      "Cam": 5733,
      "kalem": 5734,
      "ikinc": 5735,
      " diğer ": 5736,
      "Kıl": 5737,
      "Çünkü ": 5738,
      "operasyon": 5739,
      "44": 5740,
      "en iyisi ": 5741,
      "nda ": 5742,
      "nem": 5743,
      "ir?": 5744,
      " bölg": 5745,
      "Şimdi ": 5746,
      "güldür": 5747,
      "kin ": 5748,
      "diyalog": 5749,
      "larımız ": 5750,
      "ımını ": 5751,
      "Bay": 5752,
      "lazım": 5753,
      "ii": 5754,
      "beraber": 5755,
      ". İnsan": 5756,
      "iken ": 5757,
      "azır": 5758,
      "olarak da ": 5759,
      "tek bir ": 5760,
      "row": 5761,
      "(p": 5762,
      "etmektedir": 5763,
      "tek kelimeyle ": 5764,
      "zam": 5765,
      "75": 5766,
      "lanma ": 5767,
      "parametr": 5768,
      "TL": 5769,
      "ebiliyor": 5770,
      "daş": 5771,
      "sil ": 5772,
      "ord": 5773,
      "Kuzey": 5774,
      "arkad": 5775,
      "rahatlıkla ": 5776,
      "telefon": 5777,
      "alnız": 5778,
      "oyuncusu ": 5779,
      "lok": 5780,
      "özet": 5781,
      "baskı ": 5782,
      "seçim": 5783,
      "nitelik": 5784,
      "memesi ": 5785,
      "istatistiksel ": 5786,
      "Bun": 5787,
      "geldiği ": 5788,
      "Ürünü ": 5789,
      "gördüm ": 5790,
      "2013": 5791,
      "aktan ": 5792,
      "izyon ": 5793,
      "iel": 5794,
      "akar": 5795,
      " kullanıyorum ": 5796,
      "o k": 5797,
      "acası ": 5798,
      " Ay": 5799,
      "s. ": 5800,
      "çabuk ": 5801,
      "e.": 5802,
      " bun": 5803,
      "ick ": 5804,
      "açıklama ": 5805,
      "a'ya ": 5806,
      "okusu ": 5807,
      "ici ve ": 5808,
      "o zaman ": 5809,
      "sıf": 5810,
      ". Ne ": 5811,
      "% ": 5812,
      "gin": 5813,
      "ont": 5814,
      "ağıt": 5815,
      "lerine göre ": 5816,
      "ladı": 5817,
      "diler": 5818,
      "olik ": 5819,
      "mak istem": 5820,
      "hizmet ": 5821,
      "Merkez": 5822,
      "amam": 5823,
      "anlam ": 5824,
      "trav": 5825,
      "ka": 5826,
      " sayf": 5827,
      "giderek ": 5828,
      "bilimsel ": 5829,
      "animasyon ": 5830,
      "188": 5831,
      "şikayet": 5832,
      "mav": 5833,
      " olup": 5834,
      "tepk": 5835,
      "alarca ": 5836,
      "al bir ": 5837,
      "abileceğini ": 5838,
      "dini ": 5839,
      " bey": 5840,
      "ai ": 5841,
      "isimli ": 5842,
      "Oku": 5843,
      "iğinde ": 5844,
      "yazdığı ": 5845,
      "rekl": 5846,
      "yapılmıştır": 5847,
      "iğine ": 5848,
      "beslen": 5849,
      "inizin ": 5850,
      "Mahkem": 5851,
      "sesi ": 5852,
      "müs": 5853,
      "ağın ": 5854,
      "post": 5855,
      "ometr": 5856,
      "miş ve ": 5857,
      "meliyat": 5858,
      "düşündür": 5859,
      "hayatını kayb": 5860,
      "Zaten ": 5861,
      "hendis": 5862,
      "sonra, ": 5863,
      "kırmızı ": 5864,
      "özellikleri ": 5865,
      "atör": 5866,
      "ak ve ": 5867,
      "mantık": 5868,
      "Şubat ": 5869,
      "ediliyor": 5870,
      " pu": 5871,
      "500": 5872,
      "uyum": 5873,
      "port": 5874,
      "tiyatro": 5875,
      "tanı ": 5876,
      "madde ": 5877,
      " (d. 19": 5878,
      "için çok ": 5879,
      "lasik ": 5880,
      "Yayın": 5881,
      " herkes": 5882,
      "lüğü": 5883,
      "yürüy": 5884,
      "ilecek ": 5885,
      "yaptı ": 5886,
      "IŞİD": 5887,
      "lardı": 5888,
      "lir": 5889,
      "aldı ": 5890,
      "çalışmalar ": 5891,
      "günümüzde ": 5892,
      "acaksınız ": 5893,
      "hemde ": 5894,
      "parçası ": 5895,
      "Gür": 5896,
      "lerken ": 5897,
      ". Ger": 5898,
      "adamı ": 5899,
      "Spor": 5900,
      "e’": 5901,
      " taş": 5902,
      "ari ": 5903,
      "Gayet": 5904,
      "ilah": 5905,
      "birbirinden ": 5906,
      "iğim ": 5907,
      "açıkçası ": 5908,
      "tem ": 5909,
      "yerden ": 5910,
      "bilmiyorum ": 5911,
      ". Bazı ": 5912,
      "iliyor": 5913,
      " sahibi ": 5914,
      "temiz": 5915,
      "yapılacak ": 5916,
      "analiz ": 5917,
      "Az": 5918,
      "US": 5919,
      "ılmıştır.": 5920,
      "sevgil": 5921,
      "baba ": 5922,
      "yitir": 5923,
      "malıy": 5924,
      "abilen ": 5925,
      "nak": 5926,
      "tahr": 5927,
      "danış": 5928,
      "mediğ": 5929,
      "abilirsiniz ": 5930,
      "lıyor": 5931,
      "aksiyon": 5932,
      "isten": 5933,
      "LAN": 5934,
      " grup": 5935,
      " her": 5936,
      "we": 5937,
      "değeri ": 5938,
      "ındadır": 5939,
      "Göz": 5940,
      "komp": 5941,
      "yerlerde ": 5942,
      "leşme ": 5943,
      "geri dön": 5944,
      "Çağ": 5945,
      "ilgi çek": 5946,
      "Sal": 5947,
      "duruş": 5948,
      "olmadı ": 5949,
      "abor": 5950,
      "laf": 5951,
      "yerine getir": 5952,
      " I": 5953,
      "ilmiş ": 5954,
      "kadının ": 5955,
      "ıklığı ": 5956,
      "her şeyi ": 5957,
      "elç": 5958,
      "performans ": 5959,
      "bed": 5960,
      "öş": 5961,
      "Yani ": 5962,
      "ladı ": 5963,
      "33": 5964,
      "yayıl": 5965,
      "larına göre ": 5966,
      "keyifli ": 5967,
      ". Fakat ": 5968,
      "endi": 5969,
      " kurul": 5970,
      "edildiği ": 5971,
      "anlatıl": 5972,
      "hiçbir şey": 5973,
      "mada, ": 5974,
      "III": 5975,
      "D ": 5976,
      "ımları ": 5977,
      "bir ç": 5978,
      "ıklarını ": 5979,
      "bu yana ": 5980,
      "ileri, ": 5981,
      " Kon": 5982,
      "estiv": 5983,
      "acağız ": 5984,
      "daha az ": 5985,
      "kum": 5986,
      "Cem": 5987,
      "oyuncular ": 5988,
      "detaylı ": 5989,
      "olmasını ": 5990,
      "ist ": 5991,
      "katkı ": 5992,
      "diyor": 5993,
      "gerektiği ": 5994,
      "ihr": 5995,
      " benim ": 5996,
      "meydana gelen ": 5997,
      "Mutlaka ": 5998,
      " kere ": 5999,
      "profesyonel ": 6000,
      " bana ": 6001,
      "Batı ": 6002,
      " a ": 6003,
      "inşa ": 6004,
      "düz ": 6005,
      "duktan sonra ": 6006,
      "Sultan ": 6007,
      "Evet": 6008,
      "gol": 6009,
      " yine ": 6010,
      "gösteriyor": 6011,
      "çocuklara ": 6012,
      "isi de ": 6013,
      "der ": 6014,
      "alnız ": 6015,
      "Türkiye de ": 6016,
      "4-": 6017,
      "ister ": 6018,
      "düzeyde ": 6019,
      "erek, ": 6020,
      ". İlk ": 6021,
      " sin": 6022,
      "alet ": 6023,
      "ân ": 6024,
      "muştur.": 6025,
      " kazan": 6026,
      "çi ve ": 6027,
      "olmuyor": 6028,
      "ücü": 6029,
      "deng": 6030,
      " dav": 6031,
      "Eski ": 6032,
      "Uluslararası ": 6033,
      "4.": 6034,
      "deg": 6035,
      " çok ": 6036,
      "mamak ": 6037,
      " Her ": 6038,
      "Eş": 6039,
      "biliyor": 6040,
      "oyunculuğu ": 6041,
      "karşısında ": 6042,
      "dram ": 6043,
      "Bebeğ": 6044,
      "​ ​": 6045,
      "inf": 6046,
      "Ölç": 6047,
      "hızla ": 6048,
      "AC": 6049,
      "'s": 6050,
      ". Dr": 6051,
      "parça ": 6052,
      "oldum ": 6053,
      "ülkede ": 6054,
      "Mem": 6055,
      "oto": 6056,
      "sorunsuz ": 6057,
      "aksine ": 6058,
      "süz": 6059,
      "olduğundan ": 6060,
      " söy": 6061,
      "Genç": 6062,
      "nitel": 6063,
      "Far": 6064,
      "doku": 6065,
      "üzg": 6066,
      "sorumlul": 6067,
      "biridir": 6068,
      "mıştı": 6069,
      "9 10": 6070,
      "St": 6071,
      "duygular": 6072,
      "cek": 6073,
      "hayv": 6074,
      "\" diye ": 6075,
      "Yol": 6076,
      "dille ": 6077,
      "Bah": 6078,
      "geliyor ": 6079,
      "anlamıyla ": 6080,
      " pol": 6081,
      "sona er": 6082,
      "yüzünden ": 6083,
      "ada": 6084,
      "buluş": 6085,
      "gerekç": 6086,
      "Met": 6087,
      " muh": 6088,
      "ız, ": 6089,
      "için aldım ": 6090,
      "Öncelikle ": 6091,
      "arat": 6092,
      "enc": 6093,
      "amerik": 6094,
      "1, ": 6095,
      "Dil": 6096,
      "Hüs": 6097,
      "'nun ": 6098,
      "esas": 6099,
      "enfeksiyon ": 6100,
      "elektrik ": 6101,
      "lığın ": 6102,
      "oluşturul": 6103,
      "önemlidir.": 6104,
      "üp ": 6105,
      "Gir": 6106,
      "liyor": 6107,
      "bir sür": 6108,
      "sus": 6109,
      " merkez": 6110,
      "olayısıyla ": 6111,
      "alışkanl": 6112,
      "6-": 6113,
      "’nın ": 6114,
      "mama ": 6115,
      "acakt": 6116,
      "zaman zaman ": 6117,
      "değil ama ": 6118,
      "yapı ": 6119,
      " Ol": 6120,
      "karıştır": 6121,
      "Cer": 6122,
      "meyin ": 6123,
      "le ilgili ": 6124,
      "o ve ": 6125,
      "canl": 6126,
      "yarım ": 6127,
      " yapan ": 6128,
      "olayı ": 6129,
      "Beşiktaş": 6130,
      " yak": 6131,
      "filmlerini ": 6132,
      "sefer ": 6133,
      "Mükemmel ": 6134,
      "dedim ": 6135,
      "Say": 6136,
      "'yi ": 6137,
      "düzenlenen ": 6138,
      "Kaz": 6139,
      "lum ": 6140,
      "yası ": 6141,
      "aldık ": 6142,
      "bomb": 6143,
      "inans": 6144,
      "kronik ": 6145,
      "intern": 6146,
      " W": 6147,
      "nö": 6148,
      "an'ın ": 6149,
      "ünlü ": 6150,
      "traf": 6151,
      " yeni ": 6152,
      "böyl": 6153,
      "belg": 6154,
      "vb": 6155,
      "uluk": 6156,
      "analizi ": 6157,
      "Milli ": 6158,
      "pek": 6159,
      "Yüz": 6160,
      "gelebilir": 6161,
      "ters": 6162,
      "tıkan": 6163,
      "bir kez daha ": 6164,
      "ular ": 6165,
      " topl": 6166,
      "olay ": 6167,
      "beg": 6168,
      " İst": 6169,
      "şeyleri ": 6170,
      "kısıt": 6171,
      "Süper ": 6172,
      " def": 6173,
      "Ge": 6174,
      "öf": 6175,
      "2,": 6176,
      " İÇ": 6177,
      "duk ": 6178,
      "\" dedi.": 6179,
      "en yüksek ": 6180,
      "haft": 6181,
      "bu film": 6182,
      "amasında ": 6183,
      "Arab": 6184,
      "miyor ": 6185,
      "Mus": 6186,
      "güçlendir": 6187,
      "yapmak ": 6188,
      "kişisel ": 6189,
      "Haberin Tamamı İç": 6190,
      "eleri ve ": 6191,
      "Şu ": 6192,
      "okuyun ": 6193,
      "ı-": 6194,
      "ibiyot": 6195,
      "20 ": 6196,
      "devlet ": 6197,
      ").": 6198,
      "görünce ": 6199,
      "go ": 6200,
      " son ": 6201,
      "sada ": 6202,
      "alma ": 6203,
      "lar d": 6204,
      "olup olma": 6205,
      "ker": 6206,
      "DI": 6207,
      "Çev": 6208,
      "toplum ": 6209,
      "gazetec": 6210,
      "baştan ": 6211,
      "konum": 6212,
      "Sah": 6213,
      "TÜ": 6214,
      "doğu ": 6215,
      "sürecinde ": 6216,
      "dönüştür": 6217,
      "İkinci ": 6218,
      "genin ": 6219,
      " yılı ": 6220,
      "internet": 6221,
      "Nur": 6222,
      "nas": 6223,
      "muş ": 6224,
      "sınav": 6225,
      "manızı ": 6226,
      "kullanılmıştır": 6227,
      "tekl": 6228,
      "gerçekçi ": 6229,
      "konuyu ": 6230,
      ". İn": 6231,
      "Afr": 6232,
      "edildi.": 6233,
      "teşekkür ederim": 6234,
      "eyh": 6235,
      "ığı, ": 6236,
      "genelde ": 6237,
      "kalitesini ": 6238,
      "vs": 6239,
      "genel": 6240,
      "mükemmel bir ": 6241,
      ". İl": 6242,
      "bu konuda ": 6243,
      "mayı başar": 6244,
      "tıbbi ": 6245,
      "ba ": 6246,
      "ki gibi ": 6247,
      "seyirler": 6248,
      "Tak": 6249,
      "çök": 6250,
      "uklu ": 6251,
      "burun ": 6252,
      "Ap": 6253,
      "işe yar": 6254,
      "coğraf": 6255,
      "hayr": 6256,
      "standart": 6257,
      "gaz": 6258,
      "almak ": 6259,
      "pazar": 6260,
      " r": 6261,
      "işini ": 6262,
      "add": 6263,
      "anında ": 6264,
      "ezil": 6265,
      " şekl": 6266,
      "müdahal": 6267,
      "Gök": 6268,
      "anlamak ": 6269,
      "okumaya ": 6270,
      "acaksınız": 6271,
      "Kitabın ": 6272,
      "ayi ": 6273,
      "unu, ": 6274,
      "sunul": 6275,
      "hitap ": 6276,
      "0,0": 6277,
      "maların ": 6278,
      "Kemal ": 6279,
      "alkol": 6280,
      "bulunuyor": 6281,
      "ekle ": 6282,
      "tespit": 6283,
      "pis": 6284,
      "ess": 6285,
      "on, ": 6286,
      "gök": 6287,
      "Kurulu ": 6288,
      " tam ": 6289,
      "fikr": 6290,
      "cık": 6291,
      "Kurul": 6292,
      "mahkem": 6293,
      "açıklamada ": 6294,
      "Sağlık ": 6295,
      "düşünce ": 6296,
      "bağlant": 6297,
      "yardımcı olur": 6298,
      "kanal": 6299,
      "neden olur": 6300,
      "kaybı ": 6301,
      "dan, ": 6302,
      "çok güzel bir ": 6303,
      "bölgede ": 6304,
      "faydalan": 6305,
      "nasıl bir ": 6306,
      "eza ": 6307,
      "kitapta ": 6308,
      "ettim": 6309,
      "kanseri ": 6310,
      "Kas": 6311,
      "baktığ": 6312,
      "başarı ": 6313,
      "hele ": 6314,
      "30 ": 6315,
      "bana göre ": 6316,
      "şeyler ": 6317,
      "ötesi ": 6318,
      ". Bu durum": 6319,
      "yorgun": 6320,
      " bunu ": 6321,
      "eden bir ": 6322,
      "dizi ": 6323,
      "i olarak ": 6324,
      "Port": 6325,
      "kemik ": 6326,
      "bir kaç": 6327,
      " savaş": 6328,
      "oldu.": 6329,
      "değişiklik ": 6330,
      "başladı": 6331,
      "Yılmaz ": 6332,
      "masal": 6333,
      "Edeb": 6334,
      "yarı ": 6335,
      "potansiy": 6336,
      "Bunun ": 6337,
      "masın ": 6338,
      "etmiyor": 6339,
      "yeterince ": 6340,
      "lardır:": 6341,
      "Merhab": 6342,
      "verdi ": 6343,
      "ına, ": 6344,
      "sosyal ": 6345,
      "itibariyle ": 6346,
      "lanması ": 6347,
      "arasına ": 6348,
      "los": 6349,
      "Özel ": 6350,
      "iktid": 6351,
      "hissi ": 6352,
      "imk": 6353,
      "çalışmaları ": 6354,
      "komed": 6355,
      "kadar k": 6356,
      "gittim ": 6357,
      "AKP": 6358,
      " kişinin ": 6359,
      " tavsiye ederim": 6360,
      " AN": 6361,
      "rem ": 6362,
      "ik olarak ": 6363,
      ": S": 6364,
      "= ": 6365,
      "İçin ": 6366,
      " bas": 6367,
      "omur": 6368,
      "cek ": 6369,
      "eksiyon": 6370,
      "etmen": 6371,
      "PKK": 6372,
      " tekn": 6373,
      "abilmek için ": 6374,
      "Bab": 6375,
      "etkisini ": 6376,
      "temsil ": 6377,
      ". Fakat": 6378,
      "hır": 6379,
      "tepki ": 6380,
      "ayıp": 6381,
      "imza ": 6382,
      " Eylül": 6383,
      "emem ": 6384,
      "diğimiz ": 6385,
      "madan önce ": 6386,
      "Eb": 6387,
      "evin ": 6388,
      "ıcı bir ": 6389,
      "hayır": 6390,
      "yağmur": 6391,
      "İYE": 6392,
      "6.": 6393,
      "ıyla, ": 6394,
      "lara göre ": 6395,
      "Bakanlığı ": 6396,
      "ian ": 6397,
      "ile": 6398,
      "Yöntem": 6399,
      "dek ": 6400,
      "malarını ": 6401,
      "ebileceği ": 6402,
      ": \"": 6403,
      " Bak": 6404,
      "taşıyan ": 6405,
      "üfür": 6406,
      "Güneş": 6407,
      "Kah": 6408,
      "Rec": 6409,
      "gönül": 6410,
      "kar ": 6411,
      "osyal ": 6412,
      "eygamber": 6413,
      "iyice ": 6414,
      "anat": 6415,
      "ikl": 6416,
      "insel ": 6417,
      "tı ve ": 6418,
      "düzenlem": 6419,
      "55": 6420,
      "görülmüştür": 6421,
      " hem de ": 6422,
      "agr": 6423,
      "Yen": 6424,
      "şir": 6425,
      "lığa ": 6426,
      " harika ": 6427,
      "madığ": 6428,
      "emde ": 6429,
      "ge": 6430,
      "sindir": 6431,
      "lerinden biri ": 6432,
      "ski ": 6433,
      " bekl": 6434,
      "duğumuz ": 6435,
      "esi'nde ": 6436,
      "Fakat ": 6437,
      "dem ": 6438,
      "hac": 6439,
      "alandır": 6440,
      "komut": 6441,
      "ayarak ": 6442,
      "15 ": 6443,
      "dip": 6444,
      "ları için ": 6445,
      "olmadığ": 6446,
      " başka ": 6447,
      "filmlerin ": 6448,
      "olurdu ": 6449,
      "çiç": 6450,
      ". U": 6451,
      "ılarına ": 6452,
      "öğrencilerin ": 6453,
      "iletişim ": 6454,
      "eriş": 6455,
      "ders ": 6456,
      "yerel ": 6457,
      "beklediğ": 6458,
      " kavr": 6459,
      "2, ": 6460,
      "maktadır. Bu ": 6461,
      "yol açabilir": 6462,
      "mız": 6463,
      " puan ": 6464,
      "- M": 6465,
      "maması ": 6466,
      " dest": 6467,
      "çalışmanın ": 6468,
      "Rusya ": 6469,
      "uydu ": 6470,
      " hiss": 6471,
      "Teşekkürler ": 6472,
      "vizyon": 6473,
      "İYOR": 6474,
      "eğine ": 6475,
      " yıld": 6476,
      "mıyorum ": 6477,
      "Test": 6478,
      "imlerin ": 6479,
      " Ab": 6480,
      "Ken": 6481,
      "Yüksek ": 6482,
      "iyer": 6483,
      "elinden ": 6484,
      "cik": 6485,
      "ore ": 6486,
      "merakla ": 6487,
      "lan ": 6488,
      "bu yüzden ": 6489,
      "klin": 6490,
      " Ayrıca ": 6491,
      "ılardan ": 6492,
      "fayda ": 6493,
      "iş yap": 6494,
      "49": 6495,
      "zinc": 6496,
      "unu": 6497,
      "Yunan": 6498,
      "co": 6499,
      "rep": 6500,
      "idare ": 6501,
      "emi": 6502,
      "2000": 6503,
      "uyorum": 6504,
      " futbol": 6505,
      "bölümde ": 6506,
      "Fenerbahçe ": 6507,
      "fab": 6508,
      "47": 6509,
      "kapan": 6510,
      "Prof": 6511,
      "hale getir": 6512,
      "nüfus": 6513,
      "a göre ": 6514,
      "altın ": 6515,
      "kapalı ": 6516,
      "savc": 6517,
      "ÜRÜN": 6518,
      "eminim ": 6519,
      "'ün ": 6520,
      "işletm": 6521,
      "iletiş": 6522,
      "Yer": 6523,
      " hak": 6524,
      "eleriyle ": 6525,
      "Fatih": 6526,
      "’nun ": 6527,
      "bir gün ": 6528,
      "karşılık ": 6529,
      "sağlar": 6530,
      "sün": 6531,
      "fantastik ": 6532,
      "Jam": 6533,
      "da çok ": 6534,
      "isyon ": 6535,
      "teşem": 6536,
      "kayg": 6537,
      "0.0": 6538,
      "Kim": 6539,
      "âz": 6540,
      "(%": 6541,
      "Mill": 6542,
      "tam": 6543,
      "ıldığında ": 6544,
      "en fazla ": 6545,
      "renc": 6546,
      ": B": 6547,
      "ta, ": 6548,
      " sit": 6549,
      "organiz": 6550,
      "ölçüm": 6551,
      "böbrek ": 6552,
      "temas": 6553,
      " düzen": 6554,
      "dikten sonra ": 6555,
      "stratej": 6556,
      "landı": 6557,
      "birlikte, ": 6558,
      " TL": 6559,
      "birliği ": 6560,
      "roj": 6561,
      " GÖ": 6562,
      "oluşur": 6563,
      "Med": 6564,
      "Kültür": 6565,
      "187": 6566,
      "Sav": 6567,
      "aul": 6568,
      "kendilerine ": 6569,
      "yatan ": 6570,
      " Ancak ": 6571,
      "Var": 6572,
      "dolayısıyla ": 6573,
      "dikkate ": 6574,
      "Tekn": 6575,
      "cal": 6576,
      "koc": 6577,
      "Lig": 6578,
      "um ve ": 6579,
      " konuş": 6580,
      "ılığıyla ": 6581,
      "solun": 6582,
      "Serinin ": 6583,
      "EŞ": 6584,
      "eği": 6585,
      "yer veril": 6586,
      "birleştir": 6587,
      "unç": 6588,
      "kütüphan": 6589,
      ",”": 6590,
      "fat": 6591,
      "açıklam": 6592,
      "geleceğ": 6593,
      " Kar": 6594,
      "- A": 6595,
      "Hat": 6596,
      "tv": 6597,
      "II, ": 6598,
      "â ": 6599,
      "kısmı ": 6600,
      "lere göre ": 6601,
      "şiddetli ": 6602,
      "kalb": 6603,
      "temsil": 6604,
      "inanç": 6605,
      "diyet": 6606,
      "takt": 6607,
      "sabit": 6608,
      "mür": 6609,
      "çok kaliteli ": 6610,
      "başından ": 6611,
      "acağına ": 6612,
      "aboratu": 6613,
      "taşın": 6614,
      "kavuş": 6615,
      "iyileşme ": 6616,
      "Lev": 6617,
      "basar": 6618,
      "kişiye ": 6619,
      "damar": 6620,
      "kül": 6621,
      " telef": 6622,
      "kendilerini ": 6623,
      "edin ": 6624,
      "yıllık ": 6625,
      "sonunu ": 6626,
      "tanın ": 6627,
      "tetik": 6628,
      "çalışıyor": 6629,
      "zor ": 6630,
      "mail": 6631,
      "uzman ": 6632,
      "o d": 6633,
      "vir": 6634,
      "oluşum": 6635,
      "85": 6636,
      "Kans": 6637,
      "verdi": 6638,
      "i için ": 6639,
      "iler ve ": 6640,
      "gülüm": 6641,
      "ml": 6642,
      "üler ": 6643,
      "id ": 6644,
      "anızı ": 6645,
      "bu tarz ": 6646,
      "igim ": 6647,
      "dahil ": 6648,
      "2022": 6649,
      "kendime ": 6650,
      "Mart": 6651,
      "amaktadır": 6652,
      "Ac": 6653,
      "okuyuc": 6654,
      "erin ": 6655,
      "etkinlik": 6656,
      "iet": 6657,
      "istih": 6658,
      "Çocuk ": 6659,
      ". Doğ": 6660,
      "gıd": 6661,
      "mış bir ": 6662,
      " tes": 6663,
      "alarla ": 6664,
      " kalitesi ": 6665,
      "DU": 6666,
      "Jos": 6667,
      "lerdeki ": 6668,
      "acak bir ": 6669,
      "Büyük": 6670,
      "akat": 6671,
      "harikay": 6672,
      "yılın ": 6673,
      "basit ": 6674,
      "zorluk": 6675,
      "Yard": 6676,
      " kans": 6677,
      "omet": 6678,
      "şunları ": 6679,
      "İran ": 6680,
      "madığını ": 6681,
      "bileş": 6682,
      "imizden ": 6683,
      "am ve ": 6684,
      "icinde ": 6685,
      "kullanıc": 6686,
      "çamaşır": 6687,
      "kafa ": 6688,
      "mişti ": 6689,
      "şef": 6690,
      "al ve ": 6691,
      "ümde ": 6692,
      "kitaplar": 6693,
      "Hind": 6694,
      "medi": 6695,
      "çok güzeldi ": 6696,
      " yıllık ": 6697,
      " kaçır": 6698,
      "det ": 6699,
      "liği, ": 6700,
      "ler ile ": 6701,
      "sağlık sorun": 6702,
      "dir.": 6703,
      "aklaşık ": 6704,
      "anlama": 6705,
      "LA": 6706,
      "lor": 6707,
      "eceğim": 6708,
      "belirli ": 6709,
      "düzelt": 6710,
      "İsrail": 6711,
      "Is": 6712,
      "ses ": 6713,
      "şüph": 6714,
      "bilgisayar ": 6715,
      "Ödülü": 6716,
      "urken ": 6717,
      "çok da ": 6718,
      "Davut": 6719,
      "Mü": 6720,
      "lav": 6721,
      "Zaman ": 6722,
      "set": 6723,
      "aka ": 6724,
      "uzay": 6725,
      "olmasına ": 6726,
      "Dan": 6727,
      "Faz": 6728,
      "isk": 6729,
      "andan ": 6730,
      "çizg": 6731,
      "çalışması ": 6732,
      "lywood": 6733,
      "harika": 6734,
      " ses": 6735,
      "bu durum": 6736,
      " vitam": 6737,
      "Tah": 6738,
      "malzeme ": 6739,
      "kolay ": 6740,
      "ayy": 6741,
      "görülebilir": 6742,
      "iyileştir": 6743,
      "NA": 6744,
      "çok sayıda ": 6745,
      "ebev": 6746,
      "şunlardır:": 6747,
      "onlar": 6748,
      "46": 6749,
      "adıyla ": 6750,
      "karanlık ": 6751,
      "indedir": 6752,
      "gereksiz": 6753,
      "ziyaret ": 6754,
      "nokta ": 6755,
      "gözler": 6756,
      "perd": 6757,
      "Karad": 6758,
      "vd": 6759,
      "ici bir ": 6760,
      "kaynak ": 6761,
      "lira ": 6762,
      "ağını ": 6763,
      "izleme ": 6764,
      "32": 6765,
      "beden": 6766,
      "cins": 6767,
      "oku ": 6768,
      "mış, ": 6769,
      "üket": 6770,
      "bulundur": 6771,
      "niteliğ": 6772,
      "yönlendir": 6773,
      ". Bununla ": 6774,
      "yah": 6775,
      " yavaş": 6776,
      "(d. 193": 6777,
      "7 10": 6778,
      "durdur": 6779,
      "birine ": 6780,
      "ideal ": 6781,
      "köş": 6782,
      " Yap": 6783,
      "gü ": 6784,
      " Av": 6785,
      "dönemin ": 6786,
      "ön plan": 6787,
      "ou": 6788,
      "ırp": 6789,
      "bür": 6790,
      "eor": 6791,
      "dünyas": 6792,
      "mol": 6793,
      "Hav": 6794,
      "2011": 6795,
      "resm": 6796,
      "miz": 6797,
      "türlü": 6798,
      "Nisan ": 6799,
      "sözc": 6800,
      "Aynı ": 6801,
      "çay": 6802,
      "masıdır": 6803,
      "için bir ": 6804,
      "bulgu": 6805,
      "başlıyor": 6806,
      "ru": 6807,
      "Haf": 6808,
      "Mich": 6809,
      "tras": 6810,
      "küçük bir ": 6811,
      " İÇİN": 6812,
      "gen ": 6813,
      "okul ": 6814,
      "toplumsal": 6815,
      "Bal": 6816,
      " böyle ": 6817,
      "tüy": 6818,
      "Muhammed": 6819,
      "liği": 6820,
      "problem ": 6821,
      "İd": 6822,
      "anak": 6823,
      "yöntem ": 6824,
      " yapıl": 6825,
      " konusunda ": 6826,
      "abb": 6827,
      "mesaf": 6828,
      "ılar, ": 6829,
      "kamu ": 6830,
      "omp": 6831,
      "içeriği ": 6832,
      "otob": 6833,
      "güs": 6834,
      "yonun ": 6835,
      " tüm ": 6836,
      "div": 6837,
      "basın": 6838,
      " ED": 6839,
      "sana ": 6840,
      "sıkılmadan ": 6841,
      "onda ": 6842,
      "taleb": 6843,
      "sebebi ": 6844,
      "var ama ": 6845,
      "yaptık": 6846,
      "olabilirdi ": 6847,
      "terk ": 6848,
      "çalıştır": 6849,
      "Osmanl": 6850,
      "larda, ": 6851,
      "aralarında ": 6852,
      "ash": 6853,
      "artan ": 6854,
      "göze ": 6855,
      "üstün ": 6856,
      "orjinal": 6857,
      "io ": 6858,
      " Parti ": 6859,
      " ki, ": 6860,
      "areti ": 6861,
      "uzaklaş": 6862,
      "düzenlen": 6863,
      "kadınların ": 6864,
      "ikat": 6865,
      "Abdullah": 6866,
      "inin": 6867,
      "olu": 6868,
      "Atatürk ": 6869,
      "maktır": 6870,
      " belir": 6871,
      "heyecan ": 6872,
      "ru ": 6873,
      "olasıl": 6874,
      " BU": 6875,
      "konom": 6876,
      " ancak ": 6877,
      "olası ": 6878,
      "tespit edil": 6879,
      "mede ": 6880,
      "maşık ": 6881,
      "likleri ": 6882,
      "sene ": 6883,
      "olmasa da ": 6884,
      "ımcısı ": 6885,
      "Eğitim ": 6886,
      "mal ": 6887,
      "uluk ": 6888,
      "Başkan ": 6889,
      "altına alın": 6890,
      "avor": 6891,
      "rop": 6892,
      "memek ": 6893,
      "ıklıkla ": 6894,
      "sag": 6895,
      "mişti": 6896,
      "günden ": 6897,
      "ing ": 6898,
      "sistem ": 6899,
      "cumhur": 6900,
      "are ": 6901,
      "person": 6902,
      "ihtimal": 6903,
      "yönel": 6904,
      "tesekkur": 6905,
      "Kitabı ": 6906,
      "bir daha ": 6907,
      "is, ": 6908,
      " büyük ": 6909,
      "kalın": 6910,
      "99": 6911,
      ": D": 6912,
      "tuğu ": 6913,
      "idrar ": 6914,
      "artesi ": 6915,
      "Aslında ": 6916,
      "ekib": 6917,
      "Lis": 6918,
      "g/": 6919,
      "ix": 6920,
      "yur": 6921,
      "ografik ": 6922,
      "iltihap": 6923,
      "Bana ": 6924,
      "masız ": 6925,
      "alarından ": 6926,
      "uygulamalar": 6927,
      ". Yaş": 6928,
      "ayakkab": 6929,
      "iyan": 6930,
      "anlatmış": 6931,
      "hayatımda ": 6932,
      " boyut": 6933,
      "Am": 6934,
      "Jo": 6935,
      "çıkıyor": 6936,
      "ettin ": 6937,
      "çevre ": 6938,
      "ampiyon": 6939,
      "adı.": 6940,
      "efend": 6941,
      "yetiştir": 6942,
      "10 üzerinden ": 6943,
      "bitk": 6944,
      "e göre ": 6945,
      "algıl": 6946,
      "izledikten sonra ": 6947,
      ". Yani ": 6948,
      "öğretmen": 6949,
      "Fiz": 6950,
      "çeken ": 6951,
      "programı ": 6952,
      "2012": 6953,
      " mer": 6954,
      "önemi ": 6955,
      "Kaç": 6956,
      "o kadar": 6957,
      "the ": 6958,
      "bir yapım ": 6959,
      "görmüş": 6960,
      "Abdül": 6961,
      "yazarı ": 6962,
      "gösteril": 6963,
      "eğitim": 6964,
      "kabul": 6965,
      "etmiştir": 6966,
      " Parçalı ": 6967,
      "çok şey": 6968,
      ". Böylece ": 6969,
      "yanına ": 6970,
      "satış": 6971,
      "olan ve ": 6972,
      "arak": 6973,
      "yorumlara ": 6974,
      "tedavi yöntem": 6975,
      " hastal": 6976,
      "anlığın ": 6977,
      " yağ": 6978,
      "arşiv": 6979,
      "DHA": 6980,
      "saygı ": 6981,
      "edip ": 6982,
      "C ": 6983,
      "uları ": 6984,
      " mes": 6985,
      "sigara ": 6986,
      "ükle": 6987,
      "oskop": 6988,
      "den, ": 6989,
      "etkileş": 6990,
      "kapasit": 6991,
      "savaş ": 6992,
      "izlediğim en iyi ": 6993,
      "ihtiyaç duy": 6994,
      " bazı ": 6995,
      "keyifle ": 6996,
      "binlerce ": 6997,
      "aşı ": 6998,
      "işley": 6999,
      "bazıları ": 7000,
      "incelenmiştir": 7001,
      "68": 7002,
      "onay": 7003,
      "kurulan ": 7004,
      "sebebiyle ": 7005,
      "doz": 7006,
      "hal ": 7007,
      " Ger": 7008,
      "aydınlat": 7009,
      " gir": 7010,
      "devamı ": 7011,
      "mektup": 7012,
      "rahatsızlık": 7013,
      "her iki ": 7014,
      "bir film olmuş": 7015,
      "odaklan": 7016,
      "imsel ": 7017,
      "Gal": 7018,
      "lendiği ": 7019,
      "babası ": 7020,
      "AĞ": 7021,
      "eyf": 7022,
      "2010": 7023,
      "3, ": 7024,
      "miştim ": 7025,
      " nokt": 7026,
      "birkaç ": 7027,
      "ertesi ": 7028,
      "to": 7029,
      " dedi": 7030,
      "Bugün ": 7031,
      " Paş": 7032,
      "ığı": 7033,
      "lik, ": 7034,
      "yazılı ": 7035,
      "görevl": 7036,
      ": A": 7037,
      "Çin": 7038,
      "emek": 7039,
      "Herkese ": 7040,
      "Küçük ": 7041,
      "adi ": 7042,
      "sağlıyor": 7043,
      "yorum yap": 7044,
      "Tat": 7045,
      "ke": 7046,
      ".0": 7047,
      "Bilg": 7048,
      "Ker": 7049,
      "toplant": 7050,
      "kurgusu ": 7051,
      "noktada ": 7052,
      "bir kısm": 7053,
      "Mo": 7054,
      "ael ": 7055,
      "çocuklar için ": 7056,
      "Düz": 7057,
      "endiş": 7058,
      "yapılır": 7059,
      "olağan": 7060,
      " kaynak": 7061,
      "ach": 7062,
      "hepsiburada ": 7063,
      "enk": 7064,
      "etbol": 7065,
      "takip": 7066,
      "yth": 7067,
      "ılır?": 7068,
      "pencer": 7069,
      "Kılıç": 7070,
      "landa ": 7071,
      "de çok ": 7072,
      "anlatılmış": 7073,
      "bat ": 7074,
      " teşekkür": 7075,
      "müthiş bir ": 7076,
      ". Buna ": 7077,
      "yola çık": 7078,
      "sisteminin ": 7079,
      "hesab": 7080,
      "çıl": 7081,
      "sızdır": 7082,
      "yetersiz": 7083,
      "konuya ": 7084,
      "ziyaret": 7085,
      "Bas": 7086,
      "sağlık": 7087,
      "engel ": 7088,
      "ağız ": 7089,
      "amıyorum ": 7090,
      "tığım ": 7091,
      "ı'na ": 7092,
      "yaşat": 7093,
      " Eylül ": 7094,
      "um, ": 7095,
      " numara ": 7096,
      ". O ": 7097,
      "Christ": 7098,
      "Japon ": 7099,
      "müzis": 7100,
      "ileri ve ": 7101,
      " Kur": 7102,
      "yazı ": 7103,
      "yazık ki ": 7104,
      "bilgilendir": 7105,
      "doğrusu ": 7106,
      "elbette ": 7107,
      "ilm": 7108,
      "tedavisinde ": 7109,
      " mu": 7110,
      " sahip": 7111,
      "vakt": 7112,
      "iğinin ": 7113,
      "ceza ": 7114,
      "otomobil": 7115,
      "Psik": 7116,
      "toplumun ": 7117,
      "eklent": 7118,
      "Willi": 7119,
      "kın ": 7120,
      "vermek ": 7121,
      "atış": 7122,
      "Kalp": 7123,
      "ediler ": 7124,
      "puanı ": 7125,
      " müz": 7126,
      "var ve ": 7127,
      "tatlı ": 7128,
      "zarar ": 7129,
      "tebrik ": 7130,
      "eat": 7131,
      "ımının ": 7132,
      "meyecek ": 7133,
      "gelişen ": 7134,
      "belirlenmiştir": 7135,
      "zamanı ": 7136,
      "niyet ": 7137,
      "amadı ": 7138,
      "bulunmuştur": 7139,
      "Ayd": 7140,
      "ayrıntılı ": 7141,
      "Lİ": 7142,
      "mimar": 7143,
      "almaya ": 7144,
      "paraya ": 7145,
      "öncesinde ": 7146,
      "Tes": 7147,
      "ward": 7148,
      "kaldı ": 7149,
      "çok hızlı ": 7150,
      "geldiğ": 7151,
      "ÜZEL": 7152,
      "bk": 7153,
      "akları ": 7154,
      "plastik ": 7155,
      "HDP": 7156,
      "süreçte ": 7157,
      "iyle, ": 7158,
      "farklılık": 7159,
      "diş ": 7160,
      "berg": 7161,
      "Anahtar Kelimeler": 7162,
      "Tedavi ": 7163,
      " kız": 7164,
      "çalışma": 7165,
      "kıymet": 7166,
      "sürükleyic": 7167,
      "io": 7168,
      "Erdoğ": 7169,
      "takv": 7170,
      "olayları ": 7171,
      "giren ": 7172,
      " yen": 7173,
      "Gazet": 7174,
      "Tw": 7175,
      "(cid:271)": 7176,
      "EV": 7177,
      "siyasetçi ": 7178,
      "ederken ": 7179,
      "hükümet": 7180,
      "bile": 7181,
      "ederiz": 7182,
      "ıp, ": 7183,
      "lendi": 7184,
      "endiği ": 7185,
      "etkilem": 7186,
      "aracılığıyla ": 7187,
      " tavsiye ": 7188,
      "aracı ": 7189,
      "onya ": 7190,
      "a nın ": 7191,
      ". İk": 7192,
      "Başbakan ": 7193,
      "izli ": 7194,
      "filim ": 7195,
      "mış ol": 7196,
      "ÜK": 7197,
      "eleri": 7198,
      ". Son ": 7199,
      "tikçe ": 7200,
      "olunca ": 7201,
      ". Ab": 7202,
      "Kürt": 7203,
      " hızlı ": 7204,
      "deniz ": 7205,
      "http": 7206,
      " hüc": 7207,
      "kullanarak ": 7208,
      "vakit geçir": 7209,
      "ean ": 7210,
      "atç": 7211,
      " has": 7212,
      " tek": 7213,
      " sorun": 7214,
      "üstün": 7215,
      "lerindeki ": 7216,
      "özel bir ": 7217,
      "îr": 7218,
      "ımı": 7219,
      " örgüt": 7220,
      "imm": 7221,
      "rut": 7222,
      "santr": 7223,
      "mektedir. Bu ": 7224,
      "yönetim ": 7225,
      "lılık ": 7226,
      "veriler ": 7227,
      "bezi ": 7228,
      "kitabı": 7229,
      "maruz kal": 7230,
      "bilgisayar": 7231,
      "endik": 7232,
      " Gün": 7233,
      "senaryosu ": 7234,
      "ilerleyen ": 7235,
      "hayat ": 7236,
      "okumayı ": 7237,
      "söylemek ": 7238,
      "aşık ": 7239,
      "Biraz ": 7240,
      ". Oy": 7241,
      "ledik": 7242,
      "puan": 7243,
      "abilecek": 7244,
      "üstü": 7245,
      "esela ": 7246,
      "çik": 7247,
      "ciddi bir ": 7248,
      "teşekkür ederim ": 7249,
      "paketleme ": 7250,
      "78": 7251,
      "hata ": 7252,
      "tez ": 7253,
      " El": 7254,
      "olarak": 7255,
      "yaz ": 7256,
      "yapısı ": 7257,
      ". Çünkü": 7258,
      "yanıl": 7259,
      ", C": 7260,
      "eceg": 7261,
      "özen": 7262,
      "ekim ": 7263,
      "izlemesi ": 7264,
      "elin ": 7265,
      "gerçekt": 7266,
      "oyuncuların ": 7267,
      "izin ver": 7268,
      "ına kadar ": 7269,
      "bulunmaktadır": 7270,
      "EB": 7271,
      "ste": 7272,
      "tanr": 7273,
      "ajı ": 7274,
      "FA": 7275,
      "oyunu ": 7276,
      "İsveç": 7277,
      "ümüş": 7278,
      "macera ": 7279,
      "yaptı": 7280,
      "- G": 7281,
      "cevap ver": 7282,
      "Mak": 7283,
      "kod": 7284,
      "mışlar ": 7285,
      "kale ": 7286,
      "ediyor ": 7287,
      "'u ": 7288,
      "hol": 7289,
      "istiyor": 7290,
      "uzakl": 7291,
      "gizli ": 7292,
      "adalet": 7293,
      "EC": 7294,
      "cak, ": 7295,
      "denedim ": 7296,
      "du ve ": 7297,
      "sakl": 7298,
      "eşi ": 7299,
      "miş, ": 7300,
      "dığı için ": 7301,
      "daha yüksek ": 7302,
      "asıl ": 7303,
      "ayakta ": 7304,
      "İslâm ": 7305,
      "alar, ": 7306,
      "artık": 7307,
      "ama çok ": 7308,
      "tahl": 7309,
      " kısm": 7310,
      "ra": 7311,
      "Yİ": 7312,
      "rest": 7313,
      "’i ": 7314,
      "masi ": 7315,
      "kayıp": 7316,
      "lar ile ": 7317,
      "ması gerekir": 7318,
      "(d. 194": 7319,
      "zengin": 7320,
      " beklem": 7321,
      "okunabilir": 7322,
      "konuştu.": 7323,
      "DAN": 7324,
      " Bey": 7325,
      "yetiş": 7326,
      "Millet": 7327,
      "böylece ": 7328,
      "zihn": 7329,
      "DEN": 7330,
      "ier": 7331,
      "Çin ": 7332,
      "olduğum ": 7333,
      "bireylerin ": 7334,
      "gelir ": 7335,
      "mantık ": 7336,
      "bireyin ": 7337,
      "ıl ": 7338,
      "başkanı ": 7339,
      "uyu": 7340,
      " En": 7341,
      "sırad": 7342,
      "lamaya ": 7343,
      "ca": 7344,
      "aza ": 7345,
      "etmeden ": 7346,
      " belirt": 7347,
      "yoluyla ": 7348,
      "başkent": 7349,
      "bölüm ": 7350,
      "ağan ": 7351,
      "olur ": 7352,
      "sc": 7353,
      "âs": 7354,
      " Son": 7355,
      "tek başına ": 7356,
      "öğrenci ": 7357,
      "sıkı ": 7358,
      "yapılması ": 7359,
      "müşter": 7360,
      "gayr": 7361,
      "Erk": 7362,
      "aşkın ": 7363,
      "BMM": 7364,
      "uyumlu ": 7365,
      "lenf": 7366,
      "dern": 7367,
      "aklıma ": 7368,
      "sağlığı ": 7369,
      "PS": 7370,
      "or ": 7371,
      "eter ": 7372,
      "den sonra ": 7373,
      "nez": 7374,
      "ama, ": 7375,
      "ileri Nelerdir?": 7376,
      "e'nin ": 7377,
      "ves": 7378,
      "zann": 7379,
      "Daha önce ": 7380,
      "gidiyor": 7381,
      "yumuşak ": 7382,
      "pratik ": 7383,
      "Aj": 7384,
      "osit": 7385,
      "besin": 7386,
      "mül": 7387,
      "orum": 7388,
      "ulaştır": 7389,
      "ayım ": 7390,
      "amam ": 7391,
      "çocuğu ": 7392,
      "pişik ": 7393,
      "10 8": 7394,
      "Rad": 7395,
      "deh": 7396,
      ". Tüm ": 7397,
      "lık, ": 7398,
      "şu an ": 7399,
      "senarist": 7400,
      "onunla ": 7401,
      "bu şekilde ": 7402,
      "çok çok ": 7403,
      "çıkarıl": 7404,
      "Şer": 7405,
      "ürünleri ": 7406,
      "izlenmesi gereken ": 7407,
      "barış": 7408,
      "sub": 7409,
      "bilmiyor": 7410,
      "ımıyla ": 7411,
      "göğüs": 7412,
      "başarılı bir ": 7413,
      "geleneksel ": 7414,
      "işlenmiş": 7415,
      " dar": 7416,
      "göre": 7417,
      " bir şekilde ": 7418,
      "iyor ama ": 7419,
      "larımı ": 7420,
      "bir kiş": 7421,
      "yönetic": 7422,
      "söyleyen ": 7423,
      "üyesi ": 7424,
      "anlamlı bir ": 7425,
      "dediği ": 7426,
      "tt": 7427,
      "kullanış": 7428,
      "farkında ": 7429,
      "değişken": 7430,
      "çözül": 7431,
      "efsane ": 7432,
      "o y": 7433,
      "’ı ": 7434,
      "öneril": 7435,
      "MAS": 7436,
      "Cok ": 7437,
      "indan ": 7438,
      "karın ": 7439,
      "civar": 7440,
      "Biz ": 7441,
      "gunu ": 7442,
      "geldiğini ": 7443,
      "Hz": 7444,
      "kendinizi ": 7445,
      "dı. ": 7446,
      "inizden ": 7447,
      "şimdi": 7448,
      "tı, ": 7449,
      "larımızın ": 7450,
      "And": 7451,
      "Bütün ": 7452,
      "ini ve ": 7453,
      "ınızın ": 7454,
      "pahalı ": 7455,
      "Ey": 7456,
      "evet": 7457,
      "lendirme ": 7458,
      "eğitimi ": 7459,
      " grubu ": 7460,
      "lilik ": 7461,
      "ment": 7462,
      "nesn": 7463,
      "üyor ": 7464,
      "ece": 7465,
      "Yunan ": 7466,
      "ph": 7467,
      "ipt": 7468,
      "tadı ": 7469,
      " biz": 7470,
      "kalab": 7471,
      "Yas": 7472,
      "î’nin ": 7473,
      "iyiz": 7474,
      "siz bir ": 7475,
      "altını ": 7476,
      "geriye ": 7477,
      "başkan": 7478,
      " dışında ": 7479,
      "Ne": 7480,
      "coc": 7481,
      "olaylar ": 7482,
      "Kızıl": 7483,
      "ürr": 7484,
      "tereddüt": 7485,
      "içeris": 7486,
      "150": 7487,
      "//": 7488,
      "oluşturan ": 7489,
      "(M": 7490,
      "Kaf": 7491,
      "inle ": 7492,
      " dep": 7493,
      "1980": 7494,
      "abi ": 7495,
      "lerden biri ": 7496,
      "ifadelerini kullan": 7497,
      "Ven": 7498,
      "ikr": 7499,
      "202": 7500,
      "300": 7501,
      "çok büyük ": 7502,
      " mem": 7503,
      "diğimiz": 7504,
      "tavsiye edilir": 7505,
      "azzam ": 7506,
      "Yine ": 7507,
      "dört ": 7508,
      "başkalar": 7509,
      "bölgesinde ": 7510,
      "www": 7511,
      "özgün ": 7512,
      "hikây": 7513,
      "çağır": 7514,
      "lar k": 7515,
      "eklem ": 7516,
      " hale ": 7517,
      "dava ": 7518,
      "öğretmen ": 7519,
      "Bu film ": 7520,
      "hakkında bilgi ": 7521,
      " tr": 7522,
      "miş ol": 7523,
      "mek istey": 7524,
      "dikkatli ": 7525,
      "türü ": 7526,
      "tamamlan": 7527,
      "ar, ": 7528,
      "bulundu": 7529,
      "obel ": 7530,
      "asker ": 7531,
      "mesinden ": 7532,
      " İb": 7533,
      "herkese tavsiye ederim": 7534,
      "5.": 7535,
      "zevkle ": 7536,
      "içe ": 7537,
      "Char": 7538,
      "ısıt": 7539,
      "Roma ": 7540,
      "Ben": 7541,
      "acak.": 7542,
      "izlemenizi ": 7543,
      "abiliriz": 7544,
      " The ": 7545,
      "Mel": 7546,
      "olabilecek ": 7547,
      "ağına ": 7548,
      "umur": 7549,
      "uzu ": 7550,
      "muhteşem": 7551,
      " belki ": 7552,
      "depres": 7553,
      "hasar": 7554,
      "kulak ": 7555,
      "larımızı ": 7556,
      "arda ": 7557,
      "denet": 7558,
      "sabırsız": 7559,
      "num": 7560,
      "mekle ": 7561,
      "RT": 7562,
      "damar ": 7563,
      " sırasında ": 7564,
      " 1": 7565,
      "isin ": 7566,
      "başk": 7567,
      "oksij": 7568,
      " getir": 7569,
      " sayesinde ": 7570,
      "pozitif": 7571,
      "sm": 7572,
      "lenmesi ": 7573,
      "7-": 7574,
      "düşünmüyor": 7575,
      "Özgür": 7576,
      "rej": 7577,
      "IC": 7578,
      "eydi ": 7579,
      "itan": 7580,
      " edil": 7581,
      "kampan": 7582,
      " diz": 7583,
      "uğun ": 7584,
      "etmeyi ": 7585,
      "ebilen ": 7586,
      "yakından ": 7587,
      "diye kadar ": 7588,
      "tiğimiz": 7589,
      "ünüz ": 7590,
      ". Hayat": 7591,
      "milli ": 7592,
      "Roman": 7593,
      "ar.": 7594,
      "arbak": 7595,
      "Galatasaray": 7596,
      "Sh": 7597,
      "meden": 7598,
      "elle ": 7599,
      "Senary": 7600,
      "pren": 7601,
      "bir an ": 7602,
      "lıklı ": 7603,
      "biraz": 7604,
      "emiyorum ": 7605,
      "Yıldır": 7606,
      "ir, ": 7607,
      "Seç": 7608,
      "leri için ": 7609,
      "millî": 7610,
      "tarihinin ": 7611,
      "gan ": 7612,
      "Şen": 7613,
      "lamak": 7614,
      "üny": 7615,
      "likte ": 7616,
      "konuştu ": 7617,
      "alt ": 7618,
      "mi": 7619,
      "yıllardır": 7620,
      "bölge ": 7621,
      "basın ": 7622,
      "Avustur": 7623,
      "ikal": 7624,
      "yaparak ": 7625,
      "larından biri ": 7626,
      "çoğunlukla ": 7627,
      "sivil": 7628,
      "çeş": 7629,
      "aydı ": 7630,
      "mış gibi ": 7631,
      "uhaf": 7632,
      "örneği ": 7633,
      "i'nde ": 7634,
      "aff": 7635,
      " hav": 7636,
      "İslam": 7637,
      "günlerde ": 7638,
      " tarz": 7639,
      "ografi ": 7640,
      "Paris": 7641,
      "söyledi": 7642,
      "; M": 7643,
      "Su": 7644,
      "oyunculuklar ": 7645,
      "gördük": 7646,
      "ılarda ": 7647,
      "Go": 7648,
      ". Kon": 7649,
      "Üzer": 7650,
      "renkli ": 7651,
      " ise ": 7652,
      "cak": 7653,
      "paz": 7654,
      "gerçekleştirilen ": 7655,
      "lari ": 7656,
      "Gö": 7657,
      "Sın": 7658,
      "birde ": 7659,
      "amaçlı ": 7660,
      "la birlikte ": 7661,
      " bur": 7662,
      " ta ": 7663,
      " sınır": 7664,
      "imat": 7665,
      "aşağı ": 7666,
      " kelim": 7667,
      "lemeye ": 7668,
      "birinc": 7669,
      "geçiş": 7670,
      "tabl": 7671,
      "ıcak ": 7672,
      "gayet başarılı ": 7673,
      "bis": 7674,
      " de": 7675,
      "olan bu ": 7676,
      "belirgin ": 7677,
      "ortadan kaldır": 7678,
      ": M": 7679,
      "Şim": 7680,
      "Antal": 7681,
      "antibiyot": 7682,
      " Oy": 7683,
      "Taş": 7684,
      "oiler ": 7685,
      "aykır": 7686,
      "acil": 7687,
      "Güzel": 7688,
      "seni ": 7689,
      "kaleme ": 7690,
      " güc": 7691,
      "186": 7692,
      "sendrom": 7693,
      "karaciğer ": 7694,
      "Karş": 7695,
      ". Ön": 7696,
      "kıv": 7697,
      "yetkil": 7698,
      "bunlar ": 7699,
      ". Sonuç": 7700,
      "es, ": 7701,
      " tip": 7702,
      " hareket": 7703,
      "TV": 7704,
      "ıktan sonra ": 7705,
      "akciğer ": 7706,
      "Ir": 7707,
      " İz": 7708,
      "UZ": 7709,
      "meni ": 7710,
      "eral ": 7711,
      "umdan ": 7712,
      " KAR": 7713,
      "Birleşik Devlet": 7714,
      "emli ": 7715,
      "istir": 7716,
      "alternatif": 7717,
      "ger ": 7718,
      "aldım": 7719,
      " gazet": 7720,
      "Belediye ": 7721,
      "5 10": 7722,
      "alç": 7723,
      "alim": 7724,
      "bu kadar": 7725,
      "indek": 7726,
      "başladı ": 7727,
      "yalan ": 7728,
      "tam anlamıyla ": 7729,
      "ecekler": 7730,
      "mekaniz": 7731,
      "'li ": 7732,
      "ömr": 7733,
      "vef": 7734,
      "ebiliriz": 7735,
      "elini ": 7736,
      "filozof": 7737,
      " FİLM": 7738,
      "arkadas": 7739,
      "ital ": 7740,
      "ine ve ": 7741,
      "sonuçlar ": 7742,
      "soruşturma ": 7743,
      " şeklinde ": 7744,
      "Di": 7745,
      "bö": 7746,
      "yör": 7747,
      " En ": 7748,
      "bayıldım ": 7749,
      "eyt": 7750,
      "usul": 7751,
      ". En": 7752,
      "mesi gereken bir ": 7753,
      "filmlerden biri ": 7754,
      "el olarak ": 7755,
      "çok az ": 7756,
      "rengi ": 7757,
      "çerçevesinde ": 7758,
      "Gaz": 7759,
      "... ": 7760,
      "Co": 7761,
      "yaptıkları ": 7762,
      ". Diğer ": 7763,
      "ID": 7764,
      "hayal kırıklığı ": 7765,
      "kusursuz ": 7766,
      "istediği ": 7767,
      "merkezi ": 7768,
      "ler yap": 7769,
      "karşın ": 7770,
      "3,": 7771,
      " dk ": 7772,
      "marım ": 7773,
      "da olsa ": 7774,
      "esinde, ": 7775,
      " suç": 7776,
      "derg": 7777,
      "bakım ": 7778,
      "Recep": 7779,
      "IYOR": 7780,
      "görme ": 7781,
      "sorular": 7782,
      "alınarak ": 7783,
      "vitam": 7784,
      "bakarak ": 7785,
      "10 9": 7786,
      "Dik": 7787,
      " beğen": 7788,
      "var ki ": 7789,
      "her ne kadar ": 7790,
      "ıyor ama ": 7791,
      "pak": 7792,
      "eşlik ": 7793,
      "lemesi ": 7794,
      "ilçesinde ": 7795,
      "gidip ": 7796,
      "sinemaya ": 7797,
      "plat": 7798,
      "sis": 7799,
      "elsef": 7800,
      ">>>": 7801,
      "daha güzel ": 7802,
      "gerçek bir ": 7803,
      "Kemal": 7804,
      "tuk": 7805,
      "çocuklarda ": 7806,
      " dol": 7807,
      "belli bir ": 7808,
      "umuzu ": 7809,
      "ığına uğr": 7810,
      "Ör": 7811,
      "bakan ": 7812,
      "fragman": 7813,
      "solunum ": 7814,
      "-S": 7815,
      "diyorum ": 7816,
      "nih": 7817,
      "oynay": 7818,
      "dayalı ": 7819,
      "melidir.": 7820,
      "old": 7821,
      " kut": 7822,
      "çocuklar ": 7823,
      "95": 7824,
      "Don": 7825,
      "filmlerde ": 7826,
      " mik": 7827,
      "demokras": 7828,
      "’ye ": 7829,
      "\", \"": 7830,
      "graf": 7831,
      "erg": 7832,
      "acag": 7833,
      " olsa ": 7834,
      "gelecekt": 7835,
      "ölçül": 7836,
      "kuc": 7837,
      "çel": 7838,
      "doğal ": 7839,
      "günümüz ": 7840,
      "farkınd": 7841,
      "7.": 7842,
      ", N": 7843,
      "Ann": 7844,
      "2008": 7845,
      "Davutoğlu ": 7846,
      "ilişkili ": 7847,
      "finans": 7848,
      "favor": 7849,
      "ediğimiz ": 7850,
      "tığımız ": 7851,
      "psikoloj": 7852,
      "kin": 7853,
      "ası ve ": 7854,
      "eler ve ": 7855,
      "lık ve ": 7856,
      "yarısı ": 7857,
      "ortada ": 7858,
      "eli ve ": 7859,
      "cinsiyet": 7860,
      "defalarca ": 7861,
      "anlamak için ": 7862,
      "neden olan ": 7863,
      "ikler ": 7864,
      "ump": 7865,
      "ımına ": 7866,
      ". Ev": 7867,
      "kims": 7868,
      "Irak ": 7869,
      " sun": 7870,
      "kullandığım ": 7871,
      "destek": 7872,
      "keyif al": 7873,
      "Kab": 7874,
      "ova ": 7875,
      "hastalar ": 7876,
      "biçim": 7877,
      "sir": 7878,
      "dönemi ": 7879,
      "hediy": 7880,
      "adığım ": 7881,
      "evet ": 7882,
      "kaynağı ": 7883,
      "red": 7884,
      "ilim ": 7885,
      "tabiki ": 7886,
      " Nisan ": 7887,
      "ağının ": 7888,
      "olayların ": 7889,
      "LARI": 7890,
      "orn": 7891,
      "lenmiştir": 7892,
      "dışarı ": 7893,
      "çok iyi bir ": 7894,
      "uyla ilgili ": 7895,
      "Mas": 7896,
      " mü": 7897,
      "reng": 7898,
      "Rah": 7899,
      "sed": 7900,
      "el bir ": 7901,
      "yaparken ": 7902,
      " Em": 7903,
      "koruma ": 7904,
      "gesi ": 7905,
      "emeyen ": 7906,
      "hücre ": 7907,
      "sevk ": 7908,
      ". Sonra ": 7909,
      " yas": 7910,
      "kullanılabilir": 7911,
      "Kadın": 7912,
      "unma ": 7913,
      "Can": 7914,
      "batı ": 7915,
      "filmlerinin ": 7916,
      "söyleyebilirim ": 7917,
      "laboratu": 7918,
      "ki bu ": 7919,
      "günler": 7920,
      "çocuklar": 7921,
      "cevab": 7922,
      "suzluk ": 7923,
      "Çık": 7924,
      " sene ": 7925,
      " İstanbul": 7926,
      "iel ": 7927,
      "filminden ": 7928,
      "izled": 7929,
      " OK": 7930,
      "Olur?": 7931,
      "Ölüm": 7932,
      "bağırsak ": 7933,
      "istatistiksel olarak ": 7934,
      "kart": 7935,
      ". Ak": 7936,
      "zamanın ": 7937,
      " (ö. ": 7938,
      "ida ": 7939,
      "yerli ": 7940,
      "cinayet": 7941,
      "korkut": 7942,
      "benzeri ": 7943,
      "ation": 7944,
      "- Y": 7945,
      "varlık": 7946,
      " GÜZEL": 7947,
      "iyim": 7948,
      "oynadığı ": 7949,
      "köp": 7950,
      "K ": 7951,
      "ardı ": 7952,
      "iyle": 7953,
      "robot": 7954,
      "dolar ": 7955,
      "luğunu ": 7956,
      "karakteri ": 7957,
      "ısız": 7958,
      "ne kadar": 7959,
      "Görün": 7960,
      ". Ancak, ": 7961,
      "prima kullan": 7962,
      "kitaplardan ": 7963,
      "her gün ": 7964,
      "okudum": 7965,
      "kolaylaştır": 7966,
      " yıldır": 7967,
      "meden önce ": 7968,
      "nşr": 7969,
      " kuş": 7970,
      "temp": 7971,
      ". Dünya ": 7972,
      "talep ": 7973,
      " dik": 7974,
      "ına var": 7975,
      "fizik": 7976,
      "ima": 7977,
      "zaf": 7978,
      "emiyor": 7979,
      "yapılmış ": 7980,
      "öz konusu ": 7981,
      ". Çok ": 7982,
      "sön": 7983,
      "inden, ": 7984,
      "Filme ": 7985,
      "na": 7986,
      "TBMM": 7987,
      ", Alman ": 7988,
      "hayal ": 7989,
      "bulundu ": 7990,
      "onavirüs": 7991,
      "macı ": 7992,
      "oranda ": 7993,
      " yer ": 7994,
      "andar": 7995,
      "vel": 7996,
      "hoşlan": 7997,
      "Brezil": 7998,
      "Aç": 7999,
      "tılar": 8000,
      "üst ": 8001,
      "cası ": 8002,
      "ısınız": 8003,
      "yıllar ": 8004,
      "Kadın ": 8005,
      "Cerrah": 8006,
      "sonradan ": 8007,
      "irken, ": 8008,
      "suy": 8009,
      "rof": 8010,
      "ucusu ": 8011,
      "garant": 8012,
      "amında ": 8013,
      " beni ": 8014,
      "karmaşık ": 8015,
      "konuşma ": 8016,
      "cihaz ": 8017,
      "inşallah": 8018,
      "uru ": 8019,
      "ularak ": 8020,
      "hazırlanan ": 8021,
      "ını da ": 8022,
      "düzgün ": 8023,
      "daha": 8024,
      "ekr": 8025,
      "itik": 8026,
      "galib": 8027,
      "Küt": 8028,
      " yet": 8029,
      "izlemey": 8030,
      "daha iy": 8031,
      "ettikleri ": 8032,
      "adığını ": 8033,
      "ilişkil": 8034,
      "layarak ": 8035,
      "(P": 8036,
      "genelinde ": 8037,
      "harf": 8038,
      "Ant": 8039,
      "bekley": 8040,
      "o yüzden ": 8041,
      "duygusal ": 8042,
      "58": 8043,
      " kültür": 8044,
      "görebil": 8045,
      " KAL": 8046,
      "devam eden ": 8047,
      ". Daha sonra ": 8048,
      "sessiz": 8049,
      "Cem ": 8050,
      ", '": 8051,
      "saatlerinde ": 8052,
      "ESİ": 8053,
      "lang": 8054,
      "ediğimiz": 8055,
      "Bölg": 8056,
      "iya ": 8057,
      ", ama ": 8058,
      "ırk": 8059,
      "düşük": 8060,
      "etkin ": 8061,
      "ülkes": 8062,
      "İzmir": 8063,
      "hamil": 8064,
      ". Ağ": 8065,
      " koy": 8066,
      "yönetmenin ": 8067,
      "umu": 8068,
      "filmlere ": 8069,
      "gittiğ": 8070,
      "yasal ": 8071,
      "esnasında ": 8072,
      "ediyesi ": 8073,
      "televizyon ": 8074,
      "? B": 8075,
      "kullandığı ": 8076,
      "sahip olan ": 8077,
      "Fakat": 8078,
      "olursa olsun ": 8079,
      "men, ": 8080,
      "iye, ": 8081,
      ", P": 8082,
      "- H": 8083,
      "yanlış ": 8084,
      "imkans": 8085,
      "vücutta ": 8086,
      "Georg": 8087,
      "utan": 8088,
      "miş gibi ": 8089,
      "uydu": 8090,
      "otu ": 8091,
      "luğun ": 8092,
      "aa ": 8093,
      "hüzün": 8094,
      "adres": 8095,
      "çıktı": 8096,
      "boyun ": 8097,
      "âk": 8098,
      "stit": 8099,
      "100 ": 8100,
      "seriyi ": 8101,
      "age ": 8102,
      "çi": 8103,
      "masın": 8104,
      "paral": 8105,
      "değerlendirme ": 8106,
      "ayasa ": 8107,
      " Millet": 8108,
      "r. ": 8109,
      "laşma ": 8110,
      "yağışlı ": 8111,
      "Futbol": 8112,
      "şid": 8113,
      "leri Nelerdir?": 8114,
      "muş gibi ": 8115,
      ") ile ": 8116,
      "Kam": 8117,
      "yedi ": 8118,
      "ığım ": 8119,
      " biç": 8120,
      "ife ": 8121,
      "söyledi.": 8122,
      "hiper": 8123,
      "Kut": 8124,
      "Naz": 8125,
      "eksikliği ": 8126,
      "kadem": 8127,
      "gösterdiği ": 8128,
      "kıyas": 8129,
      "izlediğim en ": 8130,
      "Hikay": 8131,
      "Kil": 8132,
      "tap": 8133,
      "te yandan ": 8134,
      "raz": 8135,
      "eceğiniz ": 8136,
      "Can ": 8137,
      "igara ": 8138,
      "ölümü ": 8139,
      "beğenmedim ": 8140,
      "r ": 8141,
      "yaya ": 8142,
      "siyonun ": 8143,
      "tedavi edil": 8144,
      "süs": 8145,
      " Ad": 8146,
      "sevgi ": 8147,
      "priz": 8148,
      "eksiyon ": 8149,
      "filminin ": 8150,
      "dengel": 8151,
      "?\"": 8152,
      "ağında ": 8153,
      "uygulaması ": 8154,
      "yükselt": 8155,
      "miktarda ": 8156,
      "öyle": 8157,
      "hissediyor": 8158,
      "İbn ": 8159,
      "nic": 8160,
      "som": 8161,
      "amasına ": 8162,
      "amasını ": 8163,
      " yeter": 8164,
      "Vak": 8165,
      "kü ": 8166,
      "yolda ": 8167,
      "gelişim ": 8168,
      "Sa": 8169,
      "kör": 8170,
      "ll": 8171,
      "lül": 8172,
      "of the ": 8173,
      "arasındaki ilişk": 8174,
      "Hasan ": 8175,
      "lığıyla ": 8176,
      "ff": 8177,
      "sıklıkla ": 8178,
      "tıpkı ": 8179,
      "şüphel": 8180,
      "........": 8181,
      "erim ": 8182,
      "ısal": 8183,
      "2009": 8184,
      "Partisi ": 8185,
      "Qu": 8186,
      "Ürünün ": 8187,
      "bireysel ": 8188,
      "gecik": 8189,
      "sh": 8190,
      "Çok güzel ": 8191,
      " bez": 8192,
      "ilerinde ": 8193,
      "hakim ": 8194,
      "bilgileri ": 8195,
      "halkın ": 8196,
      "kamera ": 8197,
      "şu anda ": 8198,
      "1990": 8199,
      "gerekirse ": 8200,
      "yüzüne ": 8201,
      "romanı ": 8202,
      "Cumhuriyet ": 8203,
      "olmaya ": 8204,
      "ve bir ": 8205,
      " kıy": 8206,
      "kalın ": 8207,
      "sırt": 8208,
      "emiz": 8209,
      "budur": 8210,
      "bebeğin ": 8211,
      "Pat": 8212,
      " böl": 8213,
      "dağıl": 8214,
      "ziyade ": 8215,
      "âd": 8216,
      "İy": 8217,
      "uyuştur": 8218,
      "müthiş ": 8219,
      "Will": 8220,
      "uyk": 8221,
      ", Fransız ": 8222,
      "bir kitaptı ": 8223,
      "seçen": 8224,
      "dans": 8225,
      "lıca ": 8226,
      "endim": 8227,
      "lütfen ": 8228,
      "64": 8229,
      "://": 8230,
      "gerekse ": 8231,
      ". Bu durum ": 8232,
      "çok iyi": 8233,
      " Amer": 8234,
      "Ort": 8235,
      "görevi ": 8236,
      "Kö": 8237,
      "Mon": 8238,
      "ımından ": 8239,
      "oğul": 8240,
      "bir kom": 8241,
      "hazırlanmış": 8242,
      "ahraman": 8243,
      "rag": 8244,
      "Ömer ": 8245,
      "ıyorlar": 8246,
      "lenceli ": 8247,
      "ecek bir ": 8248,
      " Har": 8249,
      "gücü ": 8250,
      "’den ": 8251,
      "varlığı ": 8252,
      "uygun fiyat": 8253,
      "yarattığı ": 8254,
      "? ": 8255,
      "dusun": 8256,
      "Birliği ": 8257,
      "filmi": 8258,
      "maliyet": 8259,
      " mu ": 8260,
      "katılan ": 8261,
      "Robert": 8262,
      " olsa da ": 8263,
      "OĞ": 8264,
      "malarına ": 8265,
      "agu": 8266,
      "bebeğim ": 8267,
      "elli ": 8268,
      "ip, ": 8269,
      "tehdit ": 8270,
      "SP": 8271,
      "ahl": 8272,
      ". Bunu ": 8273,
      "benden ": 8274,
      "ekliği ": 8275,
      "tür ": 8276,
      "ver ": 8277,
      "dug": 8278,
      "geldiğinde ": 8279,
      "mıştım ": 8280,
      "akıcı ve ": 8281,
      "İngiltere ": 8282,
      " mal": 8283,
      "zamandır": 8284,
      "karışık ": 8285,
      "pozisyon": 8286,
      "nadir": 8287,
      "onar": 8288,
      "Hangi ": 8289,
      "İspanyol": 8290,
      "yonu ": 8291,
      "Ner": 8292,
      "adı verilen ": 8293,
      "edilerek ": 8294,
      "örneğin ": 8295,
      "Bu": 8296,
      "kâ": 8297,
      "mıy": 8298,
      "eğinin ": 8299,
      "gereği ": 8300,
      "aç ": 8301,
      "istin ": 8302,
      "En İyi ": 8303,
      "2020 - ": 8304,
      "în": 8305,
      "koku ": 8306,
      "(T": 8307,
      "mir ": 8308,
      " oldukça ": 8309,
      "süren ": 8310,
      ", p": 8311,
      "demiş": 8312,
      "emr": 8313,
      " güç": 8314,
      "lara karşı ": 8315,
      "bir kaynak": 8316,
      "hepsini ": 8317,
      " sahneleri ": 8318,
      "nefes al": 8319,
      "'y": 8320,
      "imparator": 8321,
      "avuz ": 8322,
      "tespit edilmiştir": 8323,
      "ti ve ": 8324,
      "ıldı.": 8325,
      "aralık": 8326,
      "ukluk": 8327,
      "hormon": 8328,
      "niye ": 8329,
      "irmi ": 8330,
      "kültürel ": 8331,
      ".)": 8332,
      "altındaki ": 8333,
      "asız ": 8334,
      "Muhteşem ": 8335,
      "cem ": 8336,
      "edef": 8337,
      "memnunum": 8338,
      "iliğinden ": 8339,
      "kısım": 8340,
      "sonuçları ": 8341,
      "geçici ": 8342,
      "uma gitti ": 8343,
      "yaşamış": 8344,
      "bebeg": 8345,
      "intih": 8346,
      "Paşa ": 8347,
      " dam": 8348,
      "beklentiler": 8349,
      "UK": 8350,
      "ong": 8351,
      "uşu ": 8352,
      "anız ": 8353,
      " hatta ": 8354,
      "yapış": 8355,
      "İngilizce ": 8356,
      "fılm": 8357,
      "ole ": 8358,
      "olsaydı ": 8359,
      "sonsuz ": 8360,
      "bekliyorum": 8361,
      "yönetmeni ": 8362,
      "ükleer ": 8363,
      "iat": 8364,
      "açılan ": 8365,
      "gördüğüm ": 8366,
      "Almanya ": 8367,
      "sığın": 8368,
      "muayen": 8369,
      "Sey": 8370,
      ". İstanbul": 8371,
      "çekim ": 8372,
      "ÜM": 8373,
      "Bakanlığ": 8374,
      "teklif": 8375,
      "vic": 8376,
      "ekran ": 8377,
      "gene ": 8378,
      "âyet": 8379,
      "illa ": 8380,
      "evinde ": 8381,
      "tane ": 8382,
      "bitti ": 8383,
      "Hüseyin ": 8384,
      "Başar": 8385,
      "akkak ": 8386,
      "ımcı ": 8387,
      "talık ": 8388,
      "acık": 8389,
      "müzikleri ": 8390,
      "Okul": 8391,
      "manlık ": 8392,
      "amadım": 8393,
      " olacak ": 8394,
      "anlamı ": 8395,
      ". Kar": 8396,
      "kıyafet": 8397,
      "Nobel ": 8398,
      "li, ": 8399,
      " neden": 8400,
      "Yıld": 8401,
      "Hastanesi ": 8402,
      "iliğini ": 8403,
      "asi ": 8404,
      "filmlerinde ": 8405,
      "hard": 8406,
      "deneme ": 8407,
      "direktör": 8408,
      "ee ": 8409,
      " olmayan ": 8410,
      "etmenin ": 8411,
      "Savaşı ": 8412,
      "sermaye ": 8413,
      "amerikan ": 8414,
      "amayacak ": 8415,
      "sorunları ": 8416,
      "intik": 8417,
      "last": 8418,
      "isiniz": 8419,
      "ümü": 8420,
      "ilgisi ": 8421,
      "çöp": 8422,
      "verdi.": 8423,
      "kun": 8424,
      "ayan": 8425,
      "esidir": 8426,
      "harika bir film ": 8427,
      "en sık ": 8428,
      "ıyla": 8429,
      ". San": 8430,
      "alışveriş": 8431,
      "Konu ": 8432,
      " yarat": 8433,
      "üçüncü ": 8434,
      "Ekonom": 8435,
      "etken ": 8436,
      "ağlık ": 8437,
      "sık sık ": 8438,
      "şeker ": 8439,
      "Onun ": 8440,
      "dünyayı ": 8441,
      "ülü ": 8442,
      "büyüt": 8443,
      "guzel": 8444,
      ", L": 8445,
      "iyi seyirler": 8446,
      "ser ": 8447,
      "başrol": 8448,
      "miş bir ": 8449,
      "lam ": 8450,
      "yer aldığı ": 8451,
      "güven ": 8452,
      "25 ": 8453,
      "CO": 8454,
      "enter": 8455,
      "eceksiniz ": 8456,
      "mühendis": 8457,
      "akıllı ": 8458,
      "Gu": 8459,
      " Yıl": 8460,
      "üretimi ": 8461,
      " senary": 8462,
      "parlak ": 8463,
      "üslüman ": 8464,
      " Hast": 8465,
      "benim gibi ": 8466,
      ",\"": 8467,
      "Müdürlüğü ": 8468,
      "üniversite ": 8469,
      "mutluluk ": 8470,
      "bir arada ": 8471,
      ".»": 8472,
      "Div": 8473,
      "yayın ": 8474,
      "basit bir ": 8475,
      "öneririm": 8476,
      "hakkı ": 8477,
      "inceleme ": 8478,
      "James": 8479,
      "''": 8480,
      "ertel": 8481,
      "bakar": 8482,
      "tedbir": 8483,
      "uyr": 8484,
      "avukat": 8485,
      "ise": 8486,
      "sahip olduğu ": 8487,
      "radyo": 8488,
      "bıç": 8489,
      "ap ": 8490,
      "geçiyor": 8491,
      "eli bir ": 8492,
      "leyerek ": 8493,
      "ankası ": 8494,
      "hukuk ": 8495,
      "hayran kal": 8496,
      "emen": 8497,
      "baş ağr": 8498,
      "metab": 8499,
      "kaliteli ve ": 8500,
      "bir kısmı ": 8501,
      "ilir ": 8502,
      "aldim ": 8503,
      "amb": 8504,
      "sanat ": 8505,
      "kapital": 8506,
      "hastalıkları ": 8507,
      "Oldukça ": 8508,
      "edikleri ": 8509,
      "buraya ": 8510,
      "Fransa ": 8511,
      "Boz": 8512,
      "istiyorum ": 8513,
      "iş çıkar": 8514,
      "zaten": 8515,
      "ada, ": 8516,
      "eğin, ": 8517,
      "kalp ": 8518,
      "Tanr": 8519,
      " gibi": 8520,
      "Araştırma ": 8521,
      "olanlar ": 8522,
      "ikil": 8523,
      " hastalık": 8524,
      "mümkündür": 8525,
      "elde edil": 8526,
      "harikaydı ": 8527,
      "ında bir ": 8528,
      "bekliyorum ": 8529,
      "cezası ": 8530,
      "cisi ": 8531,
      "kendisinin ": 8532,
      "mak isteyen ": 8533,
      "Kiş": 8534,
      "lob": 8535,
      "Sonr": 8536,
      "dog": 8537,
      "küfür": 8538,
      "mid": 8539,
      "işit": 8540,
      "asıllı ": 8541,
      "izlenmeye ": 8542,
      "dökül": 8543,
      "unuzu ": 8544,
      "Neden": 8545,
      "lar yap": 8546,
      "ede": 8547,
      "anti": 8548,
      "tercih edil": 8549,
      "İslâm": 8550,
      "David": 8551,
      "ırım": 8552,
      "ünce ": 8553,
      "tutum": 8554,
      "seyi ": 8555,
      "literatür": 8556,
      "aran": 8557,
      "yaşlı ": 8558,
      " sergil": 8559,
      "en-": 8560,
      "luğa ": 8561,
      "şırı ": 8562,
      "59": 8563,
      "gusu ": 8564,
      "makal": 8565,
      "bir başka ": 8566,
      "ıyordum ": 8567,
      "Eur": 8568,
      "si": 8569,
      " boş": 8570,
      "o kadar da ": 8571,
      "Mecl": 8572,
      "emeği ": 8573,
      " kas": 8574,
      "TA": 8575,
      "edr": 8576,
      "önyarg": 8577,
      "konuşan ": 8578,
      "ıcılık ": 8579,
      " kötü ": 8580,
      "MS": 8581,
      "ukar": 8582,
      "içten ": 8583,
      "Mehmed": 8584,
      "Sine": 8585,
      "o g": 8586,
      "çok beğen": 8587,
      "belediye ": 8588,
      " Tr": 8589,
      "ılarla ": 8590,
      "18 ": 8591,
      "talep": 8592,
      "imkân": 8593,
      "TI": 8594,
      "diler ": 8595,
      "e'de ": 8596,
      ". Burada ": 8597,
      "arkasında ": 8598,
      "okuduğ": 8599,
      "netic": 8600,
      "66": 8601,
      "hayran": 8602,
      "Süleyman ": 8603,
      "iyy": 8604,
      "Dern": 8605,
      "Göl": 8606,
      "iyi ki ": 8607,
      "gözle ": 8608,
      "temelen ": 8609,
      "okratik ": 8610,
      " KULLAN": 8611,
      " yılları arasında ": 8612,
      "bütç": 8613,
      ". Genellikle ": 8614,
      "lit": 8615,
      "itör": 8616,
      ". Çocuk": 8617,
      "Dir": 8618,
      "rey": 8619,
      "deri ": 8620,
      "kolayca ": 8621,
      " sanki ": 8622,
      "yansı": 8623,
      "gündeme ": 8624,
      "BD": 8625,
      ". Bu": 8626,
      "başlıca ": 8627,
      "bölün": 8628,
      "kişilerde ": 8629,
      "uzaklaştır": 8630,
      "ağı": 8631,
      "dır.": 8632,
      "gözaltına ": 8633,
      "beğendim": 8634,
      "güvenli ": 8635,
      "atan": 8636,
      "otik ": 8637,
      " Ev": 8638,
      "sayfa ": 8639,
      "yönde ": 8640,
      "Hastal": 8641,
      "sipariş verdim ": 8642,
      "Siv": 8643,
      "üstelik ": 8644,
      "çocukları ": 8645,
      "esi'nin ": 8646,
      "88": 8647,
      "rüy": 8648,
      "gözler ": 8649,
      "şehit": 8650,
      ", V": 8651,
      " dah": 8652,
      "aklığı ": 8653,
      "uhammed": 8654,
      "istik": 8655,
      "almayı ": 8656,
      "ad ": 8657,
      "cenaz": 8658,
      "50 ": 8659,
      "herk": 8660,
      "alacak ": 8661,
      "air ": 8662,
      "bam": 8663,
      "çok farklı ": 8664,
      "ama ve ": 8665,
      "garip": 8666,
      "Dar": 8667,
      "gıda ": 8668,
      "iyiki ": 8669,
      "önlen": 8670,
      "riv": 8671,
      "toz ": 8672,
      "bir kere ": 8673,
      "neden olabilir.": 8674,
      "Oscar ": 8675,
      "Fiyatına göre ": 8676,
      "şu": 8677,
      "zamanki gibi ": 8678,
      "kitaba ": 8679,
      "borç": 8680,
      "ekran": 8681,
      "demir ": 8682,
      " yüks": 8683,
      "lemiş": 8684,
      "ılarında ": 8685,
      "cok guzel ": 8686,
      "inandır": 8687,
      "Hepsiburada ": 8688,
      "ox": 8689,
      "akr": 8690,
      "ortamda ": 8691,
      ". Bu yüzden ": 8692,
      "buradan ": 8693,
      "Adam ": 8694,
      " defa ": 8695,
      "çok zor": 8696,
      "ımı ve ": 8697,
      "izlenmeli ": 8698,
      "ama ben ": 8699,
      " YAP": 8700,
      "yetişkin": 8701,
      "esi'n": 8702,
      "ık, ": 8703,
      "yapımc": 8704,
      "Halk ": 8705,
      "Nec": 8706,
      "Ses": 8707,
      "yer alır": 8708,
      "Kısa ": 8709,
      "görüntüleme ": 8710,
      "ımı, ": 8711,
      "amadı": 8712,
      "doktora ": 8713,
      "OG": 8714,
      "ifa ": 8715,
      "opat": 8716,
      " kadın": 8717,
      ". Onun ": 8718,
      "kral": 8719,
      "varlığını ": 8720,
      " ÜRÜN": 8721,
      "ede, ": 8722,
      " AR": 8723,
      " yaşan": 8724,
      "Bunu ": 8725,
      "orman": 8726,
      "evine ": 8727,
      "iyi bir film ": 8728,
      "rupa ": 8729,
      "kızar": 8730,
      "saçmal": 8731,
      "57": 8732,
      "embe ": 8733,
      "izmet": 8734,
      "ılmış ve ": 8735,
      "vasat": 8736,
      "evlen": 8737,
      "gözden ": 8738,
      "Fakült": 8739,
      "oynayan ": 8740,
      "getirdiği ": 8741,
      "üçük": 8742,
      ". Kad": 8743,
      "kaynaklı ": 8744,
      "yumur": 8745,
      "önde ": 8746,
      "verici ": 8747,
      "darbe ": 8748,
      "unda": 8749,
      "kalıyor": 8750,
      "bahç": 8751,
      "ülkemizde ": 8752,
      "amadığı ": 8753,
      "kategor": 8754,
      "içerik": 8755,
      "Burada ": 8756,
      "günü": 8757,
      "bölümü ": 8758,
      "ek olarak ": 8759,
      "uzan": 8760,
      "tarı ": 8761,
      "abilir ve ": 8762,
      "sürdürül": 8763,
      "hij": 8764,
      "i yap": 8765,
      "an ın ": 8766,
      " Kor": 8767,
      "her türlü ": 8768,
      "16 ": 8769,
      "şehir ": 8770,
      "sistemini ": 8771,
      "ümüzdeki ": 8772,
      "diplo": 8773,
      "yaşamak ": 8774,
      "maddi ": 8775,
      " değildir": 8776,
      " gün sonra ": 8777,
      " sez": 8778,
      "amadığım ": 8779,
      "Kitap ": 8780,
      "mim": 8781,
      "emir": 8782,
      "        ": 8783,
      "bet ": 8784,
      "kere ": 8785,
      "aslında": 8786,
      "hiçbir zaman ": 8787,
      "imza at": 8788,
      "’dan ": 8789,
      "enden ": 8790,
      "satır": 8791,
      "a)": 8792,
      "ılmasına ": 8793,
      "düşen ": 8794,
      " mus": 8795,
      "okuması ": 8796,
      "dıklarını ": 8797,
      "Sosyal": 8798,
      "mediğini ": 8799,
      "Ahmed": 8800,
      "ung": 8801,
      "denli ": 8802,
      " nın ": 8803,
      "protein ": 8804,
      "yaşıyor": 8805,
      "b ": 8806,
      "isteyen ": 8807,
      " Daha ": 8808,
      "14 ": 8809,
      "Cih": 8810,
      "begen": 8811,
      "atif ": 8812,
      "gili ": 8813,
      "gözyaş": 8814,
      "grup ": 8815,
      "Allah’ın ": 8816,
      "Kılıçdar": 8817,
      "Rob": 8818,
      "23 ": 8819,
      "Con": 8820,
      "toplu ": 8821,
      " kavram": 8822,
      "Sonra ": 8823,
      "urun": 8824,
      "gelişme ": 8825,
      "tikten sonra ": 8826,
      "karşı karşıya ": 8827,
      "adayı ": 8828,
      "aj ": 8829,
      "ecek.": 8830,
      "sahnede ": 8831,
      "vardır.": 8832,
      "şeker": 8833,
      "Zaman": 8834,
      "markal": 8835,
      ". Şimdi ": 8836,
      "önem taş": 8837,
      "araba ": 8838,
      "alabilirsiniz": 8839,
      "adüf": 8840,
      "oğuk ": 8841,
      "müdür": 8842,
      "bölgeye ": 8843,
      " hap": 8844,
      "içerir": 8845,
      "tutar": 8846,
      "İNE": 8847,
      "yorumları ": 8848,
      "tanımlan": 8849,
      "Meclis": 8850,
      "ek ve ": 8851,
      "tarafı ": 8852,
      "Sch": 8853,
      "fig": 8854,
      "leke ": 8855,
      "nik ": 8856,
      "ze ": 8857,
      "iz, ": 8858,
      "işg": 8859,
      "endüst": 8860,
      "gelmiştir": 8861,
      "ından sonra ": 8862,
      "kullanan ": 8863,
      "katil": 8864,
      "samimi ": 8865,
      "el, ": 8866,
      "ünlü": 8867,
      "likler": 8868,
      "izledim ve ": 8869,
      "uzak dur": 8870,
      "dat": 8871,
      "çalışmaya ": 8872,
      "güvenilir": 8873,
      "vasat ": 8874,
      " değerlendir": 8875,
      "heyecanla ": 8876,
      "tecrüb": 8877,
      "yoktu": 8878,
      "işlet": 8879,
      "maktay": 8880,
      "Üçünc": 8881,
      "millî futbol": 8882,
      "orum ": 8883,
      " hoş": 8884,
      "yılda ": 8885,
      "protest": 8886,
      " derec": 8887,
      "toz": 8888,
      "aly": 8889,
      "kurken ": 8890,
      "56": 8891,
      "imdeki ": 8892,
      "oluşturur": 8893,
      "rahatsızlık ": 8894,
      "ının, ": 8895,
      "imkan": 8896,
      "teşvik ": 8897,
      "lü bir ": 8898,
      "araz": 8899,
      "mayla ": 8900,
      "muazzam ": 8901,
      "oranında ": 8902,
      "bakış açısı ": 8903,
      "olmaması ": 8904,
      " İs": 8905,
      "berbat ": 8906,
      "gelmesi ": 8907,
      "Artık ": 8908,
      "alınabilir": 8909,
      "açıkça ": 8910,
      "yol açabilir.": 8911,
      "yaşamını ": 8912,
      "Koc": 8913,
      "SA": 8914,
      "obj": 8915,
      "Ameliyat": 8916,
      "kis": 8917,
      "toprak ": 8918,
      "bölümünde ": 8919,
      "ax": 8920,
      " din": 8921,
      " büy": 8922,
      "gereksiz ": 8923,
      "her bir ": 8924,
      "Devlet ": 8925,
      "karşımız": 8926,
      "Ukrayn": 8927,
      "gıt": 8928,
      "eth": 8929,
      " su ": 8930,
      "neyse ": 8931,
      "isi ile ": 8932,
      "ilgisini ": 8933,
      "İbrahim ": 8934,
      "Farklı ": 8935,
      "yürüyüş": 8936,
      "sül": 8937,
      "ekleri ": 8938,
      "uyuş": 8939,
      "doğrultusunda ": 8940,
      " davran": 8941,
      "77": 8942,
      "alay": 8943,
      "bir başyapıt": 8944,
      "du, ": 8945,
      "varsay": 8946,
      "000 ": 8947,
      "hakkındaki ": 8948,
      "Pri": 8949,
      "alabilir": 8950,
      "it, ": 8951,
      ". Bu, ": 8952,
      "son zamanlarda ": 8953,
      "akademik ": 8954,
      "Sosyal ": 8955,
      "tey": 8956,
      "hiç sık": 8957,
      "dövüş": 8958,
      "pe": 8959,
      "sürece ": 8960,
      "orta": 8961,
      "bir kaynak ": 8962,
      "ça Sorulan Sor": 8963,
      "layıcı ": 8964,
      "suzluk": 8965,
      "parti ": 8966,
      "lideri ": 8967,
      "yetmez": 8968,
      "lerj": 8969,
      "grubu ": 8970,
      " hücr": 8971,
      "54": 8972,
      "uların ": 8973,
      "eph": 8974,
      "rastlan": 8975,
      "mavi ": 8976,
      "amasının ": 8977,
      "dolar": 8978,
      "devletin ": 8979,
      "abet ": 8980,
      ". Bur": 8981,
      "seven ": 8982,
      "kenar": 8983,
      "aşkı ": 8984,
      " bu": 8985,
      "duyul": 8986,
      "Müslüm": 8987,
      "joh": 8988,
      "çant": 8989,
      "lerimizi ": 8990,
      "anlamadım ": 8991,
      "geniş ": 8992,
      "ecek kadar ": 8993,
      "tuk ": 8994,
      "üd": 8995,
      "bert ": 8996,
      "landalı ": 8997,
      "altta ": 8998,
      " diyerek ": 8999,
      "Hır": 9000,
      "kil ": 9001,
      "hane ": 9002,
      "polis ": 9003,
      "Umarım ": 9004,
      "bı ": 9005,
      "etiyle ": 9006,
      "yürür": 9007,
      "Değiş": 9008,
      "lidir": 9009,
      "ılığını ": 9010,
      " kolay": 9011,
      "ebilir ": 9012,
      "ick": 9013,
      "anladım ": 9014,
      "ebilirim": 9015,
      "sayede ": 9016,
      "\" olarak ": 9017,
      "naz": 9018,
      "rüzg": 9019,
      "çak": 9020,
      "uçuk ": 9021,
      "INI": 9022,
      "mont": 9023,
      "çevresinde ": 9024,
      "ılarından ": 9025,
      "bireylerde ": 9026,
      "ıklar ": 9027,
      "luluk ": 9028,
      "bilim kurgu ": 9029,
      "iade ": 9030,
      "ü’": 9031,
      "işçi ": 9032,
      "olmayan": 9033,
      "medim": 9034,
      "kilo ": 9035,
      "ilgi çekici ": 9036,
      "B ": 9037,
      "EZ": 9038,
      "Saç": 9039,
      "vahş": 9040,
      "başvurul": 9041,
      "neş": 9042,
      "o dönem": 9043,
      "olayın ": 9044,
      "'ten ": 9045,
      "DIM": 9046,
      "Sc": 9047,
      "televizyon": 9048,
      "Ul": 9049,
      ". Hatta ": 9050,
      "işkin ": 9051,
      " yıl önce ": 9052,
      "Mut": 9053,
      "şeyin ": 9054,
      "mesin ": 9055,
      "okulu ": 9056,
      "kaybol": 9057,
      "çok önemli ": 9058,
      "yetik ": 9059,
      " İYİ": 9060,
      "deneyim": 9061,
      "oraya ": 9062,
      "Okun": 9063,
      "mukemm": 9064,
      "ihrac": 9065,
      "mini ": 9066,
      "’te ": 9067,
      "alacak": 9068,
      "mayan": 9069,
      "ırıl": 9070,
      "Üstelik ": 9071,
      "dalga ": 9072,
      "yeşil": 9073,
      "amaları ": 9074,
      "ımında ": 9075,
      "liği ve ": 9076,
      "kırıl": 9077,
      "ticaret": 9078,
      "Hayır": 9079,
      ", İngiliz ": 9080,
      ". J": 9081,
      "eserleri ": 9082,
      "hissetm": 9083,
      "bilgiye ": 9084,
      "ıklar": 9085,
      "ihl": 9086,
      "Hatta ": 9087,
      "ûs": 9088,
      "temizlik ": 9089,
      "ers": 9090,
      "Haber": 9091,
      "Saf": 9092,
      "ucunda ": 9093,
      " Cumhur": 9094,
      "organ ": 9095,
      "Hakkında ": 9096,
      "bel ": 9097,
      "çalışan": 9098,
      "2007": 9099,
      "Tim": 9100,
      "hy": 9101,
      "eklerde ": 9102,
      "uncu ": 9103,
      "Mor": 9104,
      " siyas": 9105,
      "yapıldığı ": 9106,
      "tığında ": 9107,
      "Ot": 9108,
      "malara ": 9109,
      "AK Parti ": 9110,
      "istediğim ": 9111,
      "hayvan": 9112,
      "olunum ": 9113,
      "cık ": 9114,
      "ena ": 9115,
      " Kul": 9116,
      "dil ": 9117,
      ": '": 9118,
      "öne sür": 9119,
      "on ve ": 9120,
      "destekley": 9121,
      " küçük ": 9122,
      "ındak": 9123,
      " GER": 9124,
      "cok iyi ": 9125,
      "elikte ": 9126,
      "olmak": 9127,
      "oğlu": 9128,
      "klinik ": 9129,
      "çok memnunum ": 9130,
      "yerleri ": 9131,
      "denk ": 9132,
      "ilk olarak ": 9133,
      "Şiddet": 9134,
      "matr": 9135,
      "oksa ": 9136,
      "abilmek ": 9137,
      "mith": 9138,
      "ölen": 9139,
      "ilmesine ": 9140,
      "oscar ": 9141,
      "ekley": 9142,
      "farkına var": 9143,
      "etkiler ": 9144,
      "a’ya ": 9145,
      "za ": 9146,
      " sat": 9147,
      " bunun ": 9148,
      "gaz ": 9149,
      ", I, ": 9150,
      "ami ": 9151,
      "okuyun": 9152,
      "çekilen ": 9153,
      "ive ": 9154,
      "t-": 9155,
      "ev ": 9156,
      "uydur": 9157,
      " BAŞ": 9158,
      "nis": 9159,
      "ümüze ": 9160,
      "esi de ": 9161,
      "ması ile ": 9162,
      " Haberin Tamamı İç": 9163,
      "teknik": 9164,
      "nesil": 9165,
      "İran": 9166,
      "oynuyor": 9167,
      "senaryos": 9168,
      "Cl": 9169,
      "Yan": 9170,
      "iyel ": 9171,
      "ileriyle ": 9172,
      "lığına ": 9173,
      "sayı ": 9174,
      "Cez": 9175,
      "aliz": 9176,
      "olacağı ": 9177,
      "iste ": 9178,
      "veriyor ": 9179,
      "hadis": 9180,
      "Yeş": 9181,
      "çıkmış": 9182,
      "değildi": 9183,
      "oluşuyor": 9184,
      "geniş bir ": 9185,
      "'si ": 9186,
      "far": 9187,
      "lar gibi ": 9188,
      "Bu filmi ": 9189,
      " (p": 9190,
      "açıklama": 9191,
      "sembol": 9192,
      "sokak": 9193,
      "Avustral": 9194,
      "Alan": 9195,
      "cilik ": 9196,
      "abileceğiniz ": 9197,
      "cam ": 9198,
      "aydır": 9199,
      "asın ": 9200,
      "ısındaki ": 9201,
      "gürült": 9202,
      "i’l-": 9203,
      "yalan": 9204,
      "adar ": 9205,
      "hak ediyor": 9206,
      "akademis": 9207,
      "69": 9208,
      "Str": 9209,
      "ının": 9210,
      "o zaman": 9211,
      "gerçekten de ": 9212,
      " fıl": 9213,
      " devam ": 9214,
      "oma ": 9215,
      "rin ": 9216,
      " kaf": 9217,
      "140": 9218,
      "a'daki ": 9219,
      "mağdur": 9220,
      "âv": 9221,
      " koş": 9222,
      "etmez ": 9223,
      "dığınız ": 9224,
      "beğendiğim ": 9225,
      "fa ": 9226,
      "çekin": 9227,
      "değerleri ": 9228,
      "insanlık ": 9229,
      "hastalıkların ": 9230,
      "ıh": 9231,
      "eller": 9232,
      "en son ": 9233,
      "2023": 9234,
      " kadın ": 9235,
      "özellikle de ": 9236,
      "Gerek": 9237,
      "önemlisi ": 9238,
      "ana": 9239,
      "yaklaşım": 9240,
      "göz önünde ": 9241,
      "muhteşem bir ": 9242,
      "Trabzon": 9243,
      "usuf": 9244,
      "harekete ": 9245,
      "Amerika Birleşik Devlet": 9246,
      "Yak": 9247,
      "ıyor, ": 9248,
      "verdiğim ": 9249,
      "Anlat": 9250,
      ". yüzyılda ": 9251,
      "vol": 9252,
      "ork ": 9253,
      "gösterebilir": 9254,
      "kızı ": 9255,
      "sınırlı ": 9256,
      "Not": 9257,
      "ır, ": 9258,
      "geride ": 9259,
      "ebi ": 9260,
      "Mahall": 9261,
      "nadir ": 9262,
      "uel ": 9263,
      "erken, ": 9264,
      "şahane ": 9265,
      "Men": 9266,
      "int(": 9267,
      "bu durum ": 9268,
      " yür": 9269,
      "duğunda ": 9270,
      " tüket": 9271,
      "durumdur": 9272,
      "beyn": 9273,
      "ori": 9274,
      "kişilik ": 9275,
      "yed": 9276,
      ". Dolayısıyla ": 9277,
      "tih": 9278,
      "gelip": 9279,
      "estetik ": 9280,
      "Topl": 9281,
      "yönünde ": 9282,
      "oyuncu ve ": 9283,
      ". Sadece ": 9284,
      "başarılı": 9285,
      "zerbay": 9286,
      " 4": 9287,
      "tuz": 9288,
      "zur": 9289,
      "ultan ": 9290,
      "ini de ": 9291,
      "hayvan ": 9292,
      "hang": 9293,
      "ya'ya ": 9294,
      "diyebilirim": 9295,
      "birebir ": 9296,
      "aldım ve ": 9297,
      "erv": 9298,
      "lenerek ": 9299,
      "ne yazık ki ": 9300,
      "Cumhuriyeti ": 9301,
      "şeye ": 9302,
      "yıllar": 9303,
      "havada ": 9304,
      "doyur": 9305,
      "Boğ": 9306,
      "SK": 9307,
      "Sab": 9308,
      "hor": 9309,
      "etkisinin ": 9310,
      "meyv": 9311,
      " Dünya ": 9312,
      "ağrısı ": 9313,
      "Bit": 9314,
      "Od": 9315,
      "attin ": 9316,
      "acin": 9317,
      "af ": 9318,
      "gerçeği ": 9319,
      "milyon": 9320,
      "olmayan bir ": 9321,
      "basıl": 9322,
      "olmaktan ": 9323,
      "ası ile ": 9324,
      ". Kal": 9325,
      "bastır": 9326,
      " kısa ": 9327,
      "CR": 9328,
      "mıdır": 9329,
      " diyor": 9330,
      ". Hiç": 9331,
      " kendini ": 9332,
      "Van ": 9333,
      " bütün ": 9334,
      ". Biz": 9335,
      "kurulu ": 9336,
      "nik": 9337,
      "zehir": 9338,
      "toprağ": 9339,
      "bu arada ": 9340,
      "merak": 9341,
      "okuyup": 9342,
      "hemen hemen ": 9343,
      "İçer": 9344,
      "Edil": 9345,
      "TT": 9346,
      "67": 9347,
      "Tom ": 9348,
      "ERİM": 9349,
      "pag": 9350,
      "aceb": 9351,
      "gidin ": 9352,
      "arasından ": 9353,
      "dikkat edil": 9354,
      "spoiler ": 9355,
      ". İç": 9356,
      "olmasa ": 9357,
      "ve diğer ": 9358,
      "serisi ": 9359,
      "ent ": 9360,
      "ilişkisi ": 9361,
      "sağan": 9362,
      "Belirtileri Nelerdir?": 9363,
      " vitamini ": 9364,
      "Keşke ": 9365,
      "Park": 9366,
      " Yaş": 9367,
      "hit": 9368,
      "annesi ": 9369,
      "ristiy": 9370,
      "yöntemi ": 9371,
      "katkıda ": 9372,
      "use ": 9373,
      "ebilirsiniz ": 9374,
      "futbolc": 9375,
      "ekst": 9376,
      "eki, ": 9377,
      "önüne ser": 9378,
      "çok daha iyi ": 9379,
      " döneminde ": 9380,
      "yavaş yavaş": 9381,
      "aykırı ": 9382,
      "cm ": 9383,
      "ple ": 9384,
      "ıyorlar ": 9385,
      "kurb": 9386,
      " On": 9387,
      " vak": 9388,
      "” diye ": 9389,
      "anet ": 9390,
      "almak için ": 9391,
      " grubunda ": 9392,
      " metre ": 9393,
      "tuhaf": 9394,
      "kitl": 9395,
      "çalışmada, ": 9396,
      "dığına ": 9397,
      "İsmail": 9398,
      "Ürünü": 9399,
      "çektiği ": 9400,
      "duyguları ": 9401,
      "koca ": 9402,
[...]
