{
  "version": "1.0",
  "truncation": null,
  "padding": null,
  "added_tokens": [
    {
      "id": 0,
      "content": "<unk>",
      "single_word": false,
      "lstrip": false,
      "rstrip": false,
      "normalized": false,
      "special": true
    },
    {
      "id": 1,
      "content": "<pad>",
      "single_word": false,
      "lstrip": false,
      "rstrip": false,
      "normalized": false,
      "special": true
    },
    {
      "id": 2,
      "content": "<bos>",
      "single_word": false,
      "lstrip": false,
      "rstrip": false,
      "normalized": false,
      "special": true
    },
    {
      "id": 3,
      "content": "<eos>",
      "single_word": false,
      "lstrip": false,
      "rstrip": false,
      "normalized": false,
      "special": true
    }
  ],
  "normalizer": null,
  "pre_tokenizer": null,
  "post_processor": null,
  "decoder": null,
  "model": {
    "type": "BPE",
    "dropout": null,
    "unk_token": "<unk>",
    "continuing_subword_prefix": null,
    "end_of_word_suffix": null,
    "fuse_unk": false,
    "byte_fallback": false,
    "ignore_merges": false,
    "vocab": {
      "<unk>": 0,
      "<pad>": 1,
      "<bos>": 2,
      "<eos>": 3,
      "\u0001": 4,
      "\u0002": 5,
      "\u0003": 6,
      "\b": 7,
      "\t": 8,
      "\u000b": 9,
      "\f": 10,
      "\u000f": 11,
      "\u0011": 12,
      "\u0012": 13,
      "\u0013": 14,
      "\u0014": 15,
      "\u0015": 16,
      "\u0016": 17,
      "\u0017": 18,
      "\u0018": 19,
      "\u0019": 20,
      "\u001a": 21,
      "\u001b": 22,
      "\u001c": 23,
      " ": 24,
      "!": 25,
      "\"": 26,
      "#": 27,
      "$": 28,
      "%": 29,
      "&": 30,
      "'": 31,
      "(": 32,
      ")": 33,
      "*": 34,
      "+": 35,
      ",": 36,
      "-": 37,
      ".": 38,
      "/": 39,
      "0": 40,
      "1": 41,
      "2": 42,
      "3": 43,
      "4": 44,
      "5": 45,
      "6": 46,
      "7": 47,
      "8": 48,
      "9": 49,
      ":": 50,
      ";": 51,
      "<": 52,
      "=": 53,
      ">": 54,
      "?": 55,
      "@": 56,
      "A": 57,
      "B": 58,
      "C": 59,
      "D": 60,
      "E": 61,
      "F": 62,
      "G": 63,
      "H": 64,
      "I": 65,
      "J": 66,
      "K": 67,
      "L": 68,
      "M": 69,
      "N": 70,
      "O": 71,
      "P": 72,
      "Q": 73,
      "R": 74,
      "S": 75,
      "T": 76,
      "U": 77,
      "V": 78,
      "W": 79,
      "X": 80,
      "Y": 81,
      "Z": 82,
      "[": 83,
      "\\": 84,
      "]": 85,
      "^": 86,
      "_": 87,
      "`": 88,
      "a": 89,
      "b": 90,
      "c": 91,
      "d": 92,
      "e": 93,
      "f": 94,
      "g": 95,
      "h": 96,
      "i": 97,
      "j": 98,
      "k": 99,
      "l": 100,
      "m": 101,
      "n": 102,
      "o": 103,
      "p": 104,
      "q": 105,
      "r": 106,
      "s": 107,
      "t": 108,
      "u": 109,
      "v": 110,
      "w": 111,
      "x": 112,
      "y": 113,
      "z": 114,
      "{": 115,
      "|": 116,
      "}": 117,
      "~": 118,
      "": 119,
      "": 120,
      "": 121,
      "": 122,
      "": 123,
      "": 124,
      "": 125,
      "": 126,
      "": 127,
      "": 128,
      "": 129,
      "": 130,
      "": 131,
      "": 132,
      " ": 133,
      "¡": 134,
      "¢": 135,
      "£": 136,
      "¤": 137,
      "¥": 138,
      "¦": 139,
      "§": 140,
      "¨": 141,
      "©": 142,
      "ª": 143,
      "«": 144,
      "¬": 145,
      "­": 146,
      "®": 147,
      "¯": 148,
      "°": 149,
      "±": 150,
      "²": 151,
      "³": 152,
      "´": 153,
      "µ": 154,
      "¶": 155,
      "·": 156,
      "¸": 157,
      "¹": 158,
      "º": 159,
      "»": 160,
      "¼": 161,
      "½": 162,
      "¾": 163,
      "¿": 164,
      "À": 165,
      "Á": 166,
      "Â": 167,
      "Ã": 168,
      "Ä": 169,
      "Å": 170,
      "Æ": 171,
      "Ç": 172,
      "È": 173,
      "É": 174,
      "Ê": 175,
      "Ë": 176,
      "Ì": 177,
      "Í": 178,
      "Î": 179,
      "Ï": 180,
      "Ð": 181,
      "Ñ": 182,
      "Ò": 183,
      "Ó": 184,
      "Ô": 185,
      "Õ": 186,
      "Ö": 187,
      "×": 188,
      "Ø": 189,
      "Ú": 190,
      "Û": 191,
      "Ü": 192,
      "Ý": 193,
      "Þ": 194,
      "ß": 195,
      "à": 196,
      "á": 197,
      "â": 198,
      "ã": 199,
      "ä": 200,
      "å": 201,
      "æ": 202,
      "ç": 203,
      "è": 204,
      "é": 205,
      "ê": 206,
      "ë": 207,
      "ì": 208,
      "í": 209,
      "î": 210,
      "ï": 211,
      "ð": 212,
      "ñ": 213,
      "ò": 214,
      "ó": 215,
      "ô": 216,
      "õ": 217,
      "ö": 218,
      "÷": 219,
      "ø": 220,
      "ù": 221,
      "ú": 222,
      "û": 223,
      "ü": 224,
      "ý": 225,
      "þ": 226,
      "ÿ": 227,
      "Ā": 228,
      "ā": 229,
      "Ă": 230,
      "ă": 231,
      "ą": 232,
      "Ć": 233,
      "ć": 234,
      "Ĉ": 235,
      "ĉ": 236,
      "Ċ": 237,
      "ċ": 238,
      "Č": 239,
      "č": 240,
      "ď": 241,
      "Đ": 242,
      "đ": 243,
      "Ē": 244,
      "ē": 245,
      "Ĕ": 246,
      "ĕ": 247,
      "Ė": 248,
      "ė": 249,
      "ę": 250,
      "ě": 251,
      "Ĝ": 252,
      "ĝ": 253,
      "Ğ": 254,
      "ğ": 255,
      "Ġ": 256,
      "ġ": 257,
      "Ģ": 258,
      "ģ": 259,
      "Ĥ": 260,
      "ĥ": 261,
      "Ħ": 262,
      "ħ": 263,
      "ĩ": 264,
      "Ī": 265,
      "ī": 266,
      "ĭ": 267,
      "į": 268,
      "İ": 269,
      "ı": 270,
      "Ĵ": 271,
      "ĵ": 272,
      "Ķ": 273,
      "ķ": 274,
      "ĺ": 275,
      "Ļ": 276,
      "ļ": 277,
      "Ľ": 278,
      "ľ": 279,
      "Ł": 280,
      "ł": 281,
      "ń": 282,
      "Ņ": 283,
      "ņ": 284,
      "Ň": 285,
      "ň": 286,
      "ŋ": 287,
      "Ō": 288,
      "ō": 289,
      "ő": 290,
      "Œ": 291,
      "œ": 292,
      "ŕ": 293,
      "ř": 294,
      "Ś": 295,
      "ś": 296,
      "Ŝ": 297,
      "ŝ": 298,
      "Ş": 299,
      "ş": 300,
      "Š": 301,
      "š": 302,
      "Ţ": 303,
      "ţ": 304,
      "ť": 305,
      "Ŧ": 306,
      "ŧ": 307,
      "ũ": 308,
      "Ū": 309,
      "ū": 310,
      "ŭ": 311,
      "ů": 312,
      "ű": 313,
      "ų": 314,
      "ŵ": 315,
      "Ÿ": 316,
      "Ź": 317,
      "ź": 318,
      "Ż": 319,
      "ż": 320,
      "Ž": 321,
      "ž": 322,
      "ſ": 323,
      "Ə": 324,
      "ƒ": 325,
      "Ƙ": 326,
      "ƙ": 327,
      "Ɵ": 328,
      "ơ": 329,
      "Ƣ": 330,
      "ƣ": 331,
      "ƨ": 332,
      "ư": 333,
      "Ƶ": 334,
      "ƶ": 335,
      "ƿ": 336,
      "ǁ": 337,
      "ǃ": 338,
      "ǎ": 339,
      "ǐ": 340,
      "ǒ": 341,
      "ǔ": 342,
      "ǘ": 343,
      "ǜ": 344,
      "ǝ": 345,
      "ǧ": 346,
      "ǵ": 347,
      "Ǿ": 348,
      "ǿ": 349,
      "Ȃ": 350,
      "ȃ": 351,
      "ȋ": 352,
      "Ș": 353,
      "ș": 354,
      "Ț": 355,
      "ț": 356,
      "ȝ": 357,
      "Ȧ": 358,
      "ȧ": 359,
      "ȫ": 360,
      "ȳ": 361,
      "ɐ": 362,
      "ɑ": 363,
      "ɒ": 364,
      "ɓ": 365,
      "ɔ": 366,
      "ɖ": 367,
      "ə": 368,
      "ɛ": 369,
      "ɜ": 370,
      "ɟ": 371,
      "ɡ": 372,
      "ɣ": 373,
      "ɨ": 374,
      "ɪ": 375,
      "ɫ": 376,
      "ɯ": 377,
      "ɲ": 378,
      "ɴ": 379,
      "ɵ": 380,
      "ɸ": 381,
      "ɽ": 382,
      "ɾ": 383,
      "ʀ": 384,
      "ʁ": 385,
      "ʃ": 386,
      "ʈ": 387,
      "ʊ": 388,
      "ʌ": 389,
      "ʏ": 390,
      "ʒ": 391,
      "ʔ": 392,
      "ʕ": 393,
      "ʙ": 394,
      "ʝ": 395,
      "ʤ": 396,
      "ʦ": 397,
      "ʧ": 398,
      "ʰ": 399,
      "ʲ": 400,
      "ʷ": 401,
      "ʹ": 402,
      "ʻ": 403,
      "ʼ": 404,
      "ʽ": 405,
      "ʾ": 406,
      "ʿ": 407,
      "ˀ": 408,
      "ˁ": 409,
      "˂": 410,
      "˃": 411,
      "˄": 412,
      "ˆ": 413,
      "ˈ": 414,
      "ˌ": 415,
      "ː": 416,
      "ˑ": 417,
      "˒": 418,
      "˓": 419,
      "˘": 420,
      "˙": 421,
      "˚": 422,
      "̀": 423,
      "́": 424,
      "̂": 425,
      "̃": 426,
      "̄": 427,
      "̅": 428,
      "̆": 429,
      "̇": 430,
      "̈": 431,
      "̊": 432,
      "̋": 433,
      "̌": 434,
      "̏": 435,
      "̓": 436,
      "̗": 437,
      "̥": 438,
      "̧": 439,
      "̪": 440,
      "̯": 441,
      "̱": 442,
      "̲": 443,
      "̴": 444,
      "̹": 445,
      "͈": 446,
      "͡": 447,
      "ͦ": 448,
      ";": 449,
      "Ά": 450,
      "·": 451,
      "Έ": 452,
      "Ί": 453,
      "Α": 454,
      "Β": 455,
      "Γ": 456,
      "Δ": 457,
      "Ε": 458,
      "Ζ": 459,
      "Η": 460,
      "Θ": 461,
      "Ι": 462,
      "Κ": 463,
      "Λ": 464,
      "Μ": 465,
      "Ν": 466,
      "Ξ": 467,
      "Ο": 468,
      "Π": 469,
      "Ρ": 470,
      "Σ": 471,
      "Τ": 472,
      "Υ": 473,
      "Φ": 474,
      "Χ": 475,
      "Ψ": 476,
      "Ω": 477,
      "ά": 478,
      "έ": 479,
      "ή": 480,
      "ί": 481,
      "ΰ": 482,
      "α": 483,
      "β": 484,
      "γ": 485,
      "δ": 486,
      "ε": 487,
      "ζ": 488,
      "η": 489,
      "θ": 490,
      "ι": 491,
      "κ": 492,
      "λ": 493,
      "μ": 494,
      "ν": 495,
      "ξ": 496,
      "ο": 497,
      "π": 498,
      "ρ": 499,
      "ς": 500,
      "σ": 501,
      "τ": 502,
      "υ": 503,
      "φ": 504,
      "χ": 505,
      "ψ": 506,
      "ω": 507,
      "ϊ": 508,
      "ό": 509,
      "ύ": 510,
      "ώ": 511,
      "ϑ": 512,
      "ϒ": 513,
      "ϕ": 514,
      "ϰ": 515,
      "ϱ": 516,
      "Ё": 517,
      "І": 518,
      "Ј": 519,
      "Љ": 520,
      "Ў": 521,
      "А": 522,
      "Б": 523,
      "В": 524,
      "Г": 525,
      "Д": 526,
      "Е": 527,
      "Ж": 528,
      "З": 529,
      "И": 530,
      "Й": 531,
      "К": 532,
      "Л": 533,
      "М": 534,
      "Н": 535,
      "О": 536,
      "П": 537,
      "Р": 538,
      "С": 539,
      "Т": 540,
      "У": 541,
      "Ф": 542,
      "Х": 543,
      "Ц": 544,
      "Ч": 545,
      "Ш": 546,
      "Щ": 547,
      "Ъ": 548,
      "Ы": 549,
      "Ь": 550,
      "Э": 551,
      "Ю": 552,
      "Я": 553,
      "а": 554,
      "б": 555,
      "в": 556,
      "г": 557,
      "д": 558,
      "е": 559,
      "ж": 560,
      "з": 561,
      "и": 562,
      "й": 563,
      "к": 564,
      "л": 565,
      "м": 566,
      "н": 567,
      "о": 568,
      "п": 569,
      "р": 570,
      "с": 571,
      "т": 572,
      "у": 573,
      "ф": 574,
      "х": 575,
      "ц": 576,
      "ч": 577,
      "ш": 578,
      "щ": 579,
      "ъ": 580,
      "ы": 581,
      "ь": 582,
      "э": 583,
      "ю": 584,
      "я": 585,
      "ё": 586,
      "ѕ": 587,
      "і": 588,
      "ј": 589,
      "ћ": 590,
      "ў": 591,
      "ѣ": 592,
      "ѳ": 593,
      "ґ": 594,
      "Ғ": 595,
      "ғ": 596,
      "җ": 597,
      "Қ": 598,
      "қ": 599,
      "Ҝ": 600,
      "ҝ": 601,
      "Ҡ": 602,
      "ң": 603,
      "Ү": 604,
      "ү": 605,
      "Ұ": 606,
      "ұ": 607,
      "Ҳ": 608,
      "ҳ": 609,
      "Ҹ": 610,
      "ҹ": 611,
      "Һ": 612,
      "һ": 613,
      "Ӏ": 614,
      "ӏ": 615,
      "ӓ": 616,
      "Ә": 617,
      "ә": 618,
      "Ө": 619,
      "ө": 620,
      "ӯ": 621,
      "Ա": 622,
      "Բ": 623,
      "Գ": 624,
      "Դ": 625,
      "Ե": 626,
      "Զ": 627,
      "Է": 628,
      "Թ": 629,
      "Լ": 630,
      "Խ": 631,
      "Ծ": 632,
      "Կ": 633,
      "Հ": 634,
      "Ձ": 635,
      "Ղ": 636,
      "Ճ": 637,
      "Մ": 638,
      "Ն": 639,
      "Շ": 640,
      "Պ": 641,
      "Ռ": 642,
      "Ս": 643,
      "Վ": 644,
      "Տ": 645,
      "Ց": 646,
      "Փ": 647,
      "Ք": 648,
      "ա": 649,
      "բ": 650,
      "գ": 651,
      "դ": 652,
      "ե": 653,
      "զ": 654,
      "է": 655,
      "ը": 656,
      "թ": 657,
      "ժ": 658,
      "ի": 659,
      "լ": 660,
      "խ": 661,
      "ծ": 662,
      "կ": 663,
      "հ": 664,
      "ղ": 665,
      "ճ": 666,
      "մ": 667,
      "յ": 668,
      "ն": 669,
      "շ": 670,
      "ո": 671,
      "չ": 672,
      "պ": 673,
      "ջ": 674,
      "ռ": 675,
      "ս": 676,
      "վ": 677,
      "տ": 678,
      "ր": 679,
      "ց": 680,
      "ւ": 681,
      "փ": 682,
      "ք": 683,
      "օ": 684,
      "և": 685,
      "։": 686,
      "ְ": 687,
      "ֲ": 688,
      "ִ": 689,
      "ֵ": 690,
      "ֶ": 691,
      "ַ": 692,
      "ָ": 693,
      "ֹ": 694,
      "ּ": 695,
      "ֿ": 696,
      "ׁ": 697,
      "א": 698,
      "ב": 699,
      "ג": 700,
      "ד": 701,
      "ה": 702,
      "ו": 703,
      "ז": 704,
      "ח": 705,
      "ט": 706,
      "י": 707,
      "ך": 708,
      "כ": 709,
      "ל": 710,
      "ם": 711,
      "מ": 712,
      "ן": 713,
      "נ": 714,
      "ס": 715,
      "ע": 716,
      "פ": 717,
      "צ": 718,
      "ק": 719,
      "ר": 720,
      "ש": 721,
      "ת": 722,
      "״": 723,
      "،": 724,
      "؛": 725,
      "؟": 726,
      "ء": 727,
      "آ": 728,
      "أ": 729,
      "ؤ": 730,
      "إ": 731,
      "ئ": 732,
      "ا": 733,
      "ب": 734,
      "ة": 735,
      "ت": 736,
      "ث": 737,
      "ج": 738,
      "ح": 739,
      "خ": 740,
      "د": 741,
      "ذ": 742,
      "ر": 743,
      "ز": 744,
      "س": 745,
      "ش": 746,
      "ص": 747,
      "ض": 748,
      "ط": 749,
      "ظ": 750,
      "ع": 751,
      "غ": 752,
      "ـ": 753,
      "ف": 754,
      "ق": 755,
      "ك": 756,
      "ل": 757,
      "م": 758,
      "ن": 759,
      "ه": 760,
      "و": 761,
      "ى": 762,
      "ي": 763,
      "ً": 764,
      "ٌ": 765,
      "َ": 766,
      "ُ": 767,
      "ِ": 768,
      "ّ": 769,
      "ْ": 770,
      "١": 771,
      "٣": 772,
      "٩": 773,
      "ٰ": 774,
      "ٱ": 775,
      "پ": 776,
      "ڀ": 777,
      "چ": 778,
      "ژ": 779,
      "ک": 780,
      "ڭ": 781,
      "گ": 782,
      "ڵ": 783,
      "ڶ": 784,
      "ھ": 785,
      "ۃ": 786,
      "ۅ": 787,
      "ۆ": 788,
      "ۇ": 789,
      "ۋ": 790,
      "ی": 791,
      "ۍ": 792,
      "۔": 793,
      "ە": 794,
      "۰": 795,
      "۱": 796,
      "۲": 797,
      "۳": 798,
      "۴": 799,
      "۵": 800,
      "۶": 801,
      "۷": 802,
      "۸": 803,
      "۹": 804,
      "ܕ": 805,
      "ܝ": 806,
      "ܡ": 807,
      "ܢ": 808,
      "ܪ": 809,
      "ހ": 810,
      "ރ": 811,
      "އ": 812,
      "ވ": 813,
      "ދ": 814,
      "ޖ": 815,
      "ާ": 816,
      "ި": 817,
      "ެ": 818,
      "ް": 819,
      "ं": 820,
      "ः": 821,
      "अ": 822,
      "आ": 823,
      "ई": 824,
      "उ": 825,
      "ऋ": 826,
      "औ": 827,
      "क": 828,
      "ख": 829,
      "ग": 830,
      "घ": 831,
      "छ": 832,
      "ज": 833,
      "ट": 834,
      "ठ": 835,
      "ड": 836,
      "ण": 837,
      "त": 838,
      "थ": 839,
      "द": 840,
      "ध": 841,
      "न": 842,
      "प": 843,
      "फ": 844,
      "ब": 845,
      "भ": 846,
      "म": 847,
      "य": 848,
      "र": 849,
      "ल": 850,
      "व": 851,
      "श": 852,
      "ष": 853,
      "स": 854,
      "ह": 855,
      "़": 856,
      "ा": 857,
      "ि": 858,
      "ी": 859,
      "ु": 860,
      "ू": 861,
      "े": 862,
      "ै": 863,
      "ो": 864,
      "ौ": 865,
      "्": 866,
      "ং": 867,
      "ত": 868,
      "ব": 869,
      "ভ": 870,
      "র": 871,
      "ল": 872,
      "া": 873,
      "ৰ": 874,
      "ਤ": 875,
      "ਭ": 876,
      "ਰ": 877,
      "ਾ": 878,
      "ત": 879,
      "ભ": 880,
      "ર": 881,
      "ા": 882,
      "ତ": 883,
      "ଭ": 884,
      "ର": 885,
      "ା": 886,
      "இ": 887,
      "க": 888,
      "ங": 889,
      "ச": 890,
      "த": 891,
      "ந": 892,
      "ப": 893,
      "ய": 894,
      "ர": 895,
      "ல": 896,
      "ா": 897,
      "ி": 898,
      "ூ": 899,
      "ை": 900,
      "்": 901,
      "త": 902,
      "భ": 903,
      "ర": 904,
      "ా": 905,
      "్": 906,
      "ತ": 907,
      "ಭ": 908,
      "ರ": 909,
      "ಾ": 910,
      "ം": 911,
      "ത": 912,
      "ഭ": 913,
      "ര": 914,
      "ാ": 915,
      "ං": 916,
      "ක": 917,
      "ල": 918,
      "ා": 919,
      "ค": 920,
      "ง": 921,
      "ต": 922,
      "ท": 923,
      "บ": 924,
      "ย": 925,
      "ส": 926,
      "า": 927,
      "฿": 928,
      "ไ": 929,
      "์": 930,
      "ລ": 931,
      "ວ": 932,
      "າ": 933,
      "ང": 934,
      "ད": 935,
      "ა": 936,
      "ბ": 937,
      "გ": 938,
      "დ": 939,
      "ე": 940,
      "ვ": 941,
      "ზ": 942,
      "თ": 943,
      "ი": 944,
      "კ": 945,
      "ლ": 946,
      "მ": 947,
      "ნ": 948,
      "ო": 949,
      "პ": 950,
      "რ": 951,
      "ს": 952,
      "ტ": 953,
      "უ": 954,
      "ფ": 955,
      "ქ": 956,
      "ღ": 957,
      "შ": 958,
      "ჩ": 959,
      "ც": 960,
      "ძ": 961,
      "წ": 962,
      "ხ": 963,
      "ჯ": 964,
      "ჰ": 965,
      "ር": 966,
      "ብ": 967,
      "ከ": 968,
      "ፋ": 969,
      "ᚢ": 970,
      "ᚱ": 971,
      "ᚴ": 972,
      "ᚾ": 973,
      "ᛅ": 974,
      "ᛏ": 975,
      "ᛘ": 976,
      "ᴅ": 977,
      "ᵃ": 978,
      "ᵒ": 979,
      "ᵧ": 980,
      "ᵪ": 981,
      "ḃ": 982,
      "Ḍ": 983,
      "ḍ": 984,
      "Ḏ": 985,
      "ḏ": 986,
      "ḕ": 987,
      "ḗ": 988,
      "ḡ": 989,
      "Ḥ": 990,
      "ḥ": 991,
      "Ḩ": 992,
      "ḩ": 993,
      "ḫ": 994,
      "ḱ": 995,
      "Ḳ": 996,
      "ḳ": 997,
      "Ḵ": 998,
      "ḷ": 999,
      "Ḽ": 1000,
      "ḽ": 1001,
      "ṃ": 1002,
      "ṅ": 1003,
      "ṇ": 1004,
      "ṓ": 1005,
      "ṙ": 1006,
      "ṛ": 1007,
      "Ṣ": 1008,
      "ṣ": 1009,
      "Ṭ": 1010,
      "ṭ": 1011,
      "ṯ": 1012,
      "ẓ": 1013,
      "ẕ": 1014,
      "ẞ": 1015,
      "ạ": 1016,
      "Ả": 1017,
      "ả": 1018,
      "ấ": 1019,
      "ầ": 1020,
      "ậ": 1021,
      "ặ": 1022,
      "ẽ": 1023,
      "ễ": 1024,
      "ệ": 1025,
      "ị": 1026,
      "ọ": 1027,
      "ồ": 1028,
      "ỗ": 1029,
      "ờ": 1030,
      "ứ": 1031,
      "ἀ": 1032,
      "ἁ": 1033,
      "ἄ": 1034,
      "Ἀ": 1035,
      "Ἄ": 1036,
      "ἐ": 1037,
      "ἑ": 1038,
      "ἒ": 1039,
      "ἔ": 1040,
      "Ἐ": 1041,
      "Ἑ": 1042,
      "Ἔ": 1043,
      "ἡ": 1044,
      "ἢ": 1045,
      "ἤ": 1046,
      "ἥ": 1047,
      "ἦ": 1048,
      "Ἠ": 1049,
      "Ἡ": 1050,
      "ἰ": 1051,
      "ἱ": 1052,
      "ἴ": 1053,
      "ἵ": 1054,
      "ἶ": 1055,
      "Ἰ": 1056,
      "ὀ": 1057,
      "ὂ": 1058,
      "Ὄ": 1059,
      "Ὅ": 1060,
      "ὐ": 1061,
      "ὑ": 1062,
      "ὔ": 1063,
      "ὕ": 1064,
      "ὖ": 1065,
      "ὗ": 1066,
      "ὠ": 1067,
      "ὦ": 1068,
      "ὰ": 1069,
      "ὲ": 1070,
      "ὴ": 1071,
      "ὶ": 1072,
      "ὸ": 1073,
      "ὺ": 1074,
      "ᾖ": 1075,
      "ᾰ": 1076,
      "ᾱ": 1077,
      "ᾴ": 1078,
      "ᾶ": 1079,
      "ᾷ": 1080,
      "ῃ": 1081,
      "ῆ": 1082,
      "ῇ": 1083,
      "ῐ": 1084,
      "ῑ": 1085,
      "ῖ": 1086,
      "ῠ": 1087,
      "ῡ": 1088,
      "ῥ": 1089,
      "ῦ": 1090,
      "Ῥ": 1091,
      "ῴ": 1092,
      "ῶ": 1093,
      "ῷ": 1094,
      "῾": 1095,
      " ": 1096,
      " ": 1097,
      " ": 1098,
      " ": 1099,
      "​": 1100,
      "‌": 1101,
      "‎": 1102,
      "‐": 1103,
      "‑": 1104,
      "‒": 1105,
      "–": 1106,
      "—": 1107,
      "―": 1108,
      "‖": 1109,
      "‗": 1110,
      "‘": 1111,
      "’": 1112,
      "‚": 1113,
      "‛": 1114,
      "“": 1115,
      "”": 1116,
      "„": 1117,
      "‟": 1118,
      "†": 1119,
      "‡": 1120,
      "•": 1121,
      "‣": 1122,
      "․": 1123,
      "…": 1124,
      " ": 1125,
      "‪": 1126,
      " ": 1127,
      "‰": 1128,
      "′": 1129,
      "″": 1130,
      "‹": 1131,
      "›": 1132,
      "‼": 1133,
      "‾": 1134,
      "‿": 1135,
      "⁄": 1136,
      "⁠": 1137,
      "⁰": 1138,
      "⁵": 1139,
      "⁶": 1140,
      "⁹": 1141,
      "⁺": 1142,
      "⁻": 1143,
      "₀": 1144,
      "₁": 1145,
      "₂": 1146,
      "₃": 1147,
      "₄": 1148,
      "₅": 1149,
      "ₓ": 1150,
      "₤": 1151,
      "₦": 1152,
      "₨": 1153,
      "₪": 1154,
      "₫": 1155,
      "€": 1156,
      "₮": 1157,
      "₯": 1158,
      "₹": 1159,
      "₺": 1160,
      "₽": 1161,
      "⃣": 1162,
      "℃": 1163,
      "℅": 1164,
      "ℏ": 1165,
      "ℓ": 1166,
      "№": 1167,
      "ℜ": 1168,
      "™": 1169,
      "Ω": 1170,
      "ℵ": 1171,
      "⅓": 1172,
      "Ⅱ": 1173,
      "Ⅲ": 1174,
      "Ⅴ": 1175,
      "←": 1176,
      "↑": 1177,
      "→": 1178,
      "↓": 1179,
      "↔": 1180,
      "⇒": 1181,
      "⇔": 1182,
      "∂": 1183,
      "∃": 1184,
      "∅": 1185,
      "∆": 1186,
      "∇": 1187,
      "∈": 1188,
      "−": 1189,
      "∓": 1190,
      "∗": 1191,
      "∘": 1192,
      "∙": 1193,
      "√": 1194,
      "∝": 1195,
      "∞": 1196,
      "∣": 1197,
      "∥": 1198,
      "∧": 1199,
      "∨": 1200,
      "∫": 1201,
      "∶": 1202,
      "≈": 1203,
      "≠": 1204,
      "≡": 1205,
      "≤": 1206,
      "≥": 1207,
      "⊂": 1208,
      "⊕": 1209,
      "⋅": 1210,
      "─": 1211,
      "│": 1212,
      "■": 1213,
      "□": 1214,
      "▪": 1215,
      "◊": 1216,
      "○": 1217,
      "◌": 1218,
      "●": 1219,
      "★": 1220,
      "☺": 1221,
      "♀": 1222,
      "♂": 1223,
      "♠": 1224,
      "♡": 1225,
      "♣": 1226,
      "♥": 1227,
      "♦": 1228,
      "♫": 1229,
      "♭": 1230,
      "♯": 1231,
      "⚓": 1232,
      "⚕": 1233,
      "⚖": 1234,
      "⚽": 1235,
      "⛽": 1236,
      "✅": 1237,
      "✨": 1238,
      "❝": 1239,
      "❞": 1240,
      "❤": 1241,
      "⟨": 1242,
      "⟩": 1243,
      "⦁": 1244,
      "⬇": 1245,
      "Ⱨ": 1246,
      "Ⱪ": 1247,
      "ⲉ": 1248,
      "ⲏ": 1249,
      "ⲓ": 1250,
      "ⲕ": 1251,
      "ⲙ": 1252,
      "ⲭ": 1253,
      "ⴰ": 1254,
      "ⴱ": 1255,
      "ⴳ": 1256,
      "ⴷ": 1257,
      "ⴻ": 1258,
      "ⵉ": 1259,
      "ⵍ": 1260,
      "ⵎ": 1261,
      "ⵏ": 1262,
      "ⵔ": 1263,
      "ⵖ": 1264,
      "ⵜ": 1265,
      "　": 1266,
      "、": 1267,
      "。": 1268,
      "《": 1269,
      "》": 1270,
      "「": 1271,
      "」": 1272,
      "『": 1273,
      "』": 1274,
      "【": 1275,
      "】": 1276,
      "〖": 1277,
      "〗": 1278,
      "あ": 1279,
      "い": 1280,
      "え": 1281,
      "か": 1282,
      "き": 1283,
      "こ": 1284,
      "ご": 1285,
      "す": 1286,
      "せ": 1287,
      "そ": 1288,
      "っ": 1289,
      "つ": 1290,
      "で": 1291,
      "と": 1292,
      "ど": 1293,
      "な": 1294,
      "に": 1295,
      "の": 1296,
      "ま": 1297,
      "み": 1298,
      "も": 1299,
      "よ": 1300,
      "り": 1301,
      "る": 1302,
      "ろ": 1303,
      "を": 1304,
      "ア": 1305,
      "キ": 1306,
      "ク": 1307,
      "サ": 1308,
      "ズ": 1309,
      "ッ": 1310,
      "ネ": 1311,
      "ノ": 1312,
      "ブ": 1313,
      "マ": 1314,
      "ヤ": 1315,
      "ヨ": 1316,
      "ラ": 1317,
      "ン": 1318,
      "・": 1319,
      "ー": 1320,
      "㐌": 1321,
      "一": 1322,
      "七": 1323,
      "三": 1324,
      "上": 1325,
      "世": 1326,
      "丙": 1327,
      "中": 1328,
      "丸": 1329,
      "主": 1330,
      "之": 1331,
      "乙": 1332,
      "九": 1333,
      "事": 1334,
      "二": 1335,
      "于": 1336,
      "五": 1337,
      "亚": 1338,
      "亥": 1339,
      "京": 1340,
      "人": 1341,
      "什": 1342,
      "代": 1343,
      "以": 1344,
      "份": 1345,
      "伊": 1346,
      "伏": 1347,
      "会": 1348,
      "伽": 1349,
      "佑": 1350,
      "何": 1351,
      "佗": 1352,
      "余": 1353,
      "使": 1354,
      "依": 1355,
      "侯": 1356,
      "便": 1357,
      "俟": 1358,
      "俱": 1359,
      "健": 1360,
      "傉": 1361,
      "働": 1362,
      "像": 1363,
      "元": 1364,
      "光": 1365,
      "全": 1366,
      "八": 1367,
      "公": 1368,
      "六": 1369,
      "典": 1370,
      "円": 1371,
      "册": 1372,
      "军": 1373,
      "出": 1374,
      "分": 1375,
      "初": 1376,
      "別": 1377,
      "利": 1378,
      "劉": 1379,
      "力": 1380,
      "加": 1381,
      "労": 1382,
      "効": 1383,
      "勃": 1384,
      "勒": 1385,
      "動": 1386,
      "務": 1387,
      "勝": 1388,
      "匐": 1389,
      "北": 1390,
      "区": 1391,
      "十": 1392,
      "半": 1393,
      "卑": 1394,
      "卓": 1395,
      "南": 1396,
      "卷": 1397,
      "厥": 1398,
      "厨": 1399,
      "可": 1400,
      "台": 1401,
      "史": 1402,
      "司": 1403,
      "吉": 1404,
      "同": 1405,
      "吐": 1406,
      "周": 1407,
      "命": 1408,
      "咄": 1409,
      "和": 1410,
      "唐": 1411,
      "啜": 1412,
      "啟": 1413,
      "單": 1414,
      "四": 1415,
      "回": 1416,
      "因": 1417,
      "团": 1418,
      "国": 1419,
      "國": 1420,
      "圖": 1421,
      "地": 1422,
      "坡": 1423,
      "域": 1424,
      "士": 1425,
      "壽": 1426,
      "夏": 1427,
      "外": 1428,
      "多": 1429,
      "大": 1430,
      "天": 1431,
      "女": 1432,
      "奴": 1433,
      "始": 1434,
      "子": 1435,
      "孔": 1436,
      "学": 1437,
      "孰": 1438,
      "宁": 1439,
      "宏": 1440,
      "宗": 1441,
      "官": 1442,
      "定": 1443,
      "寄": 1444,
      "寅": 1445,
      "少": 1446,
      "尼": 1447,
      "局": 1448,
      "屈": 1449,
      "屯": 1450,
      "山": 1451,
      "島": 1452,
      "嶺": 1453,
      "工": 1454,
      "巴": 1455,
      "巻": 1456,
      "市": 1457,
      "師": 1458,
      "幕": 1459,
      "平": 1460,
      "年": 1461,
      "幹": 1462,
      "庁": 1463,
      "庚": 1464,
      "府": 1465,
      "度": 1466,
      "庭": 1467,
      "建": 1468,
      "弁": 1469,
      "式": 1470,
      "弔": 1471,
      "弗": 1472,
      "彌": 1473,
      "当": 1474,
      "形": 1475,
      "律": 1476,
      "御": 1477,
      "微": 1478,
      "心": 1479,
      "必": 1480,
      "念": 1481,
      "忽": 1482,
      "思": 1483,
      "性": 1484,
      "悉": 1485,
      "惟": 1486,
      "惠": 1487,
      "戊": 1488,
      "戌": 1489,
      "成": 1490,
      "戦": 1491,
      "戰": 1492,
      "房": 1493,
      "所": 1494,
      "拓": 1495,
      "拔": 1496,
      "振": 1497,
      "摩": 1498,
      "攝": 1499,
      "放": 1500,
      "政": 1501,
      "故": 1502,
      "教": 1503,
      "敦": 1504,
      "文": 1505,
      "斛": 1506,
      "斤": 1507,
      "新": 1508,
      "於": 1509,
      "施": 1510,
      "旅": 1511,
      "族": 1512,
      "旗": 1513,
      "日": 1514,
      "旭": 1515,
      "星": 1516,
      "昭": 1517,
      "是": 1518,
      "時": 1519,
      "普": 1520,
      "書": 1521,
      "曹": 1522,
      "最": 1523,
      "會": 1524,
      "月": 1525,
      "有": 1526,
      "服": 1527,
      "朝": 1528,
      "木": 1529,
      "未": 1530,
      "末": 1531,
      "本": 1532,
      "朱": 1533,
      "杂": 1534,
      "杆": 1535,
      "村": 1536,
      "杜": 1537,
      "条": 1538,
      "東": 1539,
      "柔": 1540,
      "査": 1541,
      "株": 1542,
      "根": 1543,
      "桃": 1544,
      "案": 1545,
      "桓": 1546,
      "桥": 1547,
      "梁": 1548,
      "棘": 1549,
      "楊": 1550,
      "業": 1551,
      "槐": 1552,
      "橋": 1553,
      "機": 1554,
      "欧": 1555,
      "正": 1556,
      "武": 1557,
      "殺": 1558,
      "毗": 1559,
      "毘": 1560,
      "氏": 1561,
      "民": 1562,
      "水": 1563,
      "汗": 1564,
      "沖": 1565,
      "沙": 1566,
      "波": 1567,
      "泥": 1568,
      "注": 1569,
      "洞": 1570,
      "津": 1571,
      "洪": 1572,
      "海": 1573,
      "涅": 1574,
      "済": 1575,
      "渭": 1576,
      "港": 1577,
      "湾": 1578,
      "漢": 1579,
      "澳": 1580,
      "灣": 1581,
      "火": 1582,
      "為": 1583,
      "烈": 1584,
      "烏": 1585,
      "然": 1586,
      "煬": 1587,
      "熟": 1588,
      "燃": 1589,
      "燕": 1590,
      "爲": 1591,
      "爹": 1592,
      "爾": 1593,
      "版": 1594,
      "物": 1595,
      "特": 1596,
      "狄": 1597,
      "狼": 1598,
      "猗": 1599,
      "甌": 1600,
      "産": 1601,
      "用": 1602,
      "甲": 1603,
      "町": 1604,
      "畢": 1605,
      "略": 1606,
      "癸": 1607,
      "登": 1608,
      "發": 1609,
      "白": 1610,
      "百": 1611,
      "的": 1612,
      "盟": 1613,
      "盧": 1614,
      "眉": 1615,
      "石": 1616,
      "研": 1617,
      "硫": 1618,
      "社": 1619,
      "神": 1620,
      "祥": 1621,
      "祿": 1622,
      "禅": 1623,
      "科": 1624,
      "移": 1625,
      "穆": 1626,
      "究": 1627,
      "突": 1628,
      "章": 1629,
      "第": 1630,
      "米": 1631,
      "精": 1632,
      "紅": 1633,
      "紇": 1634,
      "紋": 1635,
      "終": 1636,
      "經": 1637,
      "綽": 1638,
      "緣": 1639,
      "縄": 1640,
      "縻": 1641,
      "纛": 1642,
      "纥": 1643,
      "羁": 1644,
      "羅": 1645,
      "義": 1646,
      "翳": 1647,
      "翼": 1648,
      "者": 1649,
      "耍": 1650,
      "股": 1651,
      "胡": 1652,
      "脫": 1653,
      "臨": 1654,
      "臺": 1655,
      "與": 1656,
      "般": 1657,
      "色": 1658,
      "花": 1659,
      "若": 1660,
      "英": 1661,
      "苾": 1662,
      "莫": 1663,
      "菊": 1664,
      "華": 1665,
      "菴": 1666,
      "落": 1667,
      "葉": 1668,
      "薛": 1669,
      "蘇": 1670,
      "蘭": 1671,
      "處": 1672,
      "虞": 1673,
      "蜜": 1674,
      "行": 1675,
      "術": 1676,
      "表": 1677,
      "裴": 1678,
      "見": 1679,
      "視": 1680,
      "親": 1681,
      "観": 1682,
      "解": 1683,
      "言": 1684,
      "設": 1685,
      "訶": 1686,
      "語": 1687,
      "調": 1688,
      "警": 1689,
      "護": 1690,
      "豐": 1691,
      "賀": 1692,
      "贺": 1693,
      "赤": 1694,
      "起": 1695,
      "跋": 1696,
      "跌": 1697,
      "身": 1698,
      "車": 1699,
      "辰": 1700,
      "辺": 1701,
      "通": 1702,
      "連": 1703,
      "進": 1704,
      "道": 1705,
      "達": 1706,
      "那": 1707,
      "部": 1708,
      "都": 1709,
      "酉": 1710,
      "里": 1711,
      "金": 1712,
      "鉢": 1713,
      "錦": 1714,
      "錬": 1715,
      "鍛": 1716,
      "鐵": 1717,
      "長": 1718,
      "門": 1719,
      "間": 1720,
      "閭": 1721,
      "閻": 1722,
      "门": 1723,
      "防": 1724,
      "阿": 1725,
      "限": 1726,
      "院": 1727,
      "陰": 1728,
      "陳": 1729,
      "隴": 1730,
      "隸": 1731,
      "集": 1732,
      "雍": 1733,
      "電": 1734,
      "音": 1735,
      "頡": 1736,
      "頭": 1737,
      "飯": 1738,
      "香": 1739,
      "馬": 1740,
      "騎": 1741,
      "骨": 1742,
      "鬱": 1743,
      "鮮": 1744,
      "鯰": 1745,
      "鶻": 1746,
      "鹘": 1747,
      "鹿": 1748,
      "黄": 1749,
      "默": 1750,
      "鼻": 1751,
      "ꜣ": 1752,
      "ꜥ": 1753,
      "꞊": 1754,
      "ꞌ": 1755,
      "강": 1756,
      "국": 1757,
      "한": 1758,
      "": 1759,
      "": 1760,
      "": 1761,
      "": 1762,
      "": 1763,
      "": 1764,
      "": 1765,
      "": 1766,
      "": 1767,
      "": 1768,
      "": 1769,
      "": 1770,
      "": 1771,
      "": 1772,
      "": 1773,
      "": 1774,
      "": 1775,
      "": 1776,
      "": 1777,
      "": 1778,
      "": 1779,
      "": 1780,
      "": 1781,
      "": 1782,
      "": 1783,
      "": 1784,
      "": 1785,
      "": 1786,
      "": 1787,
      "": 1788,
      "": 1789,
      "": 1790,
      "": 1791,
      "": 1792,
      "": 1793,
      "ﬁ": 1794,
      "ﬂ": 1795,
      "︎": 1796,
      "️": 1797,
      "ﺍ": 1798,
      "ﺎ": 1799,
      "ﺏ": 1800,
      "ﺕ": 1801,
      "ﺙ": 1802,
      "ﺝ": 1803,
      "ﺡ": 1804,
      "ﺥ": 1805,
      "ﺩ": 1806,
      "ﺫ": 1807,
      "ﺭ": 1808,
      "ﺮ": 1809,
      "ﺯ": 1810,
      "ﺱ": 1811,
      "ﺵ": 1812,
      "ﺹ": 1813,
      "ﺽ": 1814,
      "ﻁ": 1815,
      "ﻅ": 1816,
      "ﻉ": 1817,
      "ﻍ": 1818,
      "ﻑ": 1819,
      "ﻕ": 1820,
      "ﻙ": 1821,
      "ﻝ": 1822,
      "ﻡ": 1823,
      "ﻥ": 1824,
      "ﻦ": 1825,
      "ﻧ": 1826,
      "ﻩ": 1827,
      "ﻫ": 1828,
      "ﻭ": 1829,
      "﻿": 1830,
      "（": 1831,
      "）": 1832,
      "～": 1833,
      "￼": 1834,
      "�": 1835,
      "𐎠": 1836,
      "𐎡": 1837,
      "𐎴": 1838,
      "𐎷": 1839,
      "𐎼": 1840,
      "𐤠": 1841,
      "𐤣": 1842,
      "𐤭": 1843,
      "𐤮": 1844,
      "𐤱": 1845,
      "𐰃": 1846,
      "𐰆": 1847,
      "𐰇": 1848,
      "𐰉": 1849,
      "𐰍": 1850,
      "𐰑": 1851,
      "𐰔": 1852,
      "𐰕": 1853,
      "𐰖": 1854,
      "𐰚": 1855,
      "𐰜": 1856,
      "𐰞": 1857,
      "𐰣": 1858,
      "𐰴": 1859,
      "𐰺": 1860,
      "𐰼": 1861,
      "𐱃": 1862,
      "𐱅": 1863,
      "𒀀": 1864,
      "𒂠": 1865,
      "𒂵": 1866,
      "𒃾": 1867,
      "𒄀": 1868,
      "𒄿": 1869,
      "𒅀": 1870,
      "𒅆": 1871,
      "𒅴": 1872,
      "𒆷": 1873,
      "𒇻": 1874,
      "𒈨": 1875,
      "𒈪": 1876,
      "𒊒": 1877,
      "𒊕": 1878,
      "𒊭": 1879,
      "𒋗": 1880,
      "𒋫": 1881,
      "𒌷": 1882,
      "𓂓": 1883,
      "𓅓": 1884,
      "𓆎": 1885,
      "𓉐": 1886,
      "𓉗": 1887,
      "𓊖": 1888,
      "𓊪": 1889,
      "𓎛": 1890,
      "𓏏": 1891,
      "𓏤": 1892,
      "𝐺": 1893,
      "𝐿": 1894,
      "𝑇": 1895,
      "𝑎": 1896,
      "𝑏": 1897,
      "𝑑": 1898,
      "𝑒": 1899,
      "𝑓": 1900,
      "𝑖": 1901,
      "𝑙": 1902,
      "𝑚": 1903,
      "𝑜": 1904,
      "𝑝": 1905,
      "𝑟": 1906,
      "𝑡": 1907,
      "𝑥": 1908,
      "𝛥": 1909,
      "𝛾": 1910,
      "𝜑": 1911,
      "𝜔": 1912,
      "🇧": 1913,
      "🇪": 1914,
      "🇷": 1915,
      "🇸": 1916,
      "🇹": 1917,
      "🇾": 1918,
      "🌿": 1919,
      "🎯": 1920,
      "🏅": 1921,
      "🏆": 1922,
      "🏹": 1923,
      "🏻": 1924,
      "🐾": 1925,
      "👇": 1926,
      "👍": 1927,
      "💨": 1928,
      "💸": 1929,
      "📌": 1930,
      "📣": 1931,
      "📩": 1932,
      "🔭": 1933,
      "😮": 1934,
      "😷": 1935,
      "🙏": 1936,
      "🚀": 1937,
      "🚢": 1938,
      "🤰": 1939,
      "🧵": 1940,
      "🧼": 1941,
      "🩸": 1942,
      "n ": 1943,
      "e ": 1944,
      "ar": 1945,
      "er": 1946,
      "a ": 1947,
      "i ": 1948,
      "il": 1949,
      "k ": 1950,
      "ir": 1951,
      "ı ": 1952,
      "an": 1953,
      "in": 1954,
      "al": 1955,
      "el": 1956,
      "en": 1957,
      "ın": 1958,
      "ol": 1959,
      "m ": 1960,
      "ma": 1961,
      "u ": 1962,
      "en ": 1963,
      "lar": 1964,
      "or": 1965,
      "iy": 1966,
      "bir": 1967,
      ", ": 1968,
      "in ": 1969,
      "an ": 1970,
      "et": 1971,
      "ay": 1972,
      "da ": 1973,
      "ek": 1974,
      "es": 1975,
      "ler": 1976,
      "de ": 1977,
      ". ": 1978,
      "at": 1979,
      "bir ": 1980,
      "ak": 1981,
      "ve ": 1982,
      "ed": 1983,
      "un": 1984,
      "em": 1985,
      "as": 1986,
      "aş": 1987,
      "ır": 1988,
      "iz": 1989,
      "ey": 1990,
      "is": 1991,
      "on": 1992,
      "ın ": 1993,
      "ıl": 1994,
      "ik": 1995,
      "ad": 1996,
      "ul": 1997,
      "ur": 1998,
      "iş": 1999,
      "it": 2000,
      "im": 2001,
      "am": 2002,
      "ür": 2003,
      "ap": 2004,
      "ış": 2005,
      "ah": 2006,
      "ün": 2007,
      "z ": 2008,
      "er ": 2009,
      "bil": 2010,
      "iç": 2011,
      "ak ": 2012,
      "ek ": 2013,
      "eğ": 2014,
      "üz": 2015,
      "ık": 2016,
      "ok ": 2017,
      "im ": 2018,
      "iğ": 2019,
      "du": 2020,
      "az": 2021,
      " k": 2022,
      "ağ": 2023,
      "gö": 2024,
      "fil": 2025,
      "le ": 2026,
      "ığ": 2027,
      "yor": 2028,
      "ön": 2029,
      "ev": 2030,
      "ik ": 2031,
      "ec": 2032,
      "dan ": 2033,
      "lan": 2034,
      "ar ": 2035,
      "um": 2036,
      "bu ": 2037,
      "el ": 2038,
      "ım": 2039,
      "mas": 2040,
      "ında ": 2041,
      "ab": 2042,
      "un ": 2043,
      "çok ": 2044,
      "ok": 2045,
      "av": 2046,
      "ini ": 2047,
      "den ": 2048,
      " y": 2049,
      " s": 2050,
      "iyor": 2051,
      "ine ": 2052,
      " d": 2053,
      "la ": 2054,
      "ac": 2055,
      "eş": 2056,
      "ama": 2057,
      "inde ": 2058,
      " b": 2059,
      "ını ": 2060,
      "ım ": 2061,
      "end": 2062,
      "id": 2063,
      " ve ": 2064,
      "ger": 2065,
      "ık ": 2066,
      "gör": 2067,
      "film": 2068,
      "ız": 2069,
      "ıs": 2070,
      "için ": 2071,
      "anl": 2072,
      "li ": 2073,
      "us": 2074,
      " ol": 2075,
      "yap": 2076,
      "ut": 2077,
      "baş": 2078,
      "ib": 2079,
      "aç": 2080,
      "ül": 2081,
      "uş": 2082,
      "gel": 2083,
      "ist": 2084,
      "esi ": 2085,
      "ları ": 2086,
      "inin ": 2087,
      "ya ": 2088,
      "oğ": 2089,
      "kar": 2090,
      "arak ": 2091,
      "mış": 2092,
      "ına ": 2093,
      "ıyor": 2094,
      "ver": 2095,
      "st": 2096,
      "lı ": 2097,
      "üş": 2098,
      "ün ": 2099,
      "ekt": 2100,
      "oy": 2101,
      "uy": 2102,
      "af": 2103,
      "iye ": 2104,
      "ü ": 2105,
      "bilir": 2106,
      "iler": 2107,
      "on ": 2108,
      "lar ": 2109,
      "um ": 2110,
      "son": 2111,
      "leri ": 2112,
      "ük": 2113,
      "aha ": 2114,
      "ile ": 2115,
      "lik": 2116,
      "kal": 2117,
      "kad": 2118,
      "ama ": 2119,
      "duğ": 2120,
      "değ": 2121,
      ". B": 2122,
      "tır": 2123,
      "eç": 2124,
      " t": 2125,
      "eler": 2126,
      "uz": 2127,
      "ip": 2128,
      "miş": 2129,
      "ic": 2130,
      "ma ": 2131,
      "am ": 2132,
      "dır": 2133,
      "izl": 2134,
      "ığı ": 2135,
      " g": 2136,
      "alar": 2137,
      "san": 2138,
      "üm": 2139,
      "ıy": 2140,
      "ız ": 2141,
      "tir": 2142,
      "ının ": 2143,
      "kit": 2144,
      " B": 2145,
      "ullan": 2146,
      "ından ": 2147,
      "di ": 2148,
      "ması ": 2149,
      "daha ": 2150,
      "ro": 2151,
      " h": 2152,
      "bul": 2153,
      "ibi ": 2154,
      "film ": 2155,
      "ce ": 2156,
      "iği ": 2157,
      "öy": 2158,
      "19": 2159,
      "öz": 2160,
      "iyi ": 2161,
      "- ": 2162,
      "uk": 2163,
      "i, ": 2164,
      "ih": 2165,
      "tar": 2166,
      "ta ": 2167,
      "güz": 2168,
      "kon": 2169,
      "ez": 2170,
      "ıc": 2171,
      "em ": 2172,
      "etm": 2173,
      "ler ": 2174,
      "len": 2175,
      "ör": 2176,
      "ark": 2177,
      "if": 2178,
      "op": 2179,
      "ların ": 2180,
      "ki ": 2181,
      "öl": 2182,
      "unu ": 2183,
      "çık": 2184,
      "üy": 2185,
      "man": 2186,
      "iz ": 2187,
      "et ": 2188,
      "dur": 2189,
      "ep": 2190,
      "eb": 2191,
      "olarak ": 2192,
      "kullan": 2193,
      "20": 2194,
      "ük ": 2195,
      "ef": 2196,
      "om": 2197,
      "art": 2198,
      "mak ": 2199,
      "alış": 2200,
      "ast": 2201,
      "lem": 2202,
      "sür": 2203,
      "aki ": 2204,
      "ter": 2205,
      " A": 2206,
      "inden ": 2207,
      "düş": 2208,
      "edil": 2209,
      "e, ": 2210,
      "kitap": 2211,
      " m": 2212,
      "uz ": 2213,
      "abilir": 2214,
      "a, ": 2215,
      "di": 2216,
      "ne ": 2217,
      "güzel ": 2218,
      "ot": 2219,
      "eki ": 2220,
      "ben": 2221,
      "yan": 2222,
      "ı, ": 2223,
      "eden ": 2224,
      "bel": 2225,
      "gibi ": 2226,
      "ett": 2227,
      "oc": 2228,
      "geç": 2229,
      "yaş": 2230,
      "os": 2231,
      "at ": 2232,
      "olduğ": 2233,
      "var": 2234,
      "ind": 2235,
      "may": 2236,
      "erk": 2237,
      "ası ": 2238,
      "ınd": 2239,
      "etk": 2240,
      "kend": 2241,
      "sonr": 2242,
      "isi ": 2243,
      "al ": 2244,
      "der": 2245,
      "mak": 2246,
      "likle ": 2247,
      "10": 2248,
      "ağl": 2249,
      "hay": 2250,
      "kur": 2251,
      "ir ": 2252,
      "kadar ": 2253,
      "o ": 2254,
      "önem": 2255,
      "yar": 2256,
      "şey": 2257,
      ". A": 2258,
      "çalış": 2259,
      "üt": 2260,
      "uğ": 2261,
      "siy": 2262,
      "az ": 2263,
      "gerç": 2264,
      "Tür": 2265,
      "ekl": 2266,
      "unc": 2267,
      "mes": 2268,
      "dı ": 2269,
      "olan ": 2270,
      "te ": 2271,
      " K": 2272,
      "ort": 2273,
      "ada ": 2274,
      "iyle ": 2275,
      "üzer": 2276,
      "mey": 2277,
      "yön": 2278,
      "doğ": 2279,
      "yaz": 2280,
      "mal": 2281,
      " bir ": 2282,
      "uyor": 2283,
      "ebilir": 2284,
      "lerin ": 2285,
      "diğ": 2286,
      "üç": 2287,
      "eder": 2288,
      "'n": 2289,
      "up": 2290,
      "abil": 2291,
      "gen": 2292,
      "muş": 2293,
      "uk ": 2294,
      "ans": 2295,
      "yer": 2296,
      "aya ": 2297,
      "est": 2298,
      "dı": 2299,
      "tür": 2300,
      "har": 2301,
      "ıyla ": 2302,
      "gil": 2303,
      "gerek": 2304,
      "ayn": 2305,
      "her ": 2306,
      "eli ": 2307,
      "tur": 2308,
      " S": 2309,
      "ekil": 2310,
      "sev": 2311,
      "unda ": 2312,
      "üm ": 2313,
      "sin": 2314,
      "alt": 2315,
      "asında ": 2316,
      "dığ": 2317,
      "sa ": 2318,
      "tan": 2319,
      "eni ": 2320,
      "sah": 2321,
      "lara ": 2322,
      "eh": 2323,
      ". Bu ": 2324,
      "sor": 2325,
      "düşün": 2326,
      "inc": 2327,
      "insan": 2328,
      "eceğ": 2329,
      "üc": 2330,
      "değil": 2331,
      "ıt": 2332,
      "karş": 2333,
      "ren": 2334,
      "büy": 2335,
      "aman": 2336,
      "bak": 2337,
      "ıp": 2338,
      "avs": 2339,
      "lu ": 2340,
      "par": 2341,
      "dım ": 2342,
      "sonra ": 2343,
      "me ": 2344,
      "ede ": 2345,
      "avsiye ": 2346,
      "mesi ": 2347,
      "oyunc": 2348,
      "ece ": 2349,
      "gün": 2350,
      "hal": 2351,
      "tem": 2352,
      "uyg": 2353,
      "fark": 2354,
      "den": 2355,
      "ise ": 2356,
      "alı ": 2357,
      "ecek ": 2358,
      "uc": 2359,
      "mek ": 2360,
      "bulun": 2361,
      "olay": 2362,
      "yapıl": 2363,
      "tan ": 2364,
      "üs": 2365,
      "belir": 2366,
      "imi ": 2367,
      " - ": 2368,
      "imiz": 2369,
      "dir": 2370,
      "akl": 2371,
      " M": 2372,
      "tr": 2373,
      "gi ": 2374,
      "öğ": 2375,
      "ilk ": 2376,
      "say": 2377,
      "filmi ": 2378,
      "unun ": 2379,
      "yol": 2380,
      "du ": 2381,
      " T": 2382,
      "ılar": 2383,
      "gr": 2384,
      "maya ": 2385,
      "ayr": 2386,
      "uç": 2387,
      "una ": 2388,
      "kat": 2389,
      "üyor": 2390,
      "tı ": 2391,
      "dev": 2392,
      "ster": 2393,
      " H": 2394,
      "ana ": 2395,
      "ken ": 2396,
      "sağl": 2397,
      "yon": 2398,
      "ser": 2399,
      "anlat": 2400,
      "larda ": 2401,
      "iyat": 2402,
      "kan": 2403,
      "cak ": 2404,
      "göre ": 2405,
      "bir film ": 2406,
      "üğ": 2407,
      "aman ": 2408,
      "mem": 2409,
      " D": 2410,
      "ley": 2411,
      "başl": 2412,
      "acak ": 2413,
      "hiç": 2414,
      "top": 2415,
      "dığı ": 2416,
      "edir": 2417,
      "oku": 2418,
      "acağ": 2419,
      "An": 2420,
      "ediğ": 2421,
      "oz": 2422,
      "çoc": 2423,
      "vey": 2424,
      "Türk": 2425,
      "ekten ": 2426,
      "var ": 2427,
      " E": 2428,
      "Bu ": 2429,
      "uh": 2430,
      "rah": 2431,
      "eye ": 2432,
      "oş": 2433,
      "lik ": 2434,
      "ellikle ": 2435,
      "siz": 2436,
      "yıl": 2437,
      "enin ": 2438,
      "göster": 2439,
      "kes": 2440,
      "zaman": 2441,
      "tavsiye ": 2442,
      "etkil": 2443,
      "bir kitap": 2444,
      "larını ": 2445,
      "asıl": 2446,
      "ıkl": 2447,
      "sun": 2448,
      "ısı ": 2449,
      "aştır": 2450,
      "lend": 2451,
      "man ": 2452,
      "şekil": 2453,
      "duy": 2454,
      "Al": 2455,
      "teş": 2456,
      "hast": 2457,
      "akt": 2458,
      "od": 2459,
      "ez ": 2460,
      "hayat": 2461,
      "veya ": 2462,
      "üp": 2463,
      ". K": 2464,
      "yüz": 2465,
      "i ve ": 2466,
      "faz": 2467,
      "res": 2468,
      "alan": 2469,
      "pro": 2470,
      "ebil": 2471,
      "öyle ": 2472,
      "mer": 2473,
      "sel ": 2474,
      "hak": 2475,
      "kap": 2476,
      " yıl": 2477,
      "lerini ": 2478,
      "se ": 2479,
      "lere ": 2480,
      "ediyor": 2481,
      "ant": 2482,
      "iki ": 2483,
      "ıcı ": 2484,
      " G": 2485,
      "eri ": 2486,
      "büyük ": 2487,
      "söy": 2488,
      "eden": 2489,
      "mıştır": 2490,
      "eg": 2491,
      ". S": 2492,
      "oluş": 2493,
      "bir k": 2494,
      "iniz": 2495,
      "ika ": 2496,
      "göz": 2497,
      "zaman ": 2498,
      "bağ": 2499,
      "dür": 2500,
      "usu ": 2501,
      "tad": 2502,
      "değiş": 2503,
      "eler ": 2504,
      "erek ": 2505,
      "ici ": 2506,
      "oj": 2507,
      " (": 2508,
      "bas": 2509,
      "üks": 2510,
      "kay": 2511,
      "miştir": 2512,
      "Fil": 2513,
      "acak": 2514,
      "İn": 2515,
      "oldu": 2516,
      "kor": 2517,
      ". H": 2518,
      "leş": 2519,
      "ig": 2520,
      " Y": 2521,
      "üst": 2522,
      "iyet": 2523,
      " yap": 2524,
      "edav": 2525,
      "ılı ": 2526,
      "son ": 2527,
      "bi ": 2528,
      "olma": 2529,
      "ındaki ": 2530,
      "öt": 2531,
      "idir": 2532,
      "başar": 2533,
      "ça ": 2534,
      "tı": 2535,
      "sen": 2536,
      "iler ": 2537,
      "düz": 2538,
      "18": 2539,
      "şekilde ": 2540,
      "azı ": 2541,
      "durum": 2542,
      "tek": 2543,
      "zor": 2544,
      "let": 2545,
      "böl": 2546,
      "sın": 2547,
      "olduğu ": 2548,
      "lık ": 2549,
      "dik": 2550,
      "sır": 2551,
      "ca ": 2552,
      "gir": 2553,
      "istem": 2554,
      "yon ": 2555,
      ". D": 2556,
      "00": 2557,
      "yer ": 2558,
      "kitab": 2559,
      "ımı ": 2560,
      "ard": 2561,
      "pr": 2562,
      "ka ": 2563,
      "malar": 2564,
      "kiş": 2565,
      "ılan ": 2566,
      "bile ": 2567,
      "edi ": 2568,
      "yet": 2569,
      "çek": 2570,
      "lendir": 2571,
      "ürün": 2572,
      "ımız": 2573,
      "ileri ": 2574,
      "taraf": 2575,
      "men ": 2576,
      "mut": 2577,
      "değer": 2578,
      "mekt": 2579,
      "izlem": 2580,
      "Ar": 2581,
      "kıs": 2582,
      " İ": 2583,
      "lerde ": 2584,
      "alın": 2585,
      "kür": 2586,
      "içer": 2587,
      "larının ": 2588,
      "met": 2589,
      "eleri ": 2590,
      "farklı ": 2591,
      " O": 2592,
      "yak": 2593,
      "and": 2594,
      "fazla ": 2595,
      "kalit": 2596,
      " P": 2597,
      "yal": 2598,
      "kaç": 2599,
      "adece ": 2600,
      "sık": 2601,
      "arasında ": 2602,
      "ip ": 2603,
      "oloj": 2604,
      "geliş": 2605,
      "tak": 2606,
      "avaş": 2607,
      "ime ": 2608,
      "ürün ": 2609,
      "önce ": 2610,
      "daki ": 2611,
      "lerinin ": 2612,
      "erkes": 2613,
      "deki ": 2614,
      " olarak ": 2615,
      "diği ": 2616,
      "işk": 2617,
      "uygul": 2618,
      "dön": 2619,
      "emm": 2620,
      "ten ": 2621,
      "iv": 2622,
      "tut": 2623,
      "han": 2624,
      "doğr": 2625,
      "inlikle ": 2626,
      "ayan ": 2627,
      "esinde ": 2628,
      "anın ": 2629,
      "dün": 2630,
      "liğ": 2631,
      "aj": 2632,
      "biz": 2633,
      "hat": 2634,
      "his": 2635,
      "ilgil": 2636,
      "önemli ": 2637,
      "edim ": 2638,
      "per": 2639,
      "ikay": 2640,
      "15": 2641,
      " n": 2642,
      "ub": 2643,
      "gün ": 2644,
      "ıdır": 2645,
      "ekkür": 2646,
      "etir": 2647,
      "anlam": 2648,
      "filmin ": 2649,
      "ıca ": 2650,
      "tadır": 2651,
      "tes": 2652,
      "ins": 2653,
      "ederim": 2654,
      "indeki ": 2655,
      "yay": 2656,
      "biraz ": 2657,
      "sey": 2658,
      "içinde ": 2659,
      "olduğunu ": 2660,
      "tek ": 2661,
      "for": 2662,
      "ag": 2663,
      "ent": 2664,
      "yüks": 2665,
      "gerçekten ": 2666,
      "dem": 2667,
      "aynı ": 2668,
      "u, ": 2669,
      "hem ": 2670,
      "ilen ": 2671,
      "duğu ": 2672,
      " gibi ": 2673,
      "olur": 2674,
      ". Y": 2675,
      "beğ": 2676,
      "onu ": 2677,
      "Çok ": 2678,
      "yok ": 2679,
      "okt": 2680,
      "çıkar": 2681,
      "anı ": 2682,
      "it ": 2683,
      ". E": 2684,
      "görün": 2685,
      ") ": 2686,
      "ben ": 2687,
      "taş": 2688,
      "neden": 2689,
      "sal": 2690,
      "larına ": 2691,
      "git": 2692,
      "diy": 2693,
      "..": 2694,
      "izley": 2695,
      "dil": 2696,
      "diğer ": 2697,
      "lardan ": 2698,
      "çev": 2699,
      "mi ": 2700,
      "lık": 2701,
      "yeni ": 2702,
      "lerden ": 2703,
      "cı ": 2704,
      "cid": 2705,
      "Öz": 2706,
      "masına ": 2707,
      "iyor ": 2708,
      "görül": 2709,
      "lerine ": 2710,
      "getir": 2711,
      "ber": 2712,
      "iş ": 2713,
      "ülk": 2714,
      "öğren": 2715,
      "tığı ": 2716,
      "üz ": 2717,
      "kadaş": 2718,
      "ünde ": 2719,
      "çocuk": 2720,
      " değ": 2721,
      "gid": 2722,
      "2 ": 2723,
      "dış": 2724,
      "güzel": 2725,
      "hep": 2726,
      "Türk ": 2727,
      "ancak ": 2728,
      "olmuş": 2729,
      " tar": 2730,
      "ran": 2731,
      "maktadır": 2732,
      "bur": 2733,
      "biri ": 2734,
      "İl": 2735,
      "dol": 2736,
      "ılma": 2737,
      "ide ": 2738,
      " yaş": 2739,
      "det": 2740,
      "i.": 2741,
      "bit": 2742,
      "birlik": 2743,
      " p": 2744,
      "topl": 2745,
      "tedav": 2746,
      "mat": 2747,
      "ortaya ": 2748,
      "uzun ": 2749,
      "İs": 2750,
      ". T": 2751,
      "en bir ": 2752,
      "üv": 2753,
      "eştir": 2754,
      "iyorum ": 2755,
      "ti ": 2756,
      "eser": 2757,
      " kad": 2758,
      ". G": 2759,
      "ılmış": 2760,
      "ara ": 2761,
      "s ": 2762,
      "ıf": 2763,
      "en, ": 2764,
      "Bir": 2765,
      "nasıl": 2766,
      ". M": 2767,
      "okun": 2768,
      "karşıl": 2769,
      ". O": 2770,
      "AR": 2771,
      "tüm ": 2772,
      "da": 2773,
      "izlen": 2774,
      "ı ve ": 2775,
      "hastal": 2776,
      "tarih": 2777,
      "ünk": 2778,
      "aat": 2779,
      "önc": 2780,
      "ıyor ": 2781,
      ": ": 2782,
      "köt": 2783,
      "las": 2784,
      "bol": 2785,
      "ilgili ": 2786,
      "; ": 2787,
      "liği ": 2788,
      "hız": 2789,
      "ulaş": 2790,
      "rahat": 2791,
      "elik ": 2792,
      "10 ": 2793,
      "belirt": 2794,
      "bır": 2795,
      "larında ": 2796,
      "Baş": 2797,
      "in, ": 2798,
      "med": 2799,
      "iden ": 2800,
      ". 19": 2801,
      "ER": 2802,
      "düğ": 2803,
      "kab": 2804,
      "lak": 2805,
      "her": 2806,
      "ınız": 2807,
      "ükemm": 2808,
      "fiyat": 2809,
      "1 ": 2810,
      "oyn": 2811,
      "bazı ": 2812,
      "meye ": 2813,
      "lerinden ": 2814,
      "neden ": 2815,
      "eyi ": 2816,
      "ov": 2817,
      "tığ": 2818,
      "tal": 2819,
      "ıyorum ": 2820,
      "arkadaş": 2821,
      "gay": 2822,
      "ımız ": 2823,
      "inci ": 2824,
      "bence ": 2825,
      "sadece ": 2826,
      "hakk": 2827,
      "ilişk": 2828,
      "dum ": 2829,
      "ele ": 2830,
      "seç": 2831,
      "og": 2832,
      "küç": 2833,
      "si ": 2834,
      "ecek": 2835,
      "bek": 2836,
      "dım": 2837,
      "arı ": 2838,
      "kom": 2839,
      "adan ": 2840,
      "yas": 2841,
      "rol": 2842,
      "lığ": 2843,
      "sahip": 2844,
      "ret": 2845,
      "başka ": 2846,
      "alan ": 2847,
      "üne ": 2848,
      "cok ": 2849,
      "14": 2850,
      "masını ": 2851,
      "sat": 2852,
      "3 ": 2853,
      "luğ": 2854,
      "devam ": 2855,
      "herkes": 2856,
      "diye ": 2857,
      " kullan": 2858,
      "nin ": 2859,
      "Er": 2860,
      "eme ": 2861,
      "nun ": 2862,
      "lerinde ": 2863,
      "ince ": 2864,
      "İst": 2865,
      "kendi ": 2866,
      "il ": 2867,
      "fak": 2868,
      "dönem": 2869,
      "16": 2870,
      "olabilir": 2871,
      "AN": 2872,
      "bun": 2873,
      "'nin ": 2874,
      "ya da ": 2875,
      "min ": 2876,
      "onun ": 2877,
      "olduk": 2878,
      "t ": 2879,
      "sik": 2880,
      " kal": 2881,
      "200": 2882,
      "tam ": 2883,
      "ilerin ": 2884,
      "esini ": 2885,
      "mektedir": 2886,
      "yen": 2887,
      "üzerine ": 2888,
      "çok güzel ": 2889,
      "an, ": 2890,
      "sız": 2891,
      "'da ": 2892,
      "ök": 2893,
      "17": 2894,
      "lat": 2895,
      "ade ": 2896,
      "mad": 2897,
      "ıda ": 2898,
      "asyon": 2899,
      "ular": 2900,
      "aklaş": 2901,
      "mayı ": 2902,
      "birlikte ": 2903,
      "aldım ": 2904,
      "Ür": 2905,
      "esine ": 2906,
      "mı ": 2907,
      "ılır": 2908,
      "laş": 2909,
      "duyg": 2910,
      "dim ": 2911,
      "müş": 2912,
      "tarafından ": 2913,
      "bir şey": 2914,
      "konuş": 2915,
      "açıkl": 2916,
      "12": 2917,
      "mak için ": 2918,
      "aten ": 2919,
      "ses": 2920,
      "özel": 2921,
      "inan": 2922,
      "vur": 2923,
      "anbul": 2924,
      "kr": 2925,
      "karşı ": 2926,
      "ütün ": 2927,
      "de": 2928,
      "muh": 2929,
      "itap": 2930,
      "veril": 2931,
      "sahn": 2932,
      "yr": 2933,
      "teşekkür": 2934,
      "Türkiye ": 2935,
      "harika ": 2936,
      "ary": 2937,
      "yok": 2938,
      "ul ": 2939,
      "of": 2940,
      "'de ": 2941,
      "rağ": 2942,
      "lah": 2943,
      "incel": 2944,
      "Kar": 2945,
      "lay": 2946,
      "isini ": 2947,
      "üven": 2948,
      "an bir ": 2949,
      "ması gerek": 2950,
      "amış": 2951,
      "), ": 2952,
      "özellikle ": 2953,
      "çe ": 2954,
      "ağr": 2955,
      "filmde ": 2956,
      "kesinlikle ": 2957,
      "kaz": 2958,
      "tama": 2959,
      "raf": 2960,
      "ediğim ": 2961,
      "aras": 2962,
      "alar ": 2963,
      "lü ": 2964,
      "amay": 2965,
      "gerçekl": 2966,
      "sız ": 2967,
      "elim": 2968,
      "hiss": 2969,
      "(d": 2970,
      "Amer": 2971,
      "okuy": 2972,
      "amak ": 2973,
      "sit": 2974,
      "lad": 2975,
      " son": 2976,
      "kır": 2977,
      "tab": 2978,
      "hur": 2979,
      "bu": 2980,
      "li": 2981,
      "ıp ": 2982,
      "13": 2983,
      "hem": 2984,
      "uygun ": 2985,
      "akter": 2986,
      "siyon": 2987,
      "çok iyi ": 2988,
      "dah": 2989,
      "ayı ": 2990,
      "haf": 2991,
      "düzen": 2992,
      "cih": 2993,
      "dığını ": 2994,
      " kar": 2995,
      "mükemm": 2996,
      "ayd": 2997,
      " C": 2998,
      "güç": 2999,
      " baş": 3000,
      "araştır": 3001,
      "pol": 3002,
      "hikay": 3003,
      "gön": 3004,
      "haz": 3005,
      "en iyi ": 3006,
      "ya": 3007,
      "0 ": 3008,
      "ob": 3009,
      "mış ": 3010,
      "kim": 3011,
      "larla ": 3012,
      "ıkları ": 3013,
      "tavsiye ederim": 3014,
      "pek ": 3015,
      "aları ": 3016,
      "aynak": 3017,
      "re ": 3018,
      "ağır": 3019,
      "doğru ": 3020,
      "anlı ": 3021,
      "lü": 3022,
      "tel": 3023,
      "ucu ": 3024,
      "aber": 3025,
      "tah": 3026,
      "bekl": 3027,
      "siyon ": 3028,
      "elik": 3029,
      "insan ": 3030,
      "sun ": 3031,
      "5 ": 3032,
      "rar ": 3033,
      "kan ": 3034,
      "suz ": 3035,
      "izi ": 3036,
      " aç": 3037,
      "örn": 3038,
      "manın ": 3039,
      "üzel ": 3040,
      "İstanbul": 3041,
      "yine ": 3042,
      "yüksek ": 3043,
      "trol": 3044,
      "başarılı ": 3045,
      "isinde ": 3046,
      "sp": 3047,
      ". An": 3048,
      "bey": 3049,
      "şeh": 3050,
      "madan ": 3051,
      "luk": 3052,
      "ye ": 3053,
      "iht": 3054,
      "laka ": 3055,
      "lerle ": 3056,
      "bilg": 3057,
      "böyle ": 3058,
      "ra ": 3059,
      "ris": 3060,
      "lar, ": 3061,
      "ti": 3062,
      "la": 3063,
      "ask": 3064,
      "da, ": 3065,
      "iğini ": 3066,
      "'nın ": 3067,
      "değerlendir": 3068,
      "tat": 3069,
      "day": 3070,
      "seb": 3071,
      "kayb": 3072,
      "dı.": 3073,
      ". Ç": 3074,
      "'ın ": 3075,
      "yapılan ": 3076,
      "kanı ": 3077,
      "din": 3078,
      "beb": 3079,
      " al": 3080,
      "eği ": 3081,
      "geldi ": 3082,
      "uma ": 3083,
      "öz ": 3084,
      "gelen ": 3085,
      "eket": 3086,
      "oyuncul": 3087,
      "mel": 3088,
      "bir şekilde ": 3089,
      "oldukça ": 3090,
      "dest": 3091,
      "ost": 3092,
      "sistem": 3093,
      "ail": 3094,
      "elde ": 3095,
      "led": 3096,
      "ıma ": 3097,
      "undan ": 3098,
      "sağ": 3099,
      "'in ": 3100,
      "kitabı ": 3101,
      " olan ": 3102,
      "başlad": 3103,
      "bah": 3104,
      " ile ": 3105,
      "mayan ": 3106,
      "bırak": 3107,
      "asar": 3108,
      "ınız ": 3109,
      ". İ": 3110,
      "te": 3111,
      "oluştur": 3112,
      "siniz": 3113,
      "imiz ": 3114,
      "benim ": 3115,
      " kadar ": 3116,
      "ann": 3117,
      "dav": 3118,
      "müz": 3119,
      "ler, ": 3120,
      "koy": 3121,
      "di.": 3122,
      "ilg": 3123,
      "ağı ": 3124,
      "üret": 3125,
      "eşit": 3126,
      "esi": 3127,
      "asl": 3128,
      "yöntem": 3129,
      "ünü ": 3130,
      "nın ": 3131,
      "le": 3132,
      "şu ": 3133,
      "amı ": 3134,
      "rağmen ": 3135,
      "Or": 3136,
      "a da ": 3137,
      "eyen ": 3138,
      "beğend": 3139,
      " F": 3140,
      "kurul": 3141,
      "rup": 3142,
      "ekli ": 3143,
      "eceği ": 3144,
      "sonuç": 3145,
      "üzerinde ": 3146,
      "itab": 3147,
      "he ": 3148,
      "dü": 3149,
      "zaten ": 3150,
      "usunda ": 3151,
      "umhur": 3152,
      "lüğ": 3153,
      "Amerik": 3154,
      "hav": 3155,
      "iye": 3156,
      "men": 3157,
      "re": 3158,
      "kullanıl": 3159,
      "ünkü ": 3160,
      "yat": 3161,
      "ünün ": 3162,
      "imde ": 3163,
      "ust": 3164,
      "eğit": 3165,
      " N": 3166,
      "çoğ": 3167,
      "sorun": 3168,
      "söz": 3169,
      "boy": 3170,
      "yaklaş": 3171,
      "işi ": 3172,
      "edilen ": 3173,
      "cil": 3174,
      "ederim ": 3175,
      "hazır": 3176,
      "II": 3177,
      "37": 3178,
      "luk ": 3179,
      "larından ": 3180,
      "Ak": 3181,
      "ing": 3182,
      "duk": 3183,
      " f": 3184,
      "ısından ": 3185,
      "bana ": 3186,
      "etmek ": 3187,
      "ima ": 3188,
      "mil": 3189,
      " kon": 3190,
      "düşünüyor": 3191,
      "u ve ": 3192,
      "olması ": 3193,
      "mek": 3194,
      "Kur": 3195,
      "sil": 3196,
      "AK": 3197,
      "mek için ": 3198,
      "elerin ": 3199,
      "görüş": 3200,
      "EN": 3201,
      "Av": 3202,
      "hoş": 3203,
      "kol": 3204,
      "kork": 3205,
      "miş ": 3206,
      "kız": 3207,
      "savaş": 3208,
      ". P": 3209,
      "görev": 3210,
      "aşır": 3211,
      "uv": 3212,
      "AB": 3213,
      "hızlı ": 3214,
      "mez": 3215,
      "alg": 3216,
      "mak ist": 3217,
      "gul": 3218,
      "cid:": 3219,
      "sunuz ": 3220,
      "kolay": 3221,
      "ay ": 3222,
      "mü": 3223,
      "benz": 3224,
      "hangi ": 3225,
      "iydi ": 3226,
      "bu kadar ": 3227,
      "kaliteli ": 3228,
      "süp": 3229,
      "test": 3230,
      "ence ": 3231,
      "erj": 3232,
      "esinin ": 3233,
      "güven": 3234,
      "iyorum": 3235,
      "oğl": 3236,
      "mükemmel ": 3237,
      "forman": 3238,
      "kul": 3239,
      "tık": 3240,
      " olduğ": 3241,
      "çöz": 3242,
      "eti ": 3243,
      "beklen": 3244,
      "çi ": 3245,
      "yi ": 3246,
      " Bu ": 3247,
      "bilin": 3248,
      "lük ": 3249,
      "anan ": 3250,
      "öner": 3251,
      "filme ": 3252,
      "sanız ": 3253,
      "is ": 3254,
      "gül": 3255,
      "landır": 3256,
      "erken ": 3257,
      "sam": 3258,
      "İN": 3259,
      "iver": 3260,
      "enf": 3261,
      "tekn": 3262,
      "geçir": 3263,
      "yrıca ": 3264,
      "arın ": 3265,
      ", s": 3266,
      "met ": 3267,
      "ımda ": 3268,
      "yarat": 3269,
      "ölüm": 3270,
      "cer": 3271,
      "tım ": 3272,
      "bütün ": 3273,
      "yorum": 3274,
      "(cid:": 3275,
      "gönder": 3276,
      "amp": 3277,
      "ne kadar ": 3278,
      "anda ": 3279,
      "i:": 3280,
      "ili ": 3281,
      "mada ": 3282,
      "  ": 3283,
      "yeter": 3284,
      "beni ": 3285,
      "konu": 3286,
      "199": 3287,
      " sah": 3288,
      "ölç": 3289,
      "tü": 3290,
      "imin ": 3291,
      "e ve ": 3292,
      "ani ": 3293,
      "küçük ": 3294,
      "gerekt": 3295,
      "performan": 3296,
      "birçok ": 3297,
      "gerek ": 3298,
      " bul": 3299,
      "hed": 3300,
      "dığım ": 3301,
      " V": 3302,
      "hakkında ": 3303,
      "ak, ": 3304,
      "isinin ": 3305,
      "ıları ": 3306,
      "oldu ": 3307,
      "anal": 3308,
      "anlaş": 3309,
      " diye ": 3310,
      "karakter": 3311,
      "lam": 3312,
      "has": 3313,
      "uf": 3314,
      "ize ": 3315,
      "ner": 3316,
      "erkez": 3317,
      "iniz ": 3318,
      "yür": 3319,
      "değil ": 3320,
      "kontrol": 3321,
      "kem": 3322,
      "ir.": 3323,
      "4 ": 3324,
      "ümüz": 3325,
      "iğer ": 3326,
      "eng": 3327,
      "öğrenc": 3328,
      "kazan": 3329,
      "de, ": 3330,
      "uyla ": 3331,
      "kı ": 3332,
      "ibar": 3333,
      "Fr": 3334,
      "198": 3335,
      "adı ": 3336,
      "anlar ": 3337,
      "ud": 3338,
      "ılık ": 3339,
      "boz": 3340,
      "ch": 3341,
      "aba ": 3342,
      " kur": 3343,
      "plan": 3344,
      "kısa ": 3345,
      " mil": 3346,
      " ver": 3347,
      "sef": 3348,
      "siz ": 3349,
      "bölüm": 3350,
      "dül": 3351,
      "Film ": 3352,
      "bunu ": 3353,
      "şim": 3354,
      "avr": 3355,
      "ilik ": 3356,
      "li bir ": 3357,
      "güzel bir ": 3358,
      "olojik ": 3359,
      "org": 3360,
      "kas": 3361,
      "bölg": 3362,
      "artık ": 3363,
      "üzere ": 3364,
      "mutlaka ": 3365,
      "Os": 3366,
      "etkiley": 3367,
      ". N": 3368,
      "okul": 3369,
      "maz": 3370,
      "iddet": 3371,
      "asyon ": 3372,
      "sar": 3373,
      "olmas": 3374,
      "bar": 3375,
      "vet": 3376,
      "ortaya çık": 3377,
      "Ger": 3378,
      "ıç": 3379,
      "siyas": 3380,
      "ark ": 3381,
      "yönetm": 3382,
      "lanan ": 3383,
      "otur": 3384,
      " daha ": 3385,
      "br": 3386,
      "İngil": 3387,
      "oğlu ": 3388,
      "yağ": 3389,
      "hemen ": 3390,
      "gayet": 3391,
      "ıya ": 3392,
      "Ürün ": 3393,
      "uğr": 3394,
      "leştir": 3395,
      "tedavi ": 3396,
      "roman": 3397,
      "alık ": 3398,
      "su ": 3399,
      "ları": 3400,
      "isine ": 3401,
      "eğlen": 3402,
      "utbol": 3403,
      "hey": 3404,
      "ızı ": 3405,
      "senary": 3406,
      " ki ": 3407,
      "emek ": 3408,
      "Cumhur": 3409,
      "kadar": 3410,
      "8 ": 3411,
      "leri": 3412,
      "ültür": 3413,
      "rak": 3414,
      "elime ": 3415,
      " taraf": 3416,
      "orm": 3417,
      " yılında ": 3418,
      "dolay": 3419,
      "meden ": 3420,
      "dan": 3421,
      "üf": 3422,
      "iversit": 3423,
      "eski ": 3424,
      "ıklı ": 3425,
      "ihtiy": 3426,
      "yardım": 3427,
      "sol": 3428,
      "İç": 3429,
      "(ö": 3430,
      "Gen": 3431,
      "tekrar ": 3432,
      "İR": 3433,
      "umu ": 3434,
      "11": 3435,
      "Kat": 3436,
      "ları, ": 3437,
      "sel": 3438,
      "anlık ": 3439,
      "boş": 3440,
      "oh": 3441,
      "bağlı ": 3442,
      "olsa ": 3443,
      " yön": 3444,
      "30": 3445,
      "atı ": 3446,
      "MA": 3447,
      "ünden ": 3448,
      "hareket": 3449,
      "açısından ": 3450,
      "ın, ": 3451,
      "Türkiye": 3452,
      "çeşit": 3453,
      "eyif": 3454,
      "çiz": 3455,
      "konusu ": 3456,
      "altında ": 3457,
      "tim ": 3458,
      "IN": 3459,
      "Gün": 3460,
      "aların ": 3461,
      "öyl": 3462,
      "aktör": 3463,
      "birbir": 3464,
      "enler ": 3465,
      "gu ": 3466,
      "sos": 3467,
      "lığı ": 3468,
      "gib": 3469,
      "25": 3470,
      "beğen": 3471,
      "bulunan ": 3472,
      "o kadar ": 3473,
      "(d. 19": 3474,
      "Bel": 3475,
      "gerçek ": 3476,
      "Bak": 3477,
      "hayal": 3478,
      "işl": 3479,
      "bay": 3480,
      "karg": 3481,
      "işlem": 3482,
      "izler": 3483,
      "baz": 3484,
      "vüc": 3485,
      "yönet": 3486,
      "sab": 3487,
      " say": 3488,
      "ona ": 3489,
      "vardır": 3490,
      "ayrıca ": 3491,
      "ikleri ": 3492,
      "birey": 3493,
      ". F": 3494,
      "inal": 3495,
      "kabul ": 3496,
      "anlay": 3497,
      "acı ": 3498,
      "4)": 3499,
      "bes": 3500,
      "ide": 3501,
      "6 ": 3502,
      "lar ve ": 3503,
      "ında, ": 3504,
      "yaln": 3505,
      "indir": 3506,
      "süre ": 3507,
      "öğr": 3508,
      "katıl": 3509,
      "saç": 3510,
      "mu": 3511,
      "onom": 3512,
      " Ç": 3513,
      "aslında ": 3514,
      "Ay": 3515,
      " bu ": 3516,
      "ünü": 3517,
      " R": 3518,
      "Ama ": 3519,
      "düny": 3520,
      "sürec": 3521,
      "zamanda ": 3522,
      "esinlikle ": 3523,
      "uygulan": 3524,
      "oğraf": 3525,
      "sine": 3526,
      "uştur": 3527,
      "eceğini ": 3528,
      "leri, ": 3529,
      "yer al": 3530,
      " olduğu ": 3531,
      "ılması ": 3532,
      ". Ö": 3533,
      "gür": 3534,
      "pat": 3535,
      "Amerikalı ": 3536,
      " değil": 3537,
      "eser ": 3538,
      "kans": 3539,
      "daha iyi ": 3540,
      " yaz": 3541,
      "genellikle ": 3542,
      "ardından ": 3543,
      "cev": 3544,
      "amaz": 3545,
      "bir film": 3546,
      "yani ": 3547,
      "mam": 3548,
      "ığını ": 3549,
      "özellik": 3550,
      "abilecek ": 3551,
      "Kon": 3552,
      "ılmaz ": 3553,
      "konu ": 3554,
      "lardır": 3555,
      "ikinci ": 3556,
      "teşem ": 3557,
      "zar": 3558,
      "ill": 3559,
      "dık": 3560,
      "lama ": 3561,
      "laz": 3562,
      "Bir ": 3563,
      "ayat": 3564,
      "performans": 3565,
      "an ve ": 3566,
      "çar": 3567,
      "mar": 3568,
      "7 ": 3569,
      "tercih": 3570,
      "mesine ": 3571,
      "kat ": 3572,
      "ler ve ": 3573,
      "kıy": 3574,
      "mıyor": 3575,
      "Kal": 3576,
      "eleştir": 3577,
      "mev": 3578,
      "gerçekleştir": 3579,
      "mesini ": 3580,
      "acağı ": 3581,
      "genel ": 3582,
      " sür": 3583,
      "ere ": 3584,
      "âl": 3585,
      "ığın ": 3586,
      " v": 3587,
      "parç": 3588,
      "Ol": 3589,
      "ifade ": 3590,
      "çocuğ": 3591,
      "sağlık ": 3592,
      "açık": 3593,
      "aber ": 3594,
      "Özellikle ": 3595,
      "leme ": 3596,
      "int": 3597,
      " ama ": 3598,
      "şiddet": 3599,
      "yerine ": 3600,
      "nedeniyle ": 3601,
      "Dev": 3602,
      "ogr": 3603,
      "acağını ": 3604,
      "lul": 3605,
      "kil": 3606,
      "olan": 3607,
      "tük": 3608,
      "oluyor": 3609,
      "egor": 3610,
      "cin": 3611,
      "sem": 3612,
      "çekil": 3613,
      "ht": 3614,
      "ettiğ": 3615,
      "yaşad": 3616,
      "197": 3617,
      "nun": 3618,
      "Har": 3619,
      "geri ": 3620,
      "l-": 3621,
      "itibar": 3622,
      "(cid:37": 3623,
      "min": 3624,
      "kaynak": 3625,
      "ema ": 3626,
      "ılar ": 3627,
      "göz ": 3628,
      "alarda ": 3629,
      "bab": 3630,
      "isi": 3631,
      "ettiği ": 3632,
      "masının ": 3633,
      "olum": 3634,
      "İş": 3635,
      "can": 3636,
      " dur": 3637,
      "İlk ": 3638,
      " geç": 3639,
      "irk": 3640,
      "dönüş": 3641,
      " güzel ": 3642,
      "kendini ": 3643,
      " hal": 3644,
      "kötü ": 3645,
      "om ": 3646,
      "İL": 3647,
      "almış": 3648,
      "ek, ": 3649,
      "Doğ": 3650,
      "tu": 3651,
      "oyuncu": 3652,
      "fayd": 3653,
      "bilgi ": 3654,
      "Frans": 3655,
      " An": 3656,
      "asına ": 3657,
      "amac": 3658,
      "geçen ": 3659,
      "fır": 3660,
      "ilere ": 3661,
      "muştur": 3662,
      "kah": 3663,
      "unut": 3664,
      "abilir.": 3665,
      "ediği ": 3666,
      "genç": 3667,
      "24": 3668,
      "iştir": 3669,
      "amaç": 3670,
      "tan sonra ": 3671,
      "İz": 3672,
      "elerini ": 3673,
      "adam": 3674,
      "âr": 3675,
      "fr": 3676,
      " sev": 3677,
      "leriyle ": 3678,
      "özel ": 3679,
      "oktor": 3680,
      "yaptığı ": 3681,
      " tarih": 3682,
      "ışı ": 3683,
      "net": 3684,
      "arası ": 3685,
      " ş": 3686,
      "sav": 3687,
      "tesp": 3688,
      "sınır": 3689,
      "EL": 3690,
      "sak": 3691,
      "ınt": 3692,
      "azet": 3693,
      "ik ve ": 3694,
      "du.": 3695,
      ". Bir": 3696,
      "mesi gerek": 3697,
      "En": 3698,
      "oyunca ": 3699,
      "ormal": 3700,
      "eks": 3701,
      "kl": 3702,
      "asını ": 3703,
      "hes": 3704,
      "aret": 3705,
      "def": 3706,
      "Ben ": 3707,
      "nit": 3708,
      "dar": 3709,
      "27": 3710,
      "söyl": 3711,
      " da ": 3712,
      "hem de ": 3713,
      ". Ancak ": 3714,
      "progr": 3715,
      "nokt": 3716,
      "lemek ": 3717,
      "Ad": 3718,
      "mik": 3719,
      "imizi ": 3720,
      "ümk": 3721,
      " kend": 3722,
      " de ": 3723,
      " gün ": 3724,
      "lama": 3725,
      "maz ": 3726,
      "maları ": 3727,
      " Ar": 3728,
      "21": 3729,
      "ilaç": 3730,
      "ilmiş": 3731,
      "ij": 3732,
      "acaktır": 3733,
      "süper ": 3734,
      "tavsiye ederim ": 3735,
      "hatır": 3736,
      "elere ": 3737,
      "ayrı ": 3738,
      "Her ": 3739,
      "50": 3740,
      "inizi ": 3741,
      "değiştir": 3742,
      "kop": 3743,
      "geliştir": 3744,
      "saat": 3745,
      "ân": 3746,
      "dum": 3747,
      "söyley": 3748,
      "geril": 3749,
      "fark ": 3750,
      "celi ": 3751,
      " bin ": 3752,
      "izledim ": 3753,
      "El": 3754,
      "lı bir ": 3755,
      "iir": 3756,
      "fakat ": 3757,
      "enfek": 3758,
      "AL": 3759,
      "a ve ": 3760,
      "mah": 3761,
      "yol aç": 3762,
      "en ve ": 3763,
      "ke ": 3764,
      "ısında ": 3765,
      "amer": 3766,
      "grup": 3767,
      "tamam": 3768,
      "Ün": 3769,
      " Baş": 3770,
      "Çoc": 3771,
      "ekonom": 3772,
      "hiz": 3773,
      "196": 3774,
      "mod": 3775,
      "ı.": 3776,
      "if ": 3777,
      "yoğ": 3778,
      "sur": 3779,
      "ettir": 3780,
      "ten sonra ": 3781,
      "ane ": 3782,
      "9 ": 3783,
      "ii ": 3784,
      "andır": 3785,
      "alık": 3786,
      "suç": 3787,
      "miyor": 3788,
      "eyin ": 3789,
      "dr": 3790,
      " tarafından ": 3791,
      "Tar": 3792,
      "gelir": 3793,
      "Rus": 3794,
      "mek ist": 3795,
      "yum": 3796,
      "bu film ": 3797,
      "ecekt": 3798,
      "aket": 3799,
      "söz ": 3800,
      "iyet ": 3801,
      "insanın ": 3802,
      "bunun ": 3803,
      " bel": 3804,
      "dağ": 3805,
      "keyif": 3806,
      "iksel ": 3807,
      "okum": 3808,
      "mak üzere ": 3809,
      "bat": 3810,
      "ücad": 3811,
      "dikkat": 3812,
      "ımın ": 3813,
      "Uz": 3814,
      "ine": 3815,
      "Ab": 3816,
      "çocuk ": 3817,
      "fik": 3818,
      "mümk": 3819,
      "ayet": 3820,
      "eşekkür": 3821,
      "ört": 3822,
      "kaf": 3823,
      "toplum": 3824,
      "ılmıştır": 3825,
      "dışında ": 3826,
      "sonunda ": 3827,
      "vak": 3828,
      "belki ": 3829,
      "yönelik ": 3830,
      "piş": 3831,
      "seyr": 3832,
      "idir.": 3833,
      "ması gereken ": 3834,
      "y ": 3835,
      "ılarak ": 3836,
      "ene ": 3837,
      "iyas": 3838,
      "duğum ": 3839,
      "aat ": 3840,
      "cez": 3841,
      "OR": 3842,
      "EK": 3843,
      "zer": 3844,
      "olu ": 3845,
      "enim ": 3846,
      "fiz": 3847,
      ". V": 3848,
      "karar": 3849,
      "uyu ": 3850,
      "maya çalış": 3851,
      "ik bir ": 3852,
      " düş": 3853,
      "22": 3854,
      "As": 3855,
      "memnun": 3856,
      "fa": 3857,
      "artır": 3858,
      "birkaç": 3859,
      "ebilir.": 3860,
      "resim": 3861,
      "’in ": 3862,
      "çünkü ": 3863,
      "’ın ": 3864,
      "üküm": 3865,
      "içerisinde ": 3866,
      "sürük": 3867,
      "çeşitli ": 3868,
      "ıv": 3869,
      "fakat": 3870,
      "prob": 3871,
      "ış ": 3872,
      "sap": 3873,
      "sebep": 3874,
      "ar ver": 3875,
      "Son": 3876,
      "sık ": 3877,
      "ıdan ": 3878,
      "Avrup": 3879,
      " düz": 3880,
      "arasındaki ": 3881,
      "tep": 3882,
      "3)": 3883,
      "prima ": 3884,
      "Ro": 3885,
      ". Ar": 3886,
      "belirlen": 3887,
      "inç": 3888,
      "şah": 3889,
      "açık ": 3890,
      "ri": 3891,
      "enler": 3892,
      "psik": 3893,
      "meyi ": 3894,
      "gayet ": 3895,
      "pu": 3896,
      "etmiş": 3897,
      "bin": 3898,
      "konusunda ": 3899,
      "akk": 3900,
      "eyse ": 3901,
      "bağl": 3902,
      "müt": 3903,
      "memnun ": 3904,
      "diğini ": 3905,
      "’l-": 3906,
      " hast": 3907,
      "dikkat ": 3908,
      "AT": 3909,
      "isim": 3910,
      "kötü": 3911,
      "üzerinden ": 3912,
      "işe ": 3913,
      "uğu ": 3914,
      "pay": 3915,
      "im ve ": 3916,
      " sor": 3917,
      "ırım ": 3918,
      "sonuc": 3919,
      " diy": 3920,
      "elerde ": 3921,
      "hiçbir ": 3922,
      "hastalık": 3923,
      "kadın": 3924,
      "ette ": 3925,
      "inde, ": 3926,
      "Ön": 3927,
      "ilerini ": 3928,
      "aksiyon ": 3929,
      "yan ": 3930,
      "her şey": 3931,
      "bu filmi ": 3932,
      "yüzde ": 3933,
      "ipar": 3934,
      "ell": 3935,
      "i?": 3936,
      "urada ": 3937,
      "kö": 3938,
      "teşekkürler": 3939,
      "insanların ": 3940,
      "çalışma ": 3941,
      "yeniden ": 3942,
      "sanat": 3943,
      " olma": 3944,
      "eyle ": 3945,
      " san": 3946,
      "durum ": 3947,
      "yazar": 3948,
      "olsun ": 3949,
      "biç": 3950,
      "ran ": 3951,
      "bir ürün ": 3952,
      "ilir": 3953,
      "tarz": 3954,
      "leri ve ": 3955,
      "büyük bir ": 3956,
      "Hal": 3957,
      "fel": 3958,
      "öldür": 3959,
      "farkl": 3960,
      "malıdır": 3961,
      "miştir.": 3962,
      "eğin ": 3963,
      "elerinin ": 3964,
      "kim ": 3965,
      "düşünc": 3966,
      "öyk": 3967,
      "evr": 3968,
      "İY": 3969,
      "yanın ": 3970,
      "ma, ": 3971,
      "ınca ": 3972,
      " L": 3973,
      "kok": 3974,
      "gec": 3975,
      "incelen": 3976,
      "futbol": 3977,
      "haber": 3978,
      "sıc": 3979,
      "sin ": 3980,
      "ifad": 3981,
      " kitap": 3982,
      "mez ": 3983,
      "ediyorum ": 3984,
      "muhteşem ": 3985,
      "Osm": 3986,
      "rar": 3987,
      "anlar": 3988,
      "ciddi ": 3989,
      " ded": 3990,
      "Eğ": 3991,
      " yer": 3992,
      "tık ": 3993,
      "ıların ": 3994,
      "yakın ": 3995,
      "ünc": 3996,
      "şehir": 3997,
      "aması ": 3998,
      "uyar": 3999,
      " olduğunu ": 4000,
      "ıyı ": 4001,
      "etkili ": 4002,
      "para ": 4003,
      "ABD": 4004,
      ".\"": 4005,
      " saat": 4006,
      "i ile ": 4007,
      "lar için ": 4008,
      "meyen ": 4009,
      "malar ": 4010,
      "yardımcı ": 4011,
      "öneml": 4012,
      " der": 4013,
      "ünkü": 4014,
      "yans": 4015,
      "hatta ": 4016,
      "'a ": 4017,
      "deş": 4018,
      "kaldır": 4019,
      "telef": 4020,
      "izin ": 4021,
      ". Ş": 4022,
      "çevr": 4023,
      "Dün": 4024,
      "masında ": 4025,
      "emiş": 4026,
      "malı ": 4027,
      "davran": 4028,
      "oz ": 4029,
      "gın ": 4030,
      "tik ": 4031,
      "ulan ": 4032,
      "yaşam ": 4033,
      "hüc": 4034,
      "siniz ": 4035,
      "kanl": 4036,
      "ank": 4037,
      "ektör": 4038,
      "ce": 4039,
      "rat": 4040,
      "dolayı ": 4041,
      "kelim": 4042,
      "adet": 4043,
      "Filmin ": 4044,
      " kitab": 4045,
      "Mer": 4046,
      "Ah": 4047,
      " için ": 4048,
      "na ": 4049,
      "tasar": 4050,
      " ser": 4051,
      "mark": 4052,
      "çok sev": 4053,
      "yanl": 4054,
      "ilmesi ": 4055,
      "ge ": 4056,
      "Kr": 4057,
      "vat": 4058,
      "tav": 4059,
      "Allah": 4060,
      "ediyorum": 4061,
      "zev": 4062,
      "değer ": 4063,
      " in ": 4064,
      " den": 4065,
      "gar": 4066,
      "oyuncu ": 4067,
      "şark": 4068,
      "herkese ": 4069,
      "kut": 4070,
      "elekt": 4071,
      "etr": 4072,
      "etti ": 4073,
      "gerçek": 4074,
      "ruh": 4075,
      "olar": 4076,
      "otoğraf": 4077,
      "Yaz": 4078,
      "ve": 4079,
      "ci ": 4080,
      "geliyor": 4081,
      " kap": 4082,
      "dam": 4083,
      "ograf": 4084,
      "öğret": 4085,
      "beğendim ": 4086,
      "onk": 4087,
      "Pro": 4088,
      "lak ": 4089,
      "tart": 4090,
      " har": 4091,
      "cu": 4092,
      "yaşan": 4093,
      "Kategor": 4094,
      "arken ": 4095,
      "üb": 4096,
      "merak ": 4097,
      "23": 4098,
      "ow": 4099,
      "ayır": 4100,
      "iyat ": 4101,
      "ken": 4102,
      "endir": 4103,
      "kez ": 4104,
      "oks": 4105,
      "heyec": 4106,
      "akıl": 4107,
      "değişik": 4108,
      "koş": 4109,
      "atıl": 4110,
      "iddi": 4111,
      "ları ve ": 4112,
      "a'": 4113,
      "mis": 4114,
      "bez": 4115,
      "lis": 4116,
      "edik": 4117,
      "ıyorum": 4118,
      "düzey": 4119,
      "Bil": 4120,
      "sak ": 4121,
      " kiş": 4122,
      "iliğ": 4123,
      "lanmış": 4124,
      "üdür": 4125,
      "Kategori:": 4126,
      "air": 4127,
      "ması, ": 4128,
      "engel": 4129,
      "nef": 4130,
      "olup": 4131,
      "adım ": 4132,
      "biy": 4133,
      "ısını ": 4134,
      "lu": 4135,
      " kay": 4136,
      "okur": 4137,
      "eğlenceli ": 4138,
      "por": 4139,
      "yl": 4140,
      "sürekli ": 4141,
      "- B": 4142,
      "Uy": 4143,
      "maç": 4144,
      "çevir": 4145,
      "ebilirim ": 4146,
      "adır": 4147,
      "lim ": 4148,
      "ET": 4149,
      "alet": 4150,
      "diğim ": 4151,
      " Ş": 4152,
      "tanım": 4153,
      "kıl": 4154,
      "tespit ": 4155,
      " gr": 4156,
      "vardı ": 4157,
      "adam ": 4158,
      "önemli bir ": 4159,
      ". C": 4160,
      "ebilecek ": 4161,
      "1)": 4162,
      ".”": 4163,
      "altına ": 4164,
      "En ": 4165,
      "sib": 4166,
      "ımc": 4167,
      "üyük ": 4168,
      "karış": 4169,
      "dık ": 4170,
      "kültür": 4171,
      "Ser": 4172,
      "a’": 4173,
      "yalnız": 4174,
      "0.": 4175,
      "urt": 4176,
      "ı'n": 4177,
      "spor": 4178,
      "ait": 4179,
      "Ok": 4180,
      "azal": 4181,
      "cut": 4182,
      "deney": 4183,
      "fer": 4184,
      " yüz": 4185,
      "yapıt": 4186,
      "hiç ": 4187,
      "(ö. ": 4188,
      "larıyla ": 4189,
      "en çok ": 4190,
      "kus": 4191,
      "herhangi ": 4192,
      "saldır": 4193,
      "muyor": 4194,
      "Mar": 4195,
      "diz": 4196,
      "mücad": 4197,
      "adlı ": 4198,
      "ina ": 4199,
      "sinema ": 4200,
      "beri ": 4201,
      "devlet": 4202,
      "tercih ": 4203,
      "malı": 4204,
      "emey": 4205,
      "dayan": 4206,
      " kıs": 4207,
      "lar b": 4208,
      "AY": 4209,
      "akıcı ": 4210,
      "öğretm": 4211,
      "kent": 4212,
      "ilerinin ": 4213,
      "ia ": 4214,
      "ri ": 4215,
      "ice ": 4216,
      "ında": 4217,
      "dana ": 4218,
      "tiğ": 4219,
      "aret ": 4220,
      "imizin ": 4221,
      "Üniversit": 4222,
      "Tr": 4223,
      "anların ": 4224,
      "faktör": 4225,
      "luğu ": 4226,
      "içine ": 4227,
      "İM": 4228,
      "ortal": 4229,
      "amaya ": 4230,
      "gu": 4231,
      "kullanılan ": 4232,
      "Ne ": 4233,
      "için": 4234,
      "asla ": 4235,
      "abiliyor": 4236,
      "izlediğim ": 4237,
      "LAR": 4238,
      "eksik": 4239,
      "ta": 4240,
      "uzey": 4241,
      "bet": 4242,
      "en büyük ": 4243,
      "dim": 4244,
      "pan": 4245,
      "ES": 4246,
      " kalit": 4247,
      "mo": 4248,
      "Es": 4249,
      "etik ": 4250,
      "amak": 4251,
      "güt": 4252,
      "AS": 4253,
      "hedef": 4254,
      "aktar": 4255,
      "seyir": 4256,
      "a çık": 4257,
      "ku ": 4258,
      "yanı ": 4259,
      " olur": 4260,
      "insanı ": 4261,
      "bilim": 4262,
      "EM": 4263,
      "arada ": 4264,
      "ön ": 4265,
      "öv": 4266,
      "utlu ": 4267,
      "iyil": 4268,
      "teh": 4269,
      "olmayan ": 4270,
      "in ve ": 4271,
      "larımız": 4272,
      "dir ": 4273,
      "esn": 4274,
      "tartış": 4275,
      "aban": 4276,
      "UN": 4277,
      "yanında ": 4278,
      " c": 4279,
      "İnsan": 4280,
      "çarp": 4281,
      "yık": 4282,
      "oran": 4283,
      "ve bu ": 4284,
      "lenen ": 4285,
      "bilgil": 4286,
      "ilç": 4287,
      "imden ": 4288,
      "teşekkür ": 4289,
      "vaz": 4290,
      "başlan": 4291,
      "Br": 4292,
      "leyici ": 4293,
      "paylaş": 4294,
      "hafif": 4295,
      "irt": 4296,
      "asının ": 4297,
      "daha fazla ": 4298,
      "tul": 4299,
      "kalp": 4300,
      "40": 4301,
      "suz": 4302,
      "tamamen ": 4303,
      "şiir": 4304,
      "geçmiş": 4305,
      "arac": 4306,
      "ırken ": 4307,
      "amadım ": 4308,
      "ham": 4309,
      "ilerine ": 4310,
      "ışlı ": 4311,
      "Hast": 4312,
      "doktor": 4313,
      "san ": 4314,
      ", Amerikalı ": 4315,
      "âh": 4316,
      "Daha ": 4317,
      "\" ": 4318,
      "Gör": 4319,
      "ına göre ": 4320,
      "ayak": 4321,
      "sosyal": 4322,
      "yaklaşık ": 4323,
      "giriş": 4324,
      "bahs": 4325,
      "alarında ": 4326,
      "ması": 4327,
      "ıydı ": 4328,
      "HP": 4329,
      "temel ": 4330,
      "guz": 4331,
      "karşılaş": 4332,
      "ali ": 4333,
      "edilir": 4334,
      "dep": 4335,
      "etti": 4336,
      "kavr": 4337,
      "Mah": 4338,
      "sırasında ": 4339,
      "'un ": 4340,
      "çoğu ": 4341,
      "dolu ": 4342,
      "tik": 4343,
      "esinden ": 4344,
      "edd": 4345,
      "28": 4346,
      "imize ": 4347,
      "iyi bir ": 4348,
      "derece ": 4349,
      "enerj": 4350,
      "kadın ": 4351,
      "bakış": 4352,
      "varsa ": 4353,
      "part": 4354,
      "tı.": 4355,
      "başvur": 4356,
      "araç": 4357,
      "esi, ": 4358,
      "sizl": 4359,
      "kara ": 4360,
      "bitir": 4361,
      "beklent": 4362,
      "ki": 4363,
      "'e ": 4364,
      "küçük": 4365,
      "Kad": 4366,
      " dak": 4367,
      "Kitap": 4368,
      "lant": 4369,
      "nı ": 4370,
      "elikle ": 4371,
      "Gerç": 4372,
      " Al": 4373,
      "es ": 4374,
      "’nin ": 4375,
      "Ev": 4376,
      "yarg": 4377,
      "taki ": 4378,
      "Em": 4379,
      "irüs": 4380,
      "ziy": 4381,
      "çalışmalar": 4382,
      "meydana ": 4383,
      "kardeş": 4384,
      "emin ": 4385,
      "sok": 4386,
      "kapsam": 4387,
      "düşük ": 4388,
      " kır": 4389,
      "örnek": 4390,
      "sınız ": 4391,
      "Film": 4392,
      "bize ": 4393,
      "nasıl ": 4394,
      "el-": 4395,
      "Dem": 4396,
      "ettim ": 4397,
      "şekl": 4398,
      "cerrah": 4399,
      "şimdi ": 4400,
      "amel": 4401,
      "mayın ": 4402,
      "basit": 4403,
      " milyon ": 4404,
      "uda ": 4405,
      "duygus": 4406,
      "umuz ": 4407,
      "yüksel": 4408,
      ", M": 4409,
      "esiyle ": 4410,
      "çab": 4411,
      "şık ": 4412,
      "ew": 4413,
      "avsiye ederim": 4414,
      "5)": 4415,
      "Yön": 4416,
      "çok": 4417,
      "ich": 4418,
      "esi ve ": 4419,
      "dak": 4420,
      "Bey": 4421,
      ". Bun": 4422,
      " olması ": 4423,
      "öm": 4424,
      "sınıf": 4425,
      "San": 4426,
      "adaki ": 4427,
      "emi ": 4428,
      "mesaj": 4429,
      "uvvet": 4430,
      "eceğim ": 4431,
      "program": 4432,
      "sal ": 4433,
      "yaşam": 4434,
      "ül ": 4435,
      "merkez": 4436,
      "normal": 4437,
      "daha çok ": 4438,
      "dünya ": 4439,
      "mağ": 4440,
      "verdiği ": 4441,
      "de bu ": 4442,
      "enek": 4443,
      " sır": 4444,
      "ılığ": 4445,
      "Sor": 4446,
      "ilişkin ": 4447,
      "klas": 4448,
      "müth": 4449,
      "tu ": 4450,
      " kat": 4451,
      "kaçır": 4452,
      "itir": 4453,
      "keş": 4454,
      "tüket": 4455,
      "sonucu ": 4456,
      "tar ": 4457,
      "mevcut": 4458,
      "Ağ": 4459,
      "verilen ": 4460,
      "süreç": 4461,
      " sahn": 4462,
      "götür": 4463,
      "mümkün ": 4464,
      "ılık": 4465,
      "yayın": 4466,
      "(d. ": 4467,
      "laştır": 4468,
      "yüzyıl": 4469,
      "mutlu ": 4470,
      "anlatan ": 4471,
      "etkileyici ": 4472,
      "Güzel ": 4473,
      "memnun kal": 4474,
      "seviy": 4475,
      "hak ": 4476,
      "edeb": 4477,
      " Bir": 4478,
      "ediy": 4479,
      "AD": 4480,
      "yazar ": 4481,
      "im, ": 4482,
      "ug": 4483,
      "iyoruz ": 4484,
      "eklen": 4485,
      "boyunca ": 4486,
      "ısıyla ": 4487,
      "sebeb": 4488,
      "han ": 4489,
      "enlerin ": 4490,
      "problem": 4491,
      "edir?": 4492,
      "rik ": 4493,
      "bizim ": 4494,
      "26": 4495,
      "unca ": 4496,
      "gerçekleş": 4497,
      "olmay": 4498,
      "onik ": 4499,
      "düşünüyorum ": 4500,
      "izleyin ": 4501,
      "ma ve ": 4502,
      "adığı ": 4503,
      "kişi ": 4504,
      "paket": 4505,
      "ayıf": 4506,
      "ediğini ": 4507,
      "azalt": 4508,
      "ini, ": 4509,
      "eğer ": 4510,
      "pl": 4511,
      "inş": 4512,
      "mıştır.": 4513,
      "işte ": 4514,
      "ile ilgili ": 4515,
      "Par": 4516,
      "imleri ": 4517,
      "adına ": 4518,
      "tip": 4519,
      "sipar": 4520,
      "u'n": 4521,
      "kayn": 4522,
      "dük": 4523,
      "oloji ": 4524,
      " doğ": 4525,
      ". Ayrıca ": 4526,
      "asit": 4527,
      "okudum ": 4528,
      "Pr": 4529,
      "osu ": 4530,
      "güc": 4531,
      "enlere ": 4532,
      "195": 4533,
      "Oy": 4534,
      " dönem": 4535,
      "aşk": 4536,
      "ü, ": 4537,
      "geler": 4538,
      "İyi ": 4539,
      " her ": 4540,
      "Bur": 4541,
      "belli ": 4542,
      "dal": 4543,
      "Osmanlı ": 4544,
      "maktan ": 4545,
      "sonrası ": 4546,
      "kir": 4547,
      "ken, ": 4548,
      "all": 4549,
      "oper": 4550,
      "IM": 4551,
      "ale ": 4552,
      "ılıyor": 4553,
      "ır.": 4554,
      "aday": 4555,
      "şöyle ": 4556,
      "söyled": 4557,
      "şey ": 4558,
      " bulun": 4559,
      "a'nın ": 4560,
      "afa ": 4561,
      ". R": 4562,
      "herhangi bir ": 4563,
      "madd": 4564,
      "Son ": 4565,
      "rom": 4566,
      "üler": 4567,
      "ült": 4568,
      " gün": 4569,
      "Sur": 4570,
      "olabil": 4571,
      "burada ": 4572,
      "ilgi ": 4573,
      "1.": 4574,
      "del": 4575,
      "çok daha ": 4576,
      "ıklık ": 4577,
      "fotoğraf": 4578,
      "ulaştı ": 4579,
      "ıntı ": 4580,
      "tern": 4581,
      "ilet": 4582,
      "istan ": 4583,
      "filmlerden ": 4584,
      "astik ": 4585,
      "cüm": 4586,
      "cevap": 4587,
      "evi ": 4588,
      "filmleri ": 4589,
      "tüm": 4590,
      "düm ": 4591,
      " yok ": 4592,
      "iyi": 4593,
      "ların": 4594,
      "sorun ": 4595,
      "aşırı ": 4596,
      "gördüğ": 4597,
      "bağım": 4598,
      "dey": 4599,
      " haf": 4600,
      "OK": 4601,
      "er ve ": 4602,
      "enüz ": 4603,
      "masına rağmen ": 4604,
      "ift": 4605,
      "leyen ": 4606,
      "üyle ": 4607,
      "herkesin ": 4608,
      "Teşekkür": 4609,
      "oyun": 4610,
      "ısına ": 4611,
      "aşk ": 4612,
      "İsl": 4613,
      "yapan ": 4614,
      "ikler": 4615,
      "oluşan ": 4616,
      "0,": 4617,
      "anları ": 4618,
      "risk": 4619,
      "başına ": 4620,
      "le, ": 4621,
      "lo": 4622,
      "yüzden ": 4623,
      "Ch": 4624,
      "izlerken ": 4625,
      "ayar": 4626,
      "andaş": 4627,
      "fiyata ": 4628,
      "sürdür": 4629,
      "mamış": 4630,
      "ır ": 4631,
      "eğitim ": 4632,
      "mektedir.": 4633,
      "Yap": 4634,
      "Fak": 4635,
      "filmden ": 4636,
      "ini": 4637,
      "lek": 4638,
      "ıyoruz ": 4639,
      "zayıf": 4640,
      " BİR": 4641,
      "ator": 4642,
      "umar": 4643,
      "çat": 4644,
      "polit": 4645,
      "194": 4646,
      "savun": 4647,
      "layan ": 4648,
      "elerdir": 4649,
      "fen": 4650,
      "'ye ": 4651,
      "lük": 4652,
      "bilm": 4653,
      "çekt": 4654,
      "doğan ": 4655,
      "Muh": 4656,
      "unla ": 4657,
      "udur": 4658,
      "in bir ": 4659,
      "best": 4660,
      "proj": 4661,
      "alara ": 4662,
      "Kesinlikle ": 4663,
      "d ": 4664,
      "sıra ": 4665,
      "maktadır.": 4666,
      "sonu ": 4667,
      "ler için ": 4668,
      "LI": 4669,
      " yar": 4670,
      " gen": 4671,
      "asker": 4672,
      "çok güzel": 4673,
      "renk": 4674,
      "hala ": 4675,
      "(cid:374)": 4676,
      "unuz ": 4677,
      "Çocuk": 4678,
      "Kan": 4679,
      "Tan": 4680,
      "Öl": 4681,
      "be ": 4682,
      "lus": 4683,
      "lıkla ": 4684,
      "özgür": 4685,
      "bi film ": 4686,
      "anlamlı ": 4687,
      "let ": 4688,
      ". Ama ": 4689,
      "29": 4690,
      "aray": 4691,
      "etkisi ": 4692,
      ". Her ": 4693,
      "İK": 4694,
      "abart": 4695,
      "yer alan ": 4696,
      "ıldığı ": 4697,
      "edi": 4698,
      "sam ": 4699,
      "ÜR": 4700,
      "sas": 4701,
      "elerine ": 4702,
      "dü ": 4703,
      "görüyor": 4704,
      "sın ": 4705,
      "şaşır": 4706,
      "Yıl": 4707,
      "UR": 4708,
      "olacak ": 4709,
      "söylem": 4710,
      "li ve ": 4711,
      "Der": 4712,
      "imz": 4713,
      "uzur": 4714,
      "gez": 4715,
      "ızlı ": 4716,
      "inde": 4717,
      "ekte ": 4718,
      "makta ": 4719,
      "ite ": 4720,
      "Kor": 4721,
      "DE": 4722,
      "itibaren ": 4723,
      "gece ": 4724,
      "detay": 4725,
      "ÜN": 4726,
      "In": 4727,
      "rad": 4728,
      "fonk": 4729,
      "Devlet": 4730,
      "madı ": 4731,
      "buna ": 4732,
      "tay": 4733,
      "altı ": 4734,
      "Den": 4735,
      "vücut": 4736,
      "lem ": 4737,
      ", bu ": 4738,
      "işim ": 4739,
      "yada ": 4740,
      "==": 4741,
      "inize ": 4742,
      "Cumhurbaş": 4743,
      "gazet": 4744,
      "beş": 4745,
      "önem ": 4746,
      "en önemli ": 4747,
      "ediye ": 4748,
      "lid": 4749,
      "masıyla ": 4750,
      "kalan ": 4751,
      "ilt": 4752,
      " ya da ": 4753,
      "idar": 4754,
      "beraber ": 4755,
      "fes": 4756,
      "Nasıl": 4757,
      "ie ": 4758,
      " 20": 4759,
      "soy": 4760,
      "üsü ": 4761,
      "ması ve ": 4762,
      "size ": 4763,
      "ulus": 4764,
      "edilmiştir": 4765,
      "unuz": 4766,
      "enfeksiyon": 4767,
      "edin": 4768,
      "çıkan ": 4769,
      "polis": 4770,
      "nedenle ": 4771,
      "takip ": 4772,
      "LER": 4773,
      "görünt": 4774,
      "2)": 4775,
      "fir": 4776,
      "iyoruz": 4777,
      "Meh": 4778,
      "yerde ": 4779,
      "abilirsiniz": 4780,
      "Mil": 4781,
      "ateş": 4782,
      "opl": 4783,
      "ınızı ": 4784,
      "başka bir ": 4785,
      ", S": 4786,
      "tanı": 4787,
      "İT": 4788,
      "yo": 4789,
      "lenmiş": 4790,
      "'te ": 4791,
      "amacıyla ": 4792,
      "ölg": 4793,
      "up ": 4794,
      "sağlam ": 4795,
      "Yaş": 4796,
      "sanki ": 4797,
      "yeterli ": 4798,
      "ilk": 4799,
      "ısının ": 4800,
      "kurgu ": 4801,
      "aktiv": 4802,
      "ihtiyaç": 4803,
      "her zaman ": 4804,
      "geniş": 4805,
      "bildir": 4806,
      "eli": 4807,
      "elerinde ": 4808,
      "tom": 4809,
      "sizi ": 4810,
      "hüküm": 4811,
      "bugün ": 4812,
      "Ayrıca ": 4813,
      "etin ": 4814,
      ", s. ": 4815,
      "kav": 4816,
      "iyeti ": 4817,
      "Başkanı ": 4818,
      "lenme ": 4819,
      "sen ": 4820,
      "uzak ": 4821,
      "örgüt": 4822,
      "tığını ": 4823,
      "don": 4824,
      "zem": 4825,
      "üsl": 4826,
      "bebeğ": 4827,
      "edebil": 4828,
      "büt": 4829,
      "tarihi ": 4830,
      "zeng": 4831,
      "tahmin ": 4832,
      "udan ": 4833,
      "de bir ": 4834,
      "lar da ": 4835,
      "AP": 4836,
      "orta ": 4837,
      "'den ": 4838,
      ", “": 4839,
      "itt": 4840,
      "emat": 4841,
      "temel": 4842,
      "ilginç": 4843,
      " nin ": 4844,
      "ani": 4845,
      "Ancak ": 4846,
      "aynı zamanda ": 4847,
      "şun": 4848,
      ") ve ": 4849,
      "onları ": 4850,
      "oyunculuk ": 4851,
      "boyut": 4852,
      "AM": 4853,
      "atta ": 4854,
      "ekn": 4855,
      "veren ": 4856,
      "atif": 4857,
      "tas": 4858,
      "konus": 4859,
      "amda ": 4860,
      "onların ": 4861,
      "gun": 4862,
      "aks": 4863,
      "oyunculuk": 4864,
      "endi ": 4865,
      "yorum ": 4866,
      "kurtar": 4867,
      "iminde ": 4868,
      "poz": 4869,
      "amak için ": 4870,
      "se": 4871,
      "ilmiştir": 4872,
      "görüntü": 4873,
      "memiş": 4874,
      "karar ver": 4875,
      "dok": 4876,
      "sayf": 4877,
      "î ": 4878,
      "bal": 4879,
      "vas": 4880,
      "Avrupa ": 4881,
      "başlay": 4882,
      "liğini ": 4883,
      "ederek ": 4884,
      "cul": 4885,
      ". “": 4886,
      " bence ": 4887,
      "ned": 4888,
      "ko": 4889,
      "üzel": 4890,
      "icin ": 4891,
      "soğ": 4892,
      "kargo": 4893,
      "açıl": 4894,
      "fazlas": 4895,
      "Ve ": 4896,
      "aln": 4897,
      "hesap": 4898,
      "Kem": 4899,
      "büyük": 4900,
      "iliği ": 4901,
      "ürünü ": 4902,
      "adığ": 4903,
      " bi ": 4904,
      "Hep": 4905,
      "amaz ": 4906,
      "ü ve ": 4907,
      "sınız": 4908,
      "ındır": 4909,
      "lararası ": 4910,
      "şüp": 4911,
      "analiz": 4912,
      "bulunduğu ": 4913,
      "100": 4914,
      "okuduğum ": 4915,
      "ildi ": 4916,
      "maya başlad": 4917,
      "pri": 4918,
      "ah ": 4919,
      "yı ": 4920,
      "Kitab": 4921,
      "terap": 4922,
      " yol": 4923,
      "umda ": 4924,
      "anne ": 4925,
      "-i ": 4926,
      "ılığı ": 4927,
      "ders": 4928,
      "medim ": 4929,
      "yanlış": 4930,
      "anlığ": 4931,
      "rak ": 4932,
      "ilmes": 4933,
      "ban": 4934,
      "eklem": 4935,
      "daha da ": 4936,
      "guzel ": 4937,
      "hale ": 4938,
      " sonra ": 4939,
      "Fransız ": 4940,
      "Ed": 4941,
      "eliğ": 4942,
      "ilerek ": 4943,
      "mon": 4944,
      "ıza ": 4945,
      "gı ": 4946,
      "Ül": 4947,
      "imini ": 4948,
      "alınd": 4949,
      " dün": 4950,
      "van": 4951,
      "düşünüyorum": 4952,
      "şart": 4953,
      "sağlıklı ": 4954,
      "hizmet": 4955,
      "kalitesi ": 4956,
      "elerdir?": 4957,
      "ayıs": 4958,
      "IR": 4959,
      "h ": 4960,
      "er, ": 4961,
      " Ö": 4962,
      "felsef": 4963,
      "rit": 4964,
      "Gel": 4965,
      "huk": 4966,
      "yoğun ": 4967,
      "yarar": 4968,
      "lar.": 4969,
      "ısır": 4970,
      ". Z": 4971,
      "derec": 4972,
      " sağl": 4973,
      "kendine ": 4974,
      "yere ": 4975,
      "kalk": 4976,
      "” ": 4977,
      "esel ": 4978,
      "bozuk": 4979,
      "cu ": 4980,
      "devr": 4981,
      "müştür": 4982,
      "kontrol ": 4983,
      "vekil": 4984,
      "UL": 4985,
      "ödül": 4986,
      "'nde ": 4987,
      "sunuz": 4988,
      "güzel bir kitap": 4989,
      "ç ": 4990,
      "senaryo": 4991,
      "alım ": 4992,
      "imdi ": 4993,
      "kayd": 4994,
      "bakım": 4995,
      "idir ": 4996,
      "erkek ": 4997,
      "bask": 4998,
      "Yeni ": 4999,
      "tiği ": 5000,
      "sahip ol": 5001,
      "Pol": 5002,
      "İngiliz": 5003,
      "AŞ": 5004,
      ". L": 5005,
      "hücr": 5006,
      "olduğu için ": 5007,
      "veriyor": 5008,
      "kişinin ": 5009,
      "can ": 5010,
      "İtal": 5011,
      " değer": 5012,
      "Bence ": 5013,
      "da bir ": 5014,
      " oldu ": 5015,
      "sl": 5016,
      "sayesinde ": 5017,
      "kuş": 5018,
      "amıyor": 5019,
      "siyaset": 5020,
      "müdah": 5021,
      "i'nin ": 5022,
      "alat": 5023,
      "izm ": 5024,
      "list": 5025,
      "ımızı ": 5026,
      "hava ": 5027,
      "farklı bir ": 5028,
      "bor": 5029,
      "mot": 5030,
      "iydi": 5031,
      "ustafa ": 5032,
      "ekler": 5033,
      "dönemde ": 5034,
      "IŞ": 5035,
      "öp": 5036,
      "öylece ": 5037,
      " bir film ": 5038,
      "umuz": 5039,
      "esef": 5040,
      "ameliyat": 5041,
      "bu filmde ": 5042,
      "mac": 5043,
      "kam": 5044,
      "us ": 5045,
      " kayb": 5046,
      "ces": 5047,
      "Gerçekten ": 5048,
      "ılabilir": 5049,
      "ilik": 5050,
      "Savaş": 5051,
      "ej": 5052,
      "rol ": 5053,
      "ira ": 5054,
      "ros": 5055,
      "etmeye ": 5056,
      "60": 5057,
      "olumsuz ": 5058,
      ", \"": 5059,
      " kor": 5060,
      ". Son": 5061,
      "zorunda ": 5062,
      "Kom": 5063,
      "eket ": 5064,
      "ümüzde ": 5065,
      "rist": 5066,
      "mesi için ": 5067,
      "arj": 5068,
      " boy": 5069,
      "ektedir": 5070,
      "daha önce ": 5071,
      "Yun": 5072,
      "yakın": 5073,
      "organ": 5074,
      "davranış": 5075,
      "izde ": 5076,
      "ası": 5077,
      "vatandaş": 5078,
      "azir": 5079,
      " Bel": 5080,
      "yansıt": 5081,
      "geldi": 5082,
      ". Bunun ": 5083,
      "’a ": 5084,
      "sonuna ": 5085,
      " sonr": 5086,
      "ayın": 5087,
      "arş": 5088,
      "müthiş": 5089,
      "bilim ": 5090,
      "kahr": 5091,
      "parator": 5092,
      "gerekir": 5093,
      "dığında ": 5094,
      "inlik": 5095,
      "dök": 5096,
      "ilerde ": 5097,
      "çünkü": 5098,
      "çer": 5099,
      "Dav": 5100,
      "ıştır": 5101,
      "hayatını ": 5102,
      "gerilim ": 5103,
      "th": 5104,
      "eci ": 5105,
      "lerce ": 5106,
      "elim ": 5107,
      "millet": 5108,
      "azar": 5109,
      "akter ": 5110,
      "yeni bir ": 5111,
      "en güzel ": 5112,
      "ON": 5113,
      "amalar": 5114,
      "önüne ": 5115,
      " olabilir": 5116,
      "ood": 5117,
      "ü b": 5118,
      "faydalı ": 5119,
      "isinden ": 5120,
      "abileceğ": 5121,
      "ümüz ": 5122,
      "bu kitap": 5123,
      "Tama": 5124,
      "apor": 5125,
      "makla ": 5126,
      "ulu ": 5127,
      "olun": 5128,
      "kurtul": 5129,
      "cilt": 5130,
      "halk": 5131,
      "faal": 5132,
      "ikt": 5133,
      "alınan ": 5134,
      "insanlar ": 5135,
      " kişi ": 5136,
      "yem": 5137,
      "bazen ": 5138,
      " sın": 5139,
      "mak, ": 5140,
      "toplam ": 5141,
      "içi ": 5142,
      "küçükresim": 5143,
      "izlemek ": 5144,
      "dun ": 5145,
      "umlu ": 5146,
      "yazılmış": 5147,
      "sa": 5148,
      "akş": 5149,
      "sağlan": 5150,
      "isi, ": 5151,
      "yavaş": 5152,
      "çevres": 5153,
      "hepsi ": 5154,
      "en iy": 5155,
      "form": 5156,
      "Alman": 5157,
      "küçükresim|": 5158,
      "e de ": 5159,
      "yaşayan ": 5160,
      "final": 5161,
      "193": 5162,
      "lin": 5163,
      "yaban": 5164,
      "Tarih": 5165,
      "efekt": 5166,
      "AH": 5167,
      "yaygın ": 5168,
      "ref": 5169,
      ". yüzyıl": 5170,
      "oyun ": 5171,
      "Alman ": 5172,
      "teb": 5173,
      "2015": 5174,
      "ur ": 5175,
      "elerden ": 5176,
      "Joh": 5177,
      "şirk": 5178,
      "ener": 5179,
      ". İş": 5180,
      "ne": 5181,
      "LE": 5182,
      "miktar": 5183,
      "meli ": 5184,
      " karş": 5185,
      "aca ": 5186,
      "gelmiş": 5187,
      "yal ": 5188,
      "ildi": 5189,
      "ey ": 5190,
      "arab": 5191,
      "yapıyor": 5192,
      "o, ": 5193,
      "bilgis": 5194,
      "konuda ": 5195,
      "menin ": 5196,
      "gerekli ": 5197,
      "üçük ": 5198,
      "ight": 5199,
      "soru": 5200,
      "sağlay": 5201,
      "bilgiler ": 5202,
      "yapım ": 5203,
      "dik ": 5204,
      "Genel ": 5205,
      "lazım ": 5206,
      "Hol": 5207,
      "artış": 5208,
      "gerektiğini ": 5209,
      "dost": 5210,
      "defa ": 5211,
      "yu": 5212,
      "Filmi ": 5213,
      "Ali ": 5214,
      "Anad": 5215,
      "ması için ": 5216,
      "anlığı ": 5217,
      "leri ile ": 5218,
      "Tur": 5219,
      "edeyse ": 5220,
      "şans": 5221,
      "çağ": 5222,
      " hep": 5223,
      "birşey": 5224,
      "ım, ": 5225,
      "huzur": 5226,
      "emez": 5227,
      "teslim ": 5228,
      "dan sonra ": 5229,
      "mir": 5230,
      "sa, ": 5231,
      "giy": 5232,
      "ism": 5233,
      "sa da ": 5234,
      "sıkıcı ": 5235,
      "edeki ": 5236,
      "öbr": 5237,
      "değildir": 5238,
      "filmler": 5239,
      " yaşındaki ": 5240,
      "olmak üzere ": 5241,
      "seri ": 5242,
      "olmaz": 5243,
      "Beb": 5244,
      "The ": 5245,
      "ry": 5246,
      "karşılaştır": 5247,
      "edavi ": 5248,
      "ığında ": 5249,
      "Sür": 5250,
      "İZ": 5251,
      "üyük": 5252,
      " başar": 5253,
      "halde ": 5254,
      "aile ": 5255,
      "bizi ": 5256,
      "undaki ": 5257,
      "ubu ": 5258,
      " olmuş": 5259,
      "henüz ": 5260,
      "önceki ": 5261,
      "yalnızca ": 5262,
      "e kadar ": 5263,
      "ımızda ": 5264,
      "î, ": 5265,
      "hikaye ": 5266,
      "a'da ": 5267,
      "oid": 5268,
      " bır": 5269,
      "kitabın ": 5270,
      "Kız": 5271,
      "ığına ": 5272,
      "imler": 5273,
      "etme ": 5274,
      "dair": 5275,
      "yapmış": 5276,
      "sona ": 5277,
      "boğ": 5278,
      "car": 5279,
      "zih": 5280,
      "und": 5281,
      "UM": 5282,
      "düşünül": 5283,
      "uyor ": 5284,
      "biraz daha ": 5285,
      "uan ": 5286,
      "ut ": 5287,
      "hel": 5288,
      "ine, ": 5289,
      "Bar": 5290,
      "elinde ": 5291,
      "destek ": 5292,
      " hem ": 5293,
      "günlük ": 5294,
      "tez": 5295,
      "en az ": 5296,
      "başlang": 5297,
      "not": 5298,
      "000": 5299,
      "vazgeç": 5300,
      "şek": 5301,
      "On": 5302,
      "elt": 5303,
      "Han": 5304,
      "eyn": 5305,
      "esel": 5306,
      ". Fak": 5307,
      "istan": 5308,
      "durumu ": 5309,
      " Ağ": 5310,
      "yana ": 5311,
      "asım ": 5312,
      "bağlan": 5313,
      "Nedir?": 5314,
      "ıldı": 5315,
      "10 10": 5316,
      "din ": 5317,
      "isyon": 5318,
      "akla ": 5319,
      "alın ": 5320,
      "gibi": 5321,
      "işleri ": 5322,
      "ü’l-": 5323,
      "ilerle ": 5324,
      "lar s": 5325,
      "siyonu ": 5326,
      "rahatsız": 5327,
      "I, ": 5328,
      "ital": 5329,
      "dünyanın ": 5330,
      "Yar": 5331,
      "Sağl": 5332,
      "masından ": 5333,
      "ısı, ": 5334,
      "makin": 5335,
      "Müdür": 5336,
      "ister": 5337,
      "kullanıyorum ": 5338,
      "yolu ": 5339,
      "ve çok ": 5340,
      " kırıkl": 5341,
      "mit": 5342,
      " ve bu ": 5343,
      "rahat ": 5344,
      "bağış": 5345,
      "me": 5346,
      "'i ": 5347,
      "çı ": 5348,
      " tan": 5349,
      "ete ": 5350,
      "komedi ": 5351,
      "duygu": 5352,
      "İb": 5353,
      "asıyla ": 5354,
      "ine göre ": 5355,
      "inal ": 5356,
      "Nelerdir?": 5357,
      "ehir": 5358,
      "son derece ": 5359,
      "umun ": 5360,
      "Et": 5361,
      "nüf": 5362,
      "des": 5363,
      "medi ": 5364,
      "80": 5365,
      "isel ": 5366,
      "grub": 5367,
      "acağım ": 5368,
      "başında ": 5369,
      "mesi gereken ": 5370,
      "filmlerinden ": 5371,
      "yanıt": 5372,
      "terör": 5373,
      "birisi ": 5374,
      "iyor.": 5375,
      "dığımız ": 5376,
      "silah": 5377,
      "att": 5378,
      "2014": 5379,
      "böyle bir ": 5380,
      "gider": 5381,
      "dört": 5382,
      "ti.": 5383,
      "türk ": 5384,
      "kel": 5385,
      "amada ": 5386,
      "olmuş ": 5387,
      "doğrul": 5388,
      "edebilir": 5389,
      "ekip": 5390,
      "sinir": 5391,
      "ortaya koy": 5392,
      "’n": 5393,
      "'dan ": 5394,
      "8)": 5395,
      "rn": 5396,
      "üme ": 5397,
      "akkında ": 5398,
      "45": 5399,
      "ras": 5400,
      "mam ": 5401,
      "elerle ": 5402,
      "mur": 5403,
      "üzerindeki ": 5404,
      "gor": 5405,
      "izyon": 5406,
      "ıd": 5407,
      "şır": 5408,
      "lerdir": 5409,
      "ü s": 5410,
      "edilmiş": 5411,
      "idi ": 5412,
      "lüğü ": 5413,
      "aldığı ": 5414,
      "müyor": 5415,
      "doğal": 5416,
      "imli ": 5417,
      "iyorsunuz ": 5418,
      "bir eser": 5419,
      "dukça ": 5420,
      "gerc": 5421,
      "iyordu": 5422,
      "edebiyat": 5423,
      " grub": 5424,
      "benzer ": 5425,
      "ci": 5426,
      "pek çok ": 5427,
      "bir kitap ": 5428,
      "yük": 5429,
      "imle ": 5430,
      "etti.": 5431,
      "rast": 5432,
      " kaz": 5433,
      "tuğ": 5434,
      "önünde ": 5435,
      "lı": 5436,
      "At": 5437,
      "biz ": 5438,
      "abileceği ": 5439,
      "ku": 5440,
      "serinin ": 5441,
      "(ö. 19": 5442,
      "ar ve ": 5443,
      "iler, ": 5444,
      "iyileş": 5445,
      "oo": 5446,
      "Herkes": 5447,
      "ald": 5448,
      "pişman ": 5449,
      "iyorsanız ": 5450,
      "mak ve ": 5451,
      "taşıy": 5452,
      " seviy": 5453,
      " dedi.": 5454,
      "...": 5455,
      "toplan": 5456,
      " kes": 5457,
      "roman ": 5458,
      "alır": 5459,
      "sert": 5460,
      "ekonomik ": 5461,
      "tekrar": 5462,
      "Kay": 5463,
      "bakış aç": 5464,
      "adım": 5465,
      "sonucunda ": 5466,
      "ını, ": 5467,
      "ımızın ": 5468,
      "korun": 5469,
      "emmuz ": 5470,
      "dern ": 5471,
      "deniz": 5472,
      "meye çalış": 5473,
      "piyas": 5474,
      " tak": 5475,
      "dı ve ": 5476,
      "olmadığı ": 5477,
      "la, ": 5478,
      "kitap ": 5479,
      " tab": 5480,
      "İk": 5481,
      "alıyor": 5482,
      "sipariş ": 5483,
      "12 ": 5484,
      "tic": 5485,
      "şeklinde ": 5486,
      "ışık ": 5487,
      "seniz ": 5488,
      "hap": 5489,
      "itam": 5490,
      "Tek ": 5491,
      "kurg": 5492,
      "İstanbul ": 5493,
      "DA": 5494,
      "ang": 5495,
      "adem": 5496,
      "fırsat": 5497,
      "Çalış": 5498,
      "Le": 5499,
      "şiş": 5500,
      "sim": 5501,
      "İm": 5502,
      " VE": 5503,
      "6)": 5504,
      " ben": 5505,
      "zek": 5506,
      "bağlı olarak ": 5507,
      "fikir": 5508,
      " Mart": 5509,
      "ayet ": 5510,
      "sıv": 5511,
      "2016": 5512,
      "aa": 5513,
      "emin": 5514,
      "çocukların ": 5515,
      "nes": 5516,
      "bağır": 5517,
      "köy": 5518,
      "​ ": 5519,
      "yokt": 5520,
      "sorgul": 5521,
      "düşür": 5522,
      " OL": 5523,
      "utlaka ": 5524,
      "aklık ": 5525,
      "cerrahi ": 5526,
      "9)": 5527,
      "inanılmaz ": 5528,
      "etkilen": 5529,
      "lamış": 5530,
      "edir ": 5531,
      "olmuştur": 5532,
      "etraf": 5533,
      "ulmuş": 5534,
      "sürede ": 5535,
      "yazarın ": 5536,
      "ortak ": 5537,
      " dedi ": 5538,
      " düzey": 5539,
      "yanı sıra ": 5540,
      "izim ": 5541,
      "ısı": 5542,
      "alarını ": 5543,
      "almıştım ": 5544,
      "atist": 5545,
      "ettiğim ": 5546,
      ". Daha ": 5547,
      "okurken ": 5548,
      "ler de ": 5549,
      "gal": 5550,
      "siburada ": 5551,
      "yine de ": 5552,
      "olduğu gibi ": 5553,
      "Uzun ": 5554,
      "larca ": 5555,
      "sonrasında ": 5556,
      "Şub": 5557,
      "çok fazla ": 5558,
      "ustos": 5559,
      "ülke ": 5560,
      " kom": 5561,
      "aw": 5562,
      "açıdan ": 5563,
      "varlığ": 5564,
      "Ter": 5565,
      "zamanlarda ": 5566,
      "başta ": 5567,
      "ınızda ": 5568,
      "âm": 5569,
      "Hayat": 5570,
      "tör": 5571,
      ". Özellikle ": 5572,
      "uyorum ": 5573,
      "Ber": 5574,
      "anlamda ": 5575,
      "tor": 5576,
      "bulutlu ": 5577,
      "adı": 5578,
      "çift": 5579,
      "zevk": 5580,
      "Fiyat": 5581,
      "eyim ": 5582,
      "Ulus": 5583,
      ". Ay": 5584,
      "kavram": 5585,
      "bende ": 5586,
      " sistem": 5587,
      "ımdan ": 5588,
      " Er": 5589,
      "ile birlikte ": 5590,
      "enli ": 5591,
      "iminin ": 5592,
      "rek": 5593,
      "tavsiy": 5594,
      "üper ": 5595,
      "90": 5596,
      "Paş": 5597,
      "ılmadan ": 5598,
      "ormal ": 5599,
      "unsur": 5600,
      "ullah": 5601,
      "ımıza ": 5602,
      "Part": 5603,
      "seniz": 5604,
      "ı?": 5605,
      "hoc": 5606,
      "Sel": 5607,
      "çası ": 5608,
      "se de ": 5609,
      "görülen ": 5610,
      "yalı ": 5611,
      "diyebilirim ": 5612,
      "ı da ": 5613,
      "yürüt": 5614,
      "düğü ": 5615,
      "haline ": 5616,
      "başyapıt": 5617,
      "gereken ": 5618,
      "hip": 5619,
      "ğer ": 5620,
      "sk": 5621,
      "üley": 5622,
      "edildi": 5623,
      "yaşay": 5624,
      " ın ": 5625,
      "qu": 5626,
      "sürükleyici ": 5627,
      "ly": 5628,
      "dis": 5629,
      "fi": 5630,
      "neredeyse ": 5631,
      " med": 5632,
      "kapat": 5633,
      "35": 5634,
      "Üniversitesi ": 5635,
      " kaç": 5636,
      "hareket ": 5637,
      "Sul": 5638,
      "çok başarılı ": 5639,
      "ptom": 5640,
      "saptan": 5641,
      "o da ": 5642,
      "yapılmış": 5643,
      "- K": 5644,
      "alarının ": 5645,
      "kendisine ": 5646,
      " Eyl": 5647,
      "siyasi ": 5648,
      "üksek ": 5649,
      " tut": 5650,
      "ortam": 5651,
      "yoktur": 5652,
      "sonraki ": 5653,
      "söylen": 5654,
      "mesi ve ": 5655,
      "asyonu ": 5656,
      "tehlik": 5657,
      "dokun": 5658,
      "ölüm ": 5659,
      "iyiydi ": 5660,
      "ılan": 5661,
      "beklem": 5662,
      "düzenli ": 5663,
      "gü": 5664,
      "- S": 5665,
      "gun ": 5666,
      "alesef": 5667,
      "sermay": 5668,
      "enn": 5669,
      "eseri ": 5670,
      " düşün": 5671,
      "ya, ": 5672,
      "filmdi ": 5673,
      "kuvvet": 5674,
      "ahr": 5675,
      "’de ": 5676,
      "hassas": 5677,
      "kelimeyle ": 5678,
      "çıktı ": 5679,
      "yerleş": 5680,
      "Kaynak": 5681,
      " Z": 5682,
      "ayrıl": 5683,
      "aziran ": 5684,
      "mızı ": 5685,
      "diş": 5686,
      "karakter ": 5687,
      " sık": 5688,
      "değil, ": 5689,
      "gin ": 5690,
      "iç ": 5691,
      "Geç": 5692,
      "sıkıl": 5693,
      "bir eser ": 5694,
      "küt": 5695,
      " dem": 5696,
      " dış": 5697,
      "memnunum ": 5698,
      "gelecek ": 5699,
      "etmez": 5700,
      "cel": 5701,
      " met": 5702,
      "bir filmdi ": 5703,
      "olabilir.": 5704,
      "etmek için ": 5705,
      "bayıl": 5706,
      "Sev": 5707,
      "sayısı ": 5708,
      "araya ": 5709,
      "eder ": 5710,
      "severek ": 5711,
      "alog": 5712,
      "Dünya ": 5713,
      "âb": 5714,
      "fonksiyon": 5715,
      "dair ": 5716,
      "eter": 5717,
      "had": 5718,
      "allah": 5719,
      "göre, ": 5720,
      "go": 5721,
      "harc": 5722,
      "imizde ": 5723,
      "ama bu ": 5724,
      "urun ": 5725,
      "üniversit": 5726,
      "sek ": 5727,
      "çoğun": 5728,
      "alı": 5729,
      "inede ": 5730,
      " bak": 5731,
      "mutlul": 5732,
      " kesinlikle ": 5733,
      "evde ": 5734,
      " hayat": 5735,
      "isan ": 5736,
      "    ": 5737,
      "sad": 5738,
      "örnek ": 5739,
      "izleyic": 5740,
      "taşı": 5741,
      "yumuş": 5742,
      "giden ": 5743,
      "’da ": 5744,
      "Kap": 5745,
      "yoksa ": 5746,
      "ıyor ve ": 5747,
      "yeri ": 5748,
      "geçer": 5749,
      "1-": 5750,
      "profes": 5751,
      "Per": 5752,
      "Jap": 5753,
      "iliş": 5754,
      "kalar": 5755,
      "elime ulaştı ": 5756,
      ". Al": 5757,
      "olmak ": 5758,
      "tabi ": 5759,
      "bir süre ": 5760,
      "hâl": 5761,
      "su": 5762,
      "mücadel": 5763,
      "2020": 5764,
      "gayet güzel ": 5765,
      "ilebilir": 5766,
      "abet": 5767,
      "üstü ": 5768,
      "urad": 5769,
      "diğinde ": 5770,
      " gib": 5771,
      "imine ": 5772,
      "Mustafa ": 5773,
      "Bul": 5774,
      "içindeki ": 5775,
      "yardım ": 5776,
      " dev": 5777,
      "vakit": 5778,
      " ter": 5779,
      "enler için ": 5780,
      "Gr": 5781,
      "bin ": 5782,
      " oluyor": 5783,
      "ortaya çıkar": 5784,
      " bit": 5785,
      "yönetmen ": 5786,
      "hayal kırıkl": 5787,
      "gerektir": 5788,
      "larım ": 5789,
      "2018": 5790,
      "amanın ": 5791,
      "ilerden ": 5792,
      "Ankara ": 5793,
      "hediye ": 5794,
      "Öğ": 5795,
      "van ": 5796,
      "koru": 5797,
      "görsel ": 5798,
      "arka ": 5799,
      " sen": 5800,
      "ST": 5801,
      "ortalama ": 5802,
      "ağa ": 5803,
      "hafta ": 5804,
      "başlayan ": 5805,
      ". Çalış": 5806,
      "neler ": 5807,
      "ecer": 5808,
      "meleri ": 5809,
      "gözlem": 5810,
      "omb": 5811,
      "herşey": 5812,
      "Cumhurbaşkanı ": 5813,
      "mesel": 5814,
      "Oyunc": 5815,
      "devam": 5816,
      "sıcak ": 5817,
      "edem": 5818,
      "bir kıs": 5819,
      "duğunu ": 5820,
      "rik": 5821,
      "ion": 5822,
      "2.": 5823,
      "beyaz ": 5824,
      "onlara ": 5825,
      "kitapları ": 5826,
      "sahip ": 5827,
      "hep ": 5828,
      "ıyoruz": 5829,
      "diğer": 5830,
      "tec": 5831,
      "iter": 5832,
      "giz": 5833,
      "Hak": 5834,
      "çal": 5835,
      "ây": 5836,
      "ayda ": 5837,
      ". (": 5838,
      "müzik": 5839,
      "çözüm": 5840,
      " oldu": 5841,
      "mus": 5842,
      "enerji ": 5843,
      "öne ": 5844,
      "ıklık": 5845,
      "duvar": 5846,
      "2019": 5847,
      "bez ": 5848,
      "mec": 5849,
      "ton": 5850,
      " yok": 5851,
      "endim ": 5852,
      "Üst": 5853,
      "param": 5854,
      "insanlar": 5855,
      "İngiliz ": 5856,
      "politik": 5857,
      " Gen": 5858,
      " kim": 5859,
      "kaçın": 5860,
      ", Türk ": 5861,
      "günü ": 5862,
      "yazık ": 5863,
      "olmadığını ": 5864,
      "meler ": 5865,
      "sek": 5866,
      "kullanışlı ": 5867,
      " Mayıs": 5868,
      "içeren ": 5869,
      "yolcul": 5870,
      "araştırma ": 5871,
      "aldığım ": 5872,
      "ülen ": 5873,
      "Önc": 5874,
      "yandan ": 5875,
      "kuzey": 5876,
      "korku ": 5877,
      "CHP": 5878,
      "ert": 5879,
      "macer": 5880,
      " Ama ": 5881,
      "söylüyor": 5882,
      "gam": 5883,
      "mesi": 5884,
      "egzer": 5885,
      "yaşanan ": 5886,
      "elef": 5887,
      "madım ": 5888,
      "başlamış": 5889,
      "i (": 5890,
      "kendimi ": 5891,
      "efsan": 5892,
      "Başbak": 5893,
      "fıl": 5894,
      "rahatsız ": 5895,
      ". Bir ": 5896,
      "irken ": 5897,
      "dün ": 5898,
      "güzeldi ": 5899,
      " yıl ": 5900,
      "isiyle ": 5901,
      "yüz ": 5902,
      ". Gen": 5903,
      "ızın ": 5904,
      "vurgul": 5905,
      "IL": 5906,
      "hab": 5907,
      "ugün ": 5908,
      "incelem": 5909,
      ". Bel": 5910,
      "mıs": 5911,
      "ınıza ": 5912,
      "ava ": 5913,
      "birik": 5914,
      "elb": 5915,
      "iyor ve ": 5916,
      "Birleş": 5917,
      "olacak": 5918,
      "etmesi ": 5919,
      "fiziksel ": 5920,
      "için, ": 5921,
      "70": 5922,
      "ündeki ": 5923,
      "edik ": 5924,
      "model": 5925,
      "sahne ": 5926,
      "dig": 5927,
      "alım": 5928,
      "anlık": 5929,
      "üsü": 5930,
      "güneş": 5931,
      "tatür": 5932,
      "arak, ": 5933,
      "pen": 5934,
      "rapor": 5935,
      "insanları ": 5936,
      "ınday": 5937,
      "endiğ": 5938,
      "hukuk": 5939,
      " kitabı ": 5940,
      "en az": 5941,
      "tanış": 5942,
      ". Araştır": 5943,
      "dünyada ": 5944,
      "ı'nın ": 5945,
      "atür": 5946,
      "nefes": 5947,
      "sig": 5948,
      "durumlarda ": 5949,
      "te, ": 5950,
      "dedi ": 5951,
      ". \"": 5952,
      " ben ": 5953,
      "olog": 5954,
      "tarz ": 5955,
      "ları ile ": 5956,
      "sahneler ": 5957,
      "tum ": 5958,
      "Top": 5959,
      "p ": 5960,
      "kullanım": 5961,
      "leyic": 5962,
      "sığ": 5963,
      "heps": 5964,
      "animas": 5965,
      "ampiy": 5966,
      "Değ": 5967,
      "marka ": 5968,
      "İD": 5969,
      "psikolojik ": 5970,
      "Sin": 5971,
      "ayın ": 5972,
      "etik": 5973,
      " (d": 5974,
      " değiş": 5975,
      "Mec": 5976,
      "teki ": 5977,
      "teknik ": 5978,
      "koşul": 5979,
      "eve ": 5980,
      "ükemmel ": 5981,
      "inda ": 5982,
      "11 ": 5983,
      "land": 5984,
      "mükemmel": 5985,
      "mesi, ": 5986,
      "ya'nın ": 5987,
      " U": 5988,
      "ıyordu": 5989,
      "lanır": 5990,
      "kanser": 5991,
      "bundan ": 5992,
      "Büyük ": 5993,
      "bulaş": 5994,
      "devam ediyor": 5995,
      "yaptığ": 5996,
      "görülür": 5997,
      "Sen": 5998,
      "şarj": 5999,
      "istatist": 6000,
      "olumlu ": 6001,
      "senin ": 6002,
      "harik": 6003,
      "....": 6004,
      "devam ed": 6005,
      "üçünc": 6006,
      "kendisini ": 6007,
      "aberin ": 6008,
      "Harika ": 6009,
      "Diy": 6010,
      "ufak ": 6011,
      "he": 6012,
      "aşağ": 6013,
      "yıllarda ": 6014,
      "tümör": 6015,
      "edildi ": 6016,
      "kargo ": 6017,
      "faaliyet": 6018,
      "uzun sür": 6019,
      "sistemi ": 6020,
      "cam": 6021,
      "yalnız ": 6022,
      "temizl": 6023,
      " dön": 6024,
      "mücadele ": 6025,
      "IK": 6026,
      "Türkiye'nin ": 6027,
      "belki de ": 6028,
      "Tamamı ": 6029,
      "mos": 6030,
      "sul": 6031,
      "asından ": 6032,
      "tavsiye ediyorum": 6033,
      "komik ": 6034,
      "a-": 6035,
      "ret ": 6036,
      "ten": 6037,
      "ki, ": 6038,
      "yaptır": 6039,
      "öncesi ": 6040,
      "ölçü": 6041,
      "manı ": 6042,
      "bilinen ": 6043,
      "les": 6044,
      "bugün": 6045,
      "Türkçe ": 6046,
      "cihaz": 6047,
      "Türkiye'de ": 6048,
      "36": 6049,
      "oranı ": 6050,
      " ya ": 6051,
      "Ödül": 6052,
      "”, ": 6053,
      "vermiş": 6054,
      "cinsel ": 6055,
      "Ef": 6056,
      "şikay": 6057,
      "a.": 6058,
      "kesin ": 6059,
      "'ta ": 6060,
      "bebek ": 6061,
      "da bu ": 6062,
      "sizin ": 6063,
      "pop": 6064,
      "değişiklik": 6065,
      "2017": 6066,
      " Temmuz ": 6067,
      "ıntı": 6068,
      "göl": 6069,
      "takım ": 6070,
      "kalmış": 6071,
      "Ahmet ": 6072,
      "falan ": 6073,
      "oyu ": 6074,
      "ww": 6075,
      "aylık ": 6076,
      "dile ": 6077,
      "aberin Tamamı ": 6078,
      "aberin Tamamı İç": 6079,
      "tıkları ": 6080,
      "vücu": 6081,
      "ığa ": 6082,
      "hayata ": 6083,
      "dönem ": 6084,
      "hasta ": 6085,
      "IZ": 6086,
      "teşekkürler ": 6087,
      "gibi bir ": 6088,
      "kanıt": 6089,
      "yıl ": 6090,
      "i bir ": 6091,
      "saçma ": 6092,
      "ça": 6093,
      "sahiptir": 6094,
      "Güney": 6095,
      "dar ": 6096,
      "gösteren ": 6097,
      "aldır": 6098,
      "sever": 6099,
      "müzik ": 6100,
      "kusur": 6101,
      "osyal": 6102,
      "Cumhuriyet": 6103,
      "çok beğendim ": 6104,
      "leri de ": 6105,
      "anlatıyor": 6106,
      " Part": 6107,
      ". El": 6108,
      "aydın": 6109,
      "'deki ": 6110,
      "bl": 6111,
      "7)": 6112,
      "dili ": 6113,
      "futbolcu": 6114,
      "verdim ": 6115,
      "prat": 6116,
      "aktivit": 6117,
      "'ya ": 6118,
      "edilebilir": 6119,
      "kamer": 6120,
      "Has": 6121,
      "üç ": 6122,
      "str": 6123,
      "ammed": 6124,
      "benim için ": 6125,
      "koruy": 6126,
      "HA": 6127,
      "Kullan": 6128,
      "iyordum ": 6129,
      "değildi ": 6130,
      "ex": 6131,
      "tit": 6132,
      "ler s": 6133,
      " yönet": 6134,
      "yabancı ": 6135,
      "üphan": 6136,
      " geçir": 6137,
      "eşik": 6138,
      "kendisi ": 6139,
      "anlara ": 6140,
      "ılarının ": 6141,
      "virüs": 6142,
      "ler b": 6143,
      "hastanın ": 6144,
      "yerinde ": 6145,
      "aklı ": 6146,
      "ton ": 6147,
      "alanında ": 6148,
      "risk ": 6149,
      "ım ve ": 6150,
      "ayas": 6151,
      ". On": 6152,
      "hiç bir ": 6153,
      "öbrek ": 6154,
      "başlat": 6155,
      "hatırlat": 6156,
      "ektir": 6157,
      "Kır": 6158,
      "etki ": 6159,
      "güçlü ": 6160,
      "ildi.": 6161,
      "Dur": 6162,
      "Her": 6163,
      "türlü ": 6164,
      "öyle bir ": 6165,
      "derim": 6166,
      "ömür": 6167,
      "saf": 6168,
      " durum": 6169,
      "ED": 6170,
      "iss": 6171,
      "kurum": 6172,
      "ısı ve ": 6173,
      "ne de ": 6174,
      "di, ": 6175,
      "sayıda ": 6176,
      "Türkç": 6177,
      "Eğer ": 6178,
      "ücü ": 6179,
      "telefon ": 6180,
      "Ver": 6181,
      "ağrı ": 6182,
      "(cid:373)": 6183,
      "umut": 6184,
      "doldur": 6185,
      "fena ": 6186,
      "uğraş": 6187,
      "dolaş": 6188,
      "ülkem": 6189,
      "acı": 6190,
      "çatış": 6191,
      "ila ": 6192,
      "dalg": 6193,
      "çok hoş": 6194,
      "antaj": 6195,
      "daha sonra ": 6196,
      "emen ": 6197,
      "sanırım ": 6198,
      "ber ": 6199,
      " kr": 6200,
      "madığı ": 6201,
      "akış": 6202,
      "ları da ": 6203,
      "leri arasında ": 6204,
      "teknoloj": 6205,
      "ester": 6206,
      " dakika ": 6207,
      "car ": 6208,
      "Arap": 6209,
      " etm": 6210,
      "Kür": 6211,
      "çap": 6212,
      "işlen": 6213,
      " köt": 6214,
      "kuruluş": 6215,
      "halinde ": 6216,
      "tim": 6217,
      "ağan": 6218,
      " yani ": 6219,
      "pir": 6220,
      " kez ": 6221,
      "elde edilen ": 6222,
      "biş": 6223,
      "gibi, ": 6224,
      "9 - ": 6225,
      "ecektir": 6226,
      "öğretim ": 6227,
      "nad": 6228,
      "Wil": 6229,
      "ondan ": 6230,
      "umara ": 6231,
      "4 - ": 6232,
      "döneminde ": 6233,
      "Eğit": 6234,
      "dahi ": 6235,
      "Man": 6236,
      " top": 6237,
      "kullanımı ": 6238,
      "demek ": 6239,
      "ine de ": 6240,
      "nedeni ": 6241,
      "mekan": 6242,
      "duyur": 6243,
      "gerek yok ": 6244,
      "ayında ": 6245,
      "2 - ": 6246,
      "oca ": 6247,
      "ısız ": 6248,
      "EY": 6249,
      "tutul": 6250,
      "00 ": 6251,
      "as ": 6252,
      "etten ": 6253,
      " Ekim ": 6254,
      " the ": 6255,
      "maş": 6256,
      "azi ": 6257,
      "Hay": 6258,
      "sektör": 6259,
      "adet ": 6260,
      "sahibi ": 6261,
      "1 - ": 6262,
      " kil": 6263,
      "Mal": 6264,
      "horm": 6265,
      "ınc": 6266,
      "adını ": 6267,
      "harika bir ": 6268,
      "çıkart": 6269,
      "me, ": 6270,
      "8 - ": 6271,
      "İspan": 6272,
      " tarihinde ": 6273,
      "şair": 6274,
      "ettiğini ": 6275,
      "derim ": 6276,
      "(d. 18": 6277,
      "ho": 6278,
      "uygun": 6279,
      "ılarını ": 6280,
      "türk": 6281,
      "iyim ": 6282,
      " Aralık ": 6283,
      "ıcı": 6284,
      ". Çünkü ": 6285,
      "İnsan ": 6286,
      "'ne ": 6287,
      "3 - ": 6288,
      "sahneleri ": 6289,
      " veya ": 6290,
      "arkadaşlar ": 6291,
      "yayım": 6292,
      "hik": 6293,
      "hastan": 6294,
      "evl": 6295,
      "çocuğun ": 6296,
      "önlem": 6297,
      " J": 6298,
      "Tavsiye ederim": 6299,
      "ını": 6300,
      "trans": 6301,
      "görür": 6302,
      "yakal": 6303,
      "erkez ": 6304,
      "amas": 6305,
      "sup": 6306,
      "gerekiyor": 6307,
      "ilişki ": 6308,
      "Aş": 6309,
      "yoğun": 6310,
      "ebileceğ": 6311,
      "yaşadığı ": 6312,
      "mekten ": 6313,
      "azz": 6314,
      "Ham": 6315,
      " test": 6316,
      "yle ": 6317,
      "esk": 6318,
      "imar": 6319,
      "orj": 6320,
      "lanmıştır": 6321,
      "senar": 6322,
      "2-": 6323,
      "IS": 6324,
      " un ": 6325,
      "-ı ": 6326,
      "bu filme ": 6327,
      " İl": 6328,
      "KK": 6329,
      "işlev": 6330,
      "denem": 6331,
      "erkek": 6332,
      "ât": 6333,
      "lik ve ": 6334,
      "6 - ": 6335,
      "akta ": 6336,
      "zorun": 6337,
      "filmler ": 6338,
      ">>": 6339,
      "durumda ": 6340,
      "klasik ": 6341,
      "enen ": 6342,
      "ları arasında ": 6343,
      " yan": 6344,
      "oda ": 6345,
      "Oğ": 6346,
      "alığı ": 6347,
      "dahil": 6348,
      "ağz": 6349,
      " Başkanı ": 6350,
      ". Baş": 6351,
      " hiç": 6352,
      "ücret": 6353,
      "iyot": 6354,
      "bakımından ": 6355,
      ". En ": 6356,
      "bir kez ": 6357,
      "çerçev": 6358,
      "İngilter": 6359,
      "mediği ": 6360,
      "semptom": 6361,
      "hayatı ": 6362,
      "ideal": 6363,
      "matemat": 6364,
      "ni ": 6365,
      "eniz ": 6366,
      "eylem": 6367,
      "ÜZ": 6368,
      "önemlidir": 6369,
      "Araştır": 6370,
      "ion ": 6371,
      "Mehmet ": 6372,
      "sonuna kadar ": 6373,
      "s, ": 6374,
      " karakter": 6375,
      "e-": 6376,
      "hend": 6377,
      "olmasına rağmen ": 6378,
      "hayatta ": 6379,
      "bunların ": 6380,
      "kapsamında ": 6381,
      "hük": 6382,
      "sağlayan ": 6383,
      "sorum": 6384,
      "olan bir ": 6385,
      "ait ": 6386,
      "özelliği ": 6387,
      "eğen": 6388,
      "söz konusu ": 6389,
      "egen": 6390,
      "eksik ": 6391,
      "enz": 6392,
      "Anadolu ": 6393,
      "ler.": 6394,
      "ihtiyac": 6395,
      "eygam": 6396,
      "iyatro": 6397,
      "yakış": 6398,
      "Kıs": 6399,
      "Res": 6400,
      "ildiği ": 6401,
      "eniz": 6402,
      "rez": 6403,
      "akadem": 6404,
      " Kasım ": 6405,
      "arz": 6406,
      "renk ": 6407,
      " 3": 6408,
      "şiddetle ": 6409,
      "zat": 6410,
      "hil": 6411,
      "alak": 6412,
      "edim": 6413,
      " dil": 6414,
      "Prima ": 6415,
      "soru ": 6416,
      "üretim ": 6417,
      "Sadece ": 6418,
      "orada ": 6419,
      "pot": 6420,
      "ihtim": 6421,
      "kız ": 6422,
      "meş": 6423,
      "Gül": 6424,
      "kök": 6425,
      "endrom": 6426,
      "söyledi ": 6427,
      "Hızlı ": 6428,
      "esin": 6429,
      "sıradan ": 6430,
      "adlandır": 6431,
      " tem": 6432,
      "edici ": 6433,
      "duygusal": 6434,
      "ıdaki ": 6435,
      "kitaplarını ": 6436,
      "u'nun ": 6437,
      "akşam ": 6438,
      "Bazı ": 6439,
      "., ": 6440,
      "Tab": 6441,
      "zir": 6442,
      "ep ": 6443,
      "ga ": 6444,
      "Sar": 6445,
      "uyandır": 6446,
      "fl": 6447,
      "bir tan": 6448,
      "ıydı": 6449,
      "i)": 6450,
      "elerinden ": 6451,
      "okuyor": 6452,
      "tutuk": 6453,
      "fiyat ": 6454,
      "amamış": 6455,
      "limat": 6456,
      "BM": 6457,
      "anlaşıl": 6458,
      "profesyon": 6459,
      "oğlum ": 6460,
      "ir ve ": 6461,
      "dek": 6462,
      "sabah": 6463,
      "Sonuç": 6464,
      " Haziran ": 6465,
      "prote": 6466,
      "bölgeler": 6467,
      "arttır": 6468,
      "aktif": 6469,
      "mesinin ": 6470,
      "yatır": 6471,
      "SS": 6472,
      "bozul": 6473,
      "eceğiz": 6474,
      "5 - ": 6475,
      "ayrı bir ": 6476,
      "ende ": 6477,
      "izlemeye ": 6478,
      "üzül": 6479,
      "izm": 6480,
      "Diğer ": 6481,
      "eyr": 6482,
      "uzun süre ": 6483,
      "ted": 6484,
      "tüğ": 6485,
      "rı ": 6486,
      "zorunda kal": 6487,
      "ezi ": 6488,
      "ettik": 6489,
      "sıkıntı ": 6490,
      "la ilgili ": 6491,
      "kanlığı ": 6492,
      " sadece ": 6493,
      "kitabını ": 6494,
      "one ": 6495,
      "ıyor.": 6496,
      "amayı ": 6497,
      "Neden ": 6498,
      "amın ": 6499,
      "ülkenin ": 6500,
      "güney": 6501,
      "öykü": 6502,
      "dukları ": 6503,
      "etmey": 6504,
      "doy": 6505,
      "acağınız ": 6506,
      "enleri ": 6507,
      "işin ": 6508,
      "fazlasıyla ": 6509,
      "tef": 6510,
      "cen": 6511,
      "ızda ": 6512,
      "Benim ": 6513,
      "yıld": 6514,
      "kullandım ": 6515,
      "Erdoğan ": 6516,
      "adeta ": 6517,
      "sist": 6518,
      " gid": 6519,
      "etmem": 6520,
      "vardı": 6521,
      "amayan ": 6522,
      "elem": 6523,
      "enerbah": 6524,
      "ığının ": 6525,
      "Dış": 6526,
      "aklan": 6527,
      "adiş": 6528,
      "mekte ": 6529,
      "Fer": 6530,
      "ack ": 6531,
      "ilerinden ": 6532,
      "matik ": 6533,
      "ter ": 6534,
      "zamanla ": 6535,
      "'daki ": 6536,
      "olacaktır": 6537,
      "gayet iyi ": 6538,
      "katk": 6539,
      " Ocak ": 6540,
      "kov": 6541,
      "ond": 6542,
      "ıca, ": 6543,
      "AZ": 6544,
      "gın": 6545,
      "kın": 6546,
      "rahim ": 6547,
      "sırada ": 6548,
      " hafta ": 6549,
      "alatasar": 6550,
      "enizi ": 6551,
      "tarzı ": 6552,
      "iyo": 6553,
      "esin ": 6554,
      "nok": 6555,
      "John ": 6556,
      "çok beğend": 6557,
      "fiyatı ": 6558,
      "usunu ": 6559,
      "biçimde ": 6560,
      "iltih": 6561,
      "yerini ": 6562,
      "olursa ": 6563,
      "yerleştir": 6564,
      "filmdeki ": 6565,
      "istey": 6566,
      "kamp": 6567,
      "ack": 6568,
      "İŞ": 6569,
      "Mu": 6570,
      "yapım": 6571,
      "dikleri ": 6572,
      "lardaki ": 6573,
      "Üç": 6574,
      "iğin ": 6575,
      "malzem": 6576,
      " bırak": 6577,
      "YOR": 6578,
      "dör": 6579,
      "avantaj": 6580,
      "toprak": 6581,
      ", K": 6582,
      "oğlu, ": 6583,
      "genel olarak ": 6584,
      "ürünün ": 6585,
      "kararı ": 6586,
      "right": 6587,
      " tür": 6588,
      "abı ": 6589,
      "duruyor": 6590,
      "yaralan": 6591,
      " dakik": 6592,
      "ocuk": 6593,
      " 2": 6594,
      "şer": 6595,
      "ki de ": 6596,
      "yar ": 6597,
      "hastalık ": 6598,
      "ne yap": 6599,
      " güzel": 6600,
      "mesiyle ": 6601,
      "alanda ": 6602,
      "Müz": 6603,
      "Mur": 6604,
      "karar ": 6605,
      "fet": 6606,
      "gerçekten çok ": 6607,
      "Kend": 6608,
      "olsun": 6609,
      "teşhis": 6610,
      "emez ": 6611,
      ". Aynı ": 6612,
      "puan ": 6613,
      "ektif": 6614,
      "mesl": 6615,
      "muk": 6616,
      "çalışan ": 6617,
      "dü.": 6618,
      " Ağustos": 6619,
      "dile getir": 6620,
      ", B": 6621,
      "Teşekkürler": 6622,
      "Fat": 6623,
      "IV": 6624,
      ", bir ": 6625,
      "İsv": 6626,
      "inizde ": 6627,
      "bu tür": 6628,
      "tam bir ": 6629,
      "usunun ": 6630,
      "sevg": 6631,
      "öncelikle ": 6632,
      "ans ": 6633,
      "yukar": 6634,
      "başlangıç": 6635,
      "Car": 6636,
      "Ek": 6637,
      "imi": 6638,
      "eğe ": 6639,
      "hastalığın ": 6640,
      "Kral": 6641,
      "tam olarak ": 6642,
      "kural": 6643,
      "dikkat çek": 6644,
      "heyecan": 6645,
      "aynak ": 6646,
      "tedavisi ": 6647,
      "destekl": 6648,
      "ılaş": 6649,
      "atın ": 6650,
      "tım": 6651,
      "ordu": 6652,
      "üzün": 6653,
      "mıyor ": 6654,
      "çözüm ": 6655,
      "Avus": 6656,
      "peş": 6657,
      "AF": 6658,
      "OL": 6659,
      "tok": 6660,
      "ha ": 6661,
      "ıyorsunuz ": 6662,
      "fant": 6663,
      "eğini ": 6664,
      "şehr": 6665,
      "bert": 6666,
      "ılmış ": 6667,
      "egzersiz": 6668,
      "yemek ": 6669,
      " oluştur": 6670,
      "alarına ": 6671,
      "ıdır.": 6672,
      "sez": 6673,
      "iyordu ": 6674,
      "kısm": 6675,
      "bırakt": 6676,
      "bu kitabı ": 6677,
      "ılmaz": 6678,
      "Hiç": 6679,
      "şaşırt": 6680,
      "niyet": 6681,
      "mayın": 6682,
      "dı, ": 6683,
      "nde ": 6684,
      "zorlan": 6685,
      " bağ": 6686,
      "bulunur": 6687,
      "resmen ": 6688,
      "Yazarın ": 6689,
      "ayrınt": 6690,
      "senaryo ": 6691,
      "val": 6692,
      " tedav": 6693,
      "iddia ": 6694,
      "Filmde ": 6695,
      "Düş": 6696,
      "canlı ": 6697,
      "larındaki ": 6698,
      "soruştur": 6699,
      "ol ": 6700,
      "alışver": 6701,
      "adamın ": 6702,
      "uzat": 6703,
      "okumak ": 6704,
      "acık ": 6705,
      "Şah": 6706,
      " mi ": 6707,
      "AV": 6708,
      "dır ": 6709,
      "wood": 6710,
      "ik, ": 6711,
      ". Eğer ": 6712,
      "performansı ": 6713,
      "hastaların ": 6714,
      "uluslararası ": 6715,
      "yiy": 6716,
      "birinin ": 6717,
      "hayran ": 6718,
      "ırsız": 6719,
      " saat ": 6720,
      "Anah": 6721,
      "kullanılır": 6722,
      "7 - ": 6723,
      ". Hast": 6724,
      "mer ": 6725,
      "tehd": 6726,
      "iğer": 6727,
      "Tavsiye ": 6728,
      "imi, ": 6729,
      "değin": 6730,
      "mıştı ": 6731,
      "teor": 6732,
      "prima": 6733,
      "inter": 6734,
      "kayıt": 6735,
      "satın ": 6736,
      "işler": 6737,
      " tane ": 6738,
      "yazıl": 6739,
      "Alt": 6740,
      "'ı ": 6741,
      "ata ": 6742,
      "34": 6743,
      "1,": 6744,
      "süt": 6745,
      "ıb": 6746,
      "Af": 6747,
      "net ": 6748,
      "tavsiye ediyorum ": 6749,
      "mill": 6750,
      "üye ": 6751,
      "siyet": 6752,
      "ya'da ": 6753,
      "ünya ": 6754,
      "ilk kez ": 6755,
      "alerj": 6756,
      "ısın": 6757,
      "olduğuna ": 6758,
      "Bakanı ": 6759,
      "DP": 6760,
      "benim": 6761,
      "yum ": 6762,
      "bir şey ": 6763,
      "malıdır.": 6764,
      "okrat": 6765,
      "telev": 6766,
      "ödem": 6767,
      "ması gereken bir ": 6768,
      "kelime ": 6769,
      "maalesef": 6770,
      "se, ": 6771,
      "alb": 6772,
      "ımla ": 6773,
      "g ": 6774,
      "o b": 6775,
      "gercekten ": 6776,
      "3.": 6777,
      "imler ": 6778,
      "lider": 6779,
      "obil": 6780,
      "an B": 6781,
      "un, ": 6782,
      "sorunu ": 6783,
      "f ": 6784,
      "Fran": 6785,
      "güv": 6786,
      "hic": 6787,
      "Abd": 6788,
      "diren": 6789,
      "hayatın ": 6790,
      " ağr": 6791,
      " günde ": 6792,
      " başarılı ": 6793,
      "manız ": 6794,
      "becer": 6795,
      "meme ": 6796,
      "birinci ": 6797,
      "bir çok ": 6798,
      "esi ile ": 6799,
      "alıp ": 6800,
      "ayla ": 6801,
      "lar arasında ": 6802,
      "oğu ": 6803,
      "ürünü": 6804,
      " olmas": 6805,
      "yayı ": 6806,
      "mikro": 6807,
      "hazırlan": 6808,
      "şirket": 6809,
      "me ve ": 6810,
      "insana ": 6811,
      "Birleşik ": 6812,
      "hakkını ": 6813,
      "canlandır": 6814,
      "tatmin ": 6815,
      "hid": 6816,
      "düşünür": 6817,
      "cep": 6818,
      "Un": 6819,
      "lemek için ": 6820,
      ". Ben ": 6821,
      "sıkınt": 6822,
      "büyüm": 6823,
      "süreci ": 6824,
      "azen ": 6825,
      "uygulam": 6826,
      "Hem ": 6827,
      "yen ": 6828,
      "atır": 6829,
      "durul": 6830,
      "kalıcı ": 6831,
      "amacı ": 6832,
      "yasal": 6833,
      "dos": 6834,
      "sayg": 6835,
      "3-": 6836,
      "igi ": 6837,
      "’e ": 6838,
      " Mil": 6839,
      "bağışıklık ": 6840,
      "ork": 6841,
      "üstüne ": 6842,
      "yönetmen": 6843,
      "süper": 6844,
      "vad": 6845,
      "izlediğ": 6846,
      ". Er": 6847,
      "bunları ": 6848,
      "acaba ": 6849,
      "mahk": 6850,
      "zamanında ": 6851,
      "rol oyn": 6852,
      "ümü ": 6853,
      "üslüm": 6854,
      "pozit": 6855,
      "antin": 6856,
      "okut": 6857,
      "doğrudan ": 6858,
      "edilmesi ": 6859,
      "sinemada ": 6860,
      "yer yer ": 6861,
      "gündem": 6862,
      " değil ": 6863,
      "kış": 6864,
      "ağaç": 6865,
      " AL": 6866,
      "o s": 6867,
      "atan ": 6868,
      "pil": 6869,
      "yinede ": 6870,
      "şeyler": 6871,
      " kan": 6872,
      "unda, ": 6873,
      "38": 6874,
      "sı ": 6875,
      "birden ": 6876,
      "filmini ": 6877,
      "zevk ": 6878,
      "emem": 6879,
      "buy": 6880,
      "ayar ": 6881,
      "mayacak ": 6882,
      "Tüm ": 6883,
      "barındır": 6884,
      "ileri": 6885,
      "ica ": 6886,
      "-19": 6887,
      "ise, ": 6888,
      "anlayış": 6889,
      "stres": 6890,
      "güzel bir film ": 6891,
      "oç": 6892,
      "pah": 6893,
      "usuna ": 6894,
      " mi?": 6895,
      "uya ": 6896,
      "ire ": 6897,
      "durumunda ": 6898,
      "birer ": 6899,
      "anlar için ": 6900,
      " ÇOK": 6901,
      "eler, ": 6902,
      "anlamına ": 6903,
      "Hastan": 6904,
      " yöntem": 6905,
      "kahraman": 6906,
      "iyorlar": 6907,
      "şeyi ": 6908,
      "!”": 6909,
      "esindeki ": 6910,
      " hay": 6911,
      "Amerika ": 6912,
      ". Bu nedenle ": 6913,
      "derecede ": 6914,
      "vekili ": 6915,
      "’un ": 6916,
      "ırt": 6917,
      "isi ve ": 6918,
      "Amerikan ": 6919,
      "Atatür": 6920,
      "di ve ": 6921,
      "tu.": 6922,
      " kendi ": 6923,
      " te ": 6924,
      "sergil": 6925,
      "indey": 6926,
      "gur": 6927,
      "im için ": 6928,
      "göç": 6929,
      "olmadan ": 6930,
      "keşf": 6931,
      "espr": 6932,
      "edip": 6933,
      "yoloj": 6934,
      "CE": 6935,
      "uyku ": 6936,
      "ana kadar ": 6937,
      "Doğu ": 6938,
      "bütün": 6939,
      ". Ayr": 6940,
      "bilinç": 6941,
      "hikayesi ": 6942,
      "afet": 6943,
      "liğine ": 6944,
      "Dİ": 6945,
      "YA": 6946,
      "Bağ": 6947,
      "ılı": 6948,
      "itik ": 6949,
      "âm ": 6950,
      "ekkur": 6951,
      "serbest": 6952,
      "bayr": 6953,
      "upright": 6954,
      "Suriye ": 6955,
      "ıldı ": 6956,
      "Demir": 6957,
      "nn": 6958,
      "okras": 6959,
      "resmi ": 6960,
      "görsel": 6961,
      ". Or": 6962,
      "fer ": 6963,
      "saydı ": 6964,
      "eşiktaş": 6965,
      "derin ": 6966,
      "hitap": 6967,
      "biri": 6968,
      "görünüyor": 6969,
      "mı?": 6970,
      "aral": 6971,
      "uma git": 6972,
      "Fenerbah": 6973,
      "zeme ": 6974,
      "modern ": 6975,
      "Sp": 6976,
      "döv": 6977,
      "atmos": 6978,
      "mesinde ": 6979,
      "olacağını ": 6980,
      "insanlara ": 6981,
      "göğ": 6982,
      "kokusu ": 6983,
      "lim": 6984,
      "ron": 6985,
      "ın ve ": 6986,
      "güçlü": 6987,
      "ır ve ": 6988,
      "ortadan ": 6989,
      "etkileyen ": 6990,
      "kazandır": 6991,
      "ölçüde ": 6992,
      "dedir": 6993,
      "İsr": 6994,
      "mış ve ": 6995,
      " olay": 6996,
      "mak istey": 6997,
      "anlatımı ": 6998,
      "uygulama ": 6999,
      "Bat": 7000,
      "lar y": 7001,
      " söz": 7002,
      "rr": 7003,
      "Val": 7004,
      ". Örn": 7005,
      "uzman": 7006,
      "pas": 7007,
      "kişiler ": 7008,
      "saat ": 7009,
      "lediği ": 7010,
      "İtalyan ": 7011,
      "olar ": 7012,
      "Olay": 7013,
      "5-": 7014,
      " Ak": 7015,
      "birleş": 7016,
      "mm": 7017,
      "aklık": 7018,
      "mamız ": 7019,
      "kaş": 7020,
      "yarış": 7021,
      "birbirine ": 7022,
      "duyar": 7023,
      "başı ": 7024,
      "imi ve ": 7025,
      "ladığı ": 7026,
      "Biz": 7027,
      "süz ": 7028,
      "en azından ": 7029,
      "31": 7030,
      "ilan ": 7031,
      "müdahale ": 7032,
      "Galatasar": 7033,
      " Par": 7034,
      "ya ve ": 7035,
      "seyirc": 7036,
      " hakkında ": 7037,
      " kab": 7038,
      "verir": 7039,
      "Kul": 7040,
      "güzel ve ": 7041,
      "buldum ": 7042,
      "düşündüğ": 7043,
      "ıpkı ": 7044,
      "bence": 7045,
      "rem": 7046,
      "bu filmin ": 7047,
      "?”": 7048,
      "mu ": 7049,
      "--": 7050,
      " ye ": 7051,
      "lin ": 7052,
      "kalite ": 7053,
      "başlar": 7054,
      "önerir": 7055,
      "otom": 7056,
      "8 10": 7057,
      "AA": 7058,
      "ünüz": 7059,
      ". Ve ": 7060,
      "geb": 7061,
      "ansiy": 7062,
      "uzun": 7063,
      "zarar ver": 7064,
      " doğr": 7065,
      "inin, ": 7066,
      "diyebilir": 7067,
      "Re": 7068,
      " yaş ": 7069,
      "ı'nda ": 7070,
      "stand": 7071,
      " sonuç": 7072,
      "bakter": 7073,
      "ahat": 7074,
      "uyum ": 7075,
      "farkı ": 7076,
      "yurt": 7077,
      " Bir ": 7078,
      "upright=": 7079,
      "liğinde ": 7080,
      "i-": 7081,
      "birini ": 7082,
      "vide": 7083,
      "kişilerin ": 7084,
      "lardan biri ": 7085,
      "Uygul": 7086,
      "isim ": 7087,
      "arkadaşlar": 7088,
      " git": 7089,
      "degil": 7090,
      "fazl": 7091,
      "eğil": 7092,
      " Genel ": 7093,
      "eline ": 7094,
      "pet": 7095,
      "normal ": 7096,
      "üstünde ": 7097,
      "işkin": 7098,
      "fen ": 7099,
      " Ben ": 7100,
      "değişik ": 7101,
      "miy": 7102,
      "sanatç": 7103,
      "okuma ": 7104,
      ". Gün": 7105,
      "ben de ": 7106,
      "belirten ": 7107,
      "Ma": 7108,
      "siv": 7109,
      "demir": 7110,
      "olarak, ": 7111,
      "meli": 7112,
      "adişah": 7113,
      "reh": 7114,
      "acağız": 7115,
      "doğum ": 7116,
      "tral": 7117,
      "ink": 7118,
      "dışar": 7119,
      " kadar": 7120,
      "ha": 7121,
      "edecek ": 7122,
      "yenil": 7123,
      "liğin ": 7124,
      "İslam ": 7125,
      "dıktan sonra ": 7126,
      "sizlik ": 7127,
      "romantik ": 7128,
      " sonrası ": 7129,
      "beyaz": 7130,
      "gelenek": 7131,
      "190": 7132,
      "Ülk": 7133,
      "düm": 7134,
      "sem ": 7135,
      "gem": 7136,
      "gan": 7137,
      "derin": 7138,
      "alarak ": 7139,
      "yeş": 7140,
      ". İşte ": 7141,
      "tü ": 7142,
      "alardan ": 7143,
      "askeri ": 7144,
      "iğe ": 7145,
      "herkes ": 7146,
      "mor": 7147,
      "teslimat": 7148,
      " kaliteli ": 7149,
      "Açık": 7150,
      "yüzey": 7151,
      "İB": 7152,
      "güvenlik ": 7153,
      "lerim ": 7154,
      "ele alın": 7155,
      "Belirt": 7156,
      "liy": 7157,
      "hissettir": 7158,
      " bir kitap": 7159,
      "l ": 7160,
      "13 ": 7161,
      "ihtiyaç ": 7162,
      "taz": 7163,
      "tıb": 7164,
      "redd": 7165,
      "akc": 7166,
      "ilk defa ": 7167,
      "gözük": 7168,
      "====": 7169,
      "emedim ": 7170,
      "A ": 7171,
      "etmen ": 7172,
      "olmaz ": 7173,
      "bir araya ": 7174,
      "onlar ": 7175,
      "tanıt": 7176,
      "ından, ": 7177,
      "Sır": 7178,
      "lamak ": 7179,
      "gören ": 7180,
      "bozukluk": 7181,
      "Tek": 7182,
      "anc": 7183,
      "Kaynakça": 7184,
      "tanın": 7185,
      " bölüm": 7186,
      "ihtiyacı ": 7187,
      "Kalit": 7188,
      "bir de ": 7189,
      "usu": 7190,
      "esiz": 7191,
      "Yah": 7192,
      "duygu ": 7193,
      " kol": 7194,
      "sıvı ": 7195,
      "işaret ": 7196,
      "ardeş": 7197,
      "Arkadaş": 7198,
      "İLM": 7199,
      "2021": 7200,
      "motor": 7201,
      "mide ": 7202,
      "Ankar": 7203,
      "önceden ": 7204,
      "keşke ": 7205,
      "ılara ": 7206,
      " tek ": 7207,
      "azar ": 7208,
      "Kol": 7209,
      "O ": 7210,
      "deterj": 7211,
      "kullanım ": 7212,
      "zarar": 7213,
      "Sam": 7214,
      "işç": 7215,
      "ıcı ve ": 7216,
      "laması ": 7217,
      "mahal": 7218,
      " beb": 7219,
      "siyah": 7220,
      "yakalan": 7221,
      "yol ": 7222,
      "uygulanan ": 7223,
      ": K": 7224,
      "ded": 7225,
      "amadan ": 7226,
      "kalır": 7227,
      "aldı": 7228,
      "hek": 7229,
      "avuk": 7230,
      "dünyaya ": 7231,
      "sosyal med": 7232,
      "hâ": 7233,
      "65": 7234,
      "kanser ": 7235,
      "açıklan": 7236,
      ", H": 7237,
      "çizgi ": 7238,
      "hastalığı ": 7239,
      "Fark": 7240,
      "ham ": 7241,
      "ook ": 7242,
      "haber ": 7243,
      "eral": 7244,
      "anlatım ": 7245,
      "mek ve ": 7246,
      "New": 7247,
      "için de ": 7248,
      "istik ": 7249,
      "muay": 7250,
      "enj": 7251,
      " olsun ": 7252,
      "seçim ": 7253,
      "sade ": 7254,
      "asındaki ": 7255,
      "Türkiye nin ": 7256,
      " sınıf": 7257,
      "kadro": 7258,
      "anım": 7259,
      "ayak ": 7260,
      "usta ": 7261,
      ". Kend": 7262,
      "alanı ": 7263,
      "liğinin ": 7264,
      "genetik ": 7265,
      "ici": 7266,
      "Mad": 7267,
      "Ur": 7268,
      "evren": 7269,
      "izledik": 7270,
      "kuru ": 7271,
      "okunmalı": 7272,
      "mi?": 7273,
      "a kadar ": 7274,
      " boyunca ": 7275,
      "39": 7276,
      "Mısır": 7277,
      " kontrol": 7278,
      ", T": 7279,
      "ismi ": 7280,
      "riski ": 7281,
      "lukla ": 7282,
      "çağr": 7283,
      "iri ": 7284,
      "İşte ": 7285,
      "Sık": 7286,
      "uyan": 7287,
      " mod": 7288,
      "maruz ": 7289,
      "İS": 7290,
      "yararlan": 7291,
      "bir ürün": 7292,
      "ney": 7293,
      "ması gereken bir kitap": 7294,
      "Mat": 7295,
      "x ": 7296,
      "tp": 7297,
      "etim ": 7298,
      "belirtiler ": 7299,
      "etkin": 7300,
      "ası, ": 7301,
      "elen": 7302,
      "189": 7303,
      "öldürül": 7304,
      "nam": 7305,
      "bu fiyata ": 7306,
      "abah": 7307,
      "acağım": 7308,
      "(cid:27": 7309,
      "bon": 7310,
      "lig": 7311,
      "a gir": 7312,
      "cüml": 7313,
      " boz": 7314,
      " DE": 7315,
      "olsa da ": 7316,
      "beyin ": 7317,
      " yaşında ": 7318,
      "değerlendiril": 7319,
      " milyar ": 7320,
      "İmparator": 7321,
      "ukta ": 7322,
      "bebek": 7323,
      "dakik": 7324,
      "Asl": 7325,
      "48": 7326,
      "frag": 7327,
      ", ancak ": 7328,
      "sızlık ": 7329,
      "akın ": 7330,
      "günümüz": 7331,
      "oyunculuğ": 7332,
      " oluş": 7333,
      "gelen": 7334,
      "serv": 7335,
      "farklılık ": 7336,
      "kimse ": 7337,
      "lüt": 7338,
      "sefer": 7339,
      " yüzden ": 7340,
      "soğuk ": 7341,
      "stat": 7342,
      "liğe ": 7343,
      "bot": 7344,
      "ıyordu ": 7345,
      "eleri, ": 7346,
      "gösterir": 7347,
      "dışı ": 7348,
      "ortaya çıkan ": 7349,
      "our": 7350,
      "yapar": 7351,
      "içinden ": 7352,
      "gerekl": 7353,
      ": “": 7354,
      "kabul edil": 7355,
      "Mes": 7356,
      "görüntül": 7357,
      "yaşadığ": 7358,
      "Mac": 7359,
      "konul": 7360,
      "mümkün": 7361,
      "lı ve ": 7362,
      "oynamış": 7363,
      "okumuş": 7364,
      "İr": 7365,
      "sizlik": 7366,
      " seç": 7367,
      "yeten": 7368,
      "dıkları ": 7369,
      "ahş": 7370,
      "kaynaklan": 7371,
      "' ": 7372,
      "lığını ": 7373,
      "baya ": 7374,
      "etkileri ": 7375,
      "bir n": 7376,
      "sahnesi ": 7377,
      "alıp": 7378,
      "Dr": 7379,
      " olmak üzere ": 7380,
      ". Yap": 7381,
      "anlaşılır": 7382,
      "abz": 7383,
      "idi": 7384,
      "belirtileri ": 7385,
      "com ": 7386,
      " hikay": 7387,
      "süresi ": 7388,
      "Orta ": 7389,
      "vik ": 7390,
      "avv": 7391,
      "izleyin": 7392,
      "ansı ": 7393,
      "fiyatına göre ": 7394,
      "com": 7395,
      "ur?": 7396,
      "ağır ": 7397,
      "ılacak ": 7398,
      "izlemiş": 7399,
      "neden olabilir": 7400,
      "lez": 7401,
      "melidir": 7402,
      " İş": 7403,
      "tabii ": 7404,
      "memnun kaldım ": 7405,
      " (ö": 7406,
      "udi ": 7407,
      "bişey": 7408,
      "istediğ": 7409,
      "veri ": 7410,
      "- D": 7411,
      "yoktu ": 7412,
      "ından": 7413,
      "benzer": 7414,
      "Tedav": 7415,
      "ler arasında ": 7416,
      "OS": 7417,
      "hus": 7418,
      "şunu ": 7419,
      " Or": 7420,
      "ilgilen": 7421,
      "riskini ": 7422,
      "izlenebilir": 7423,
      "bu da ": 7424,
      "kullanılarak ": 7425,
      "geçti ": 7426,
      "çalışmada ": 7427,
      "aldığ": 7428,
      "una göre ": 7429,
      "ilerlem": 7430,
      "ebilirsiniz": 7431,
      "değerli ": 7432,
      "Söz": 7433,
      "i de ": 7434,
      "Tem": 7435,
      " yerine ": 7436,
      "lerimiz": 7437,
      "ucuz ": 7438,
      "kızım ": 7439,
      "el ve ": 7440,
      "gelince ": 7441,
      "eceksiniz": 7442,
      "umarım ": 7443,
      "ne zaman ": 7444,
      "beslenme ": 7445,
      "vücudun ": 7446,
      "ele geçir": 7447,
      "aciğer ": 7448,
      "filminde ": 7449,
      "oyuncular": 7450,
      "unutul": 7451,
      "kimi ": 7452,
      "olma ": 7453,
      "mem ": 7454,
      "oya ": 7455,
      "tiğini ": 7456,
      "çıkış": 7457,
      "inden": 7458,
      "o nun ": 7459,
      "tır.": 7460,
      "takdir": 7461,
      ". Ayrıca, ": 7462,
      "madı": 7463,
      "ediğim gibi ": 7464,
      "siburad": 7465,
      "işaret": 7466,
      " kul": 7467,
      "eşke ": 7468,
      "sevdiğim ": 7469,
      "elimeler": 7470,
      "a’nın ": 7471,
      "oterap": 7472,
      "İki ": 7473,
      "biri olarak ": 7474,
      "zengin ": 7475,
      "kötül": 7476,
      "elektr": 7477,
      "eddüt": 7478,
      "bağımsız ": 7479,
      "Şeh": 7480,
      "dağıt": 7481,
      "halk ": 7482,
      "ee": 7483,
      "otor": 7484,
      "hastalarda ": 7485,
      "gular": 7486,
      "ına": 7487,
      "kısa sürede ": 7488,
      "günde ": 7489,
      "işlem ": 7490,
      "Tam ": 7491,
      "mek, ": 7492,
      "görmek ": 7493,
      "Cam": 7494,
      "kalem": 7495,
      "ikinc": 7496,
      " diğer ": 7497,
      "Kıl": 7498,
      "Çünkü ": 7499,
      "operasyon": 7500,
      "44": 7501,
      "en iyisi ": 7502,
      "nda ": 7503,
      "nem": 7504,
      "ir?": 7505,
      " bölg": 7506,
      "Şimdi ": 7507,
      "güldür": 7508,
      "kin ": 7509,
      "diyalog": 7510,
      "çalı ": 7511,
      "larımız ": 7512,
      "ımını ": 7513,
      "Bay": 7514,
      "lazım": 7515,
      "ii": 7516,
      "beraber": 7517,
      ". İnsan": 7518,
      "iken ": 7519,
      "azır": 7520,
      "olarak da ": 7521,
      "tek bir ": 7522,
      "row": 7523,
      "(p": 7524,
      "etmektedir": 7525,
      "tek kelimeyle ": 7526,
      "zam": 7527,
      "75": 7528,
      "lanma ": 7529,
      "parametr": 7530,
      "TL": 7531,
      "ebiliyor": 7532,
      "daş": 7533,
      "sil ": 7534,
      "ord": 7535,
      "Kuzey": 7536,
      "arkad": 7537,
      "rahatlıkla ": 7538,
      "telefon": 7539,
      "alnız": 7540,
      "oyuncusu ": 7541,
      "lok": 7542,
      "özet": 7543,
      "baskı ": 7544,
      "seçim": 7545,
      "nitelik": 7546,
      "memesi ": 7547,
      "istatistiksel ": 7548,
      "Bun": 7549,
      "geldiği ": 7550,
      "Ürünü ": 7551,
      "gördüm ": 7552,
      "2013": 7553,
      "aktan ": 7554,
      "izyon ": 7555,
      "iel": 7556,
      "akar": 7557,
      " kullanıyorum ": 7558,
      "o k": 7559,
      "acası ": 7560,
      " Ay": 7561,
      "s. ": 7562,
      "çabuk ": 7563,
      "e.": 7564,
      " bun": 7565,
      "ick ": 7566,
      "açıklama ": 7567,
      "a'ya ": 7568,
      "okusu ": 7569,
      "Süley": 7570,
      "ici ve ": 7571,
      "o zaman ": 7572,
      "sıf": 7573,
      ". Ne ": 7574,
      "% ": 7575,
      "gin": 7576,
      "amaşır": 7577,
      "ont": 7578,
      "ağıt": 7579,
      "lerine göre ": 7580,
      "ladı": 7581,
      "diler": 7582,
      "olik ": 7583,
      "mak istem": 7584,
      "hizmet ": 7585,
      "Merkez": 7586,
      "amam": 7587,
      "anlam ": 7588,
      "trav": 7589,
      "ka": 7590,
      " sayf": 7591,
      "giderek ": 7592,
      "bilimsel ": 7593,
      "animasyon ": 7594,
      "188": 7595,
      "şikayet": 7596,
      "mav": 7597,
      " olup": 7598,
      "tepk": 7599,
      "alarca ": 7600,
      "al bir ": 7601,
      "abileceğini ": 7602,
      "dini ": 7603,
      " bey": 7604,
      "ai ": 7605,
      "isimli ": 7606,
      "Oku": 7607,
      "iğinde ": 7608,
      "yazdığı ": 7609,
      "rekl": 7610,
      "yapılmıştır": 7611,
      "iğine ": 7612,
      "beslen": 7613,
      "inizin ": 7614,
      "Mahkem": 7615,
      "sesi ": 7616,
      "müs": 7617,
      "ağın ": 7618,
      "post": 7619,
      "ometr": 7620,
      "miş ve ": 7621,
      "meliyat": 7622,
      "düşündür": 7623,
      "hayatını kayb": 7624,
      "Zaten ": 7625,
      "hendis": 7626,
      "sonra, ": 7627,
      "kırmızı ": 7628,
      "özellikleri ": 7629,
      "atör": 7630,
      "ak ve ": 7631,
      "mantık": 7632,
      "Şubat ": 7633,
      "ediliyor": 7634,
      " pu": 7635,
      "500": 7636,
      "uyum": 7637,
      "port": 7638,
      "tiyatro": 7639,
      "tanı ": 7640,
      "madde ": 7641,
      " (d. 19": 7642,
      "için çok ": 7643,
      "Anahtar ": 7644,
      "lasik ": 7645,
      "Yayın": 7646,
      " herkes": 7647,
      "lüğü": 7648,
      "yürüy": 7649,
      "ilecek ": 7650,
      "yaptı ": 7651,
      "IŞİD": 7652,
      "lardı": 7653,
      "lir": 7654,
      "aldı ": 7655,
      "çalışmalar ": 7656,
      "günümüzde ": 7657,
      "acaksınız ": 7658,
      "hemde ": 7659,
      "parçası ": 7660,
      "Gür": 7661,
      "lerken ": 7662,
      ". Ger": 7663,
      "adamı ": 7664,
      "Spor": 7665,
      "e’": 7666,
      " taş": 7667,
      "ari ": 7668,
      "Gayet": 7669,
      "ilah": 7670,
      "birbirinden ": 7671,
      "iğim ": 7672,
      "açıkçası ": 7673,
      "tem ": 7674,
      "yerden ": 7675,
      "bilmiyorum ": 7676,
      ". Bazı ": 7677,
      "iliyor": 7678,
      " sahibi ": 7679,
      "temiz": 7680,
      "yapılacak ": 7681,
      "analiz ": 7682,
      "Az": 7683,
      "US": 7684,
      "ılmıştır.": 7685,
      "sevgil": 7686,
      "baba ": 7687,
      "yitir": 7688,
      "malıy": 7689,
      "abilen ": 7690,
      "nak": 7691,
      "tahr": 7692,
      "danış": 7693,
      "mediğ": 7694,
      "abilirsiniz ": 7695,
      "lıyor": 7696,
      "aksiyon": 7697,
      "isten": 7698,
      "LAN": 7699,
      " grup": 7700,
      " her": 7701,
      "we": 7702,
      "değeri ": 7703,
      "ındadır": 7704,
      "Göz": 7705,
      "komp": 7706,
      "yerlerde ": 7707,
      "leşme ": 7708,
      "geri dön": 7709,
      "Çağ": 7710,
      "ilgi çek": 7711,
      "Sal": 7712,
      "duruş": 7713,
      "olmadı ": 7714,
      "abor": 7715,
      "laf": 7716,
      "yerine getir": 7717,
      " I": 7718,
      "ilmiş ": 7719,
      "kadının ": 7720,
      "ıklığı ": 7721,
      "her şeyi ": 7722,
      "elç": 7723,
      "performans ": 7724,
      "bed": 7725,
      "öş": 7726,
      "Yani ": 7727,
      "ladı ": 7728,
      "33": 7729,
      "yayıl": 7730,
      "larına göre ": 7731,
      "keyifli ": 7732,
      ". Fakat ": 7733,
      "endi": 7734,
      " kurul": 7735,
      "edildiği ": 7736,
      "anlatıl": 7737,
      "hiçbir şey": 7738,
      "mada, ": 7739,
      "III": 7740,
      "D ": 7741,
      "ımları ": 7742,
      "bir ç": 7743,
      "ıklarını ": 7744,
      "bu yana ": 7745,
      "ileri, ": 7746,
      " Kon": 7747,
      "estiv": 7748,
      "acağız ": 7749,
      "daha az ": 7750,
      "kum": 7751,
      "Cem": 7752,
      "oyuncular ": 7753,
      "detaylı ": 7754,
      "olmasını ": 7755,
      "ist ": 7756,
      "katkı ": 7757,
      "diyor": 7758,
      "gerektiği ": 7759,
      "ihr": 7760,
      " benim ": 7761,
      "meydana gelen ": 7762,
      "Mutlaka ": 7763,
      " kere ": 7764,
      "profesyonel ": 7765,
      " bana ": 7766,
      "Batı ": 7767,
      " a ": 7768,
      "inşa ": 7769,
      "düz ": 7770,
      "duktan sonra ": 7771,
      "Sultan ": 7772,
      "Evet": 7773,
      "gol": 7774,
      " yine ": 7775,
      "gösteriyor": 7776,
      "çocuklara ": 7777,
      "isi de ": 7778,
      "der ": 7779,
      "alnız ": 7780,
      "Türkiye de ": 7781,
      "4-": 7782,
      "ister ": 7783,
      "düzeyde ": 7784,
      "erek, ": 7785,
      ". İlk ": 7786,
      " sin": 7787,
      "alet ": 7788,
      "ân ": 7789,
      "muştur.": 7790,
      " kazan": 7791,
      "çi ve ": 7792,
      "olmuyor": 7793,
      "ücü": 7794,
      "deng": 7795,
      " dav": 7796,
      "Eski ": 7797,
      "Uluslararası ": 7798,
      "4.": 7799,
      "deg": 7800,
      " çok ": 7801,
      "mamak ": 7802,
      " Her ": 7803,
      "Eş": 7804,
      "biliyor": 7805,
      "oyunculuğu ": 7806,
      "karşısında ": 7807,
      "dram ": 7808,
      "Bebeğ": 7809,
      "​ ​": 7810,
      "inf": 7811,
      "Ölç": 7812,
      "hızla ": 7813,
      "AC": 7814,
      "'s": 7815,
      ". Dr": 7816,
      "parça ": 7817,
      "oldum ": 7818,
      "ülkede ": 7819,
      "Mem": 7820,
      "oto": 7821,
      "sorunsuz ": 7822,
      "aksine ": 7823,
      "süz": 7824,
      "olduğundan ": 7825,
      " söy": 7826,
      "Genç": 7827,
      "nitel": 7828,
      "Far": 7829,
      "doku": 7830,
      "üzg": 7831,
      "sorumlul": 7832,
      "biridir": 7833,
      "mıştı": 7834,
      "9 10": 7835,
      "St": 7836,
      "duygular": 7837,
      "cek": 7838,
      "hayv": 7839,
      "\" diye ": 7840,
      "Yol": 7841,
      "dille ": 7842,
      "Bah": 7843,
      "geliyor ": 7844,
      "anlamıyla ": 7845,
      " pol": 7846,
      "sona er": 7847,
      "yüzünden ": 7848,
      "ada": 7849,
      "buluş": 7850,
      "gerekç": 7851,
      "Met": 7852,
      " muh": 7853,
      "ız, ": 7854,
      "için aldım ": 7855,
      "Öncelikle ": 7856,
      "arat": 7857,
      "enc": 7858,
      "amerik": 7859,
      "1, ": 7860,
      "Dil": 7861,
      "Hüs": 7862,
      "'nun ": 7863,
      "esas": 7864,
      "enfeksiyon ": 7865,
      "elektrik ": 7866,
      "lığın ": 7867,
      "oluşturul": 7868,
      "önemlidir.": 7869,
      "üp ": 7870,
      "Gir": 7871,
      "liyor": 7872,
      "bir sür": 7873,
      "sus": 7874,
      " merkez": 7875,
      "olayısıyla ": 7876,
      "alışkanl": 7877,
      "6-": 7878,
      "’nın ": 7879,
      "mama ": 7880,
      "acakt": 7881,
      "zaman zaman ": 7882,
      "değil ama ": 7883,
      "yapı ": 7884,
      " Ol": 7885,
      "karıştır": 7886,
      "Cer": 7887,
      "meyin ": 7888,
      "le ilgili ": 7889,
      "o ve ": 7890,
      "canl": 7891,
      "yarım ": 7892,
      " yapan ": 7893,
      "olayı ": 7894,
      "Beşiktaş": 7895,
      " yak": 7896,
      "filmlerini ": 7897,
      "sefer ": 7898,
      "Mükemmel ": 7899,
      "dedim ": 7900,
      "Say": 7901,
      "'yi ": 7902,
      "düzenlenen ": 7903,
      "Kaz": 7904,
      "lum ": 7905,
      "yası ": 7906,
      "aldık ": 7907,
      "bomb": 7908,
      "inans": 7909,
      "kronik ": 7910,
      "intern": 7911,
      " W": 7912,
      "nö": 7913,
      "an'ın ": 7914,
      "ünlü ": 7915,
      "traf": 7916,
      " yeni ": 7917,
      "böyl": 7918,
      "belg": 7919,
      "vb": 7920,
      "uluk": 7921,
      "analizi ": 7922,
      "Milli ": 7923,
      "pek": 7924,
      "Yüz": 7925,
      "gelebilir": 7926,
      "ters": 7927,
      "tıkan": 7928,
      "bir kez daha ": 7929,
      "ular ": 7930,
      " topl": 7931,
      "olay ": 7932,
      "beg": 7933,
      " İst": 7934,
      "şeyleri ": 7935,
      "kısıt": 7936,
      "Süper ": 7937,
      " def": 7938,
      "Ge": 7939,
      "öf": 7940,
      "2,": 7941,
      " İÇ": 7942,
      "duk ": 7943,
      "\" dedi.": 7944,
      "en yüksek ": 7945,
      "haft": 7946,
      "bu film": 7947,
      "amasında ": 7948,
      "Arab": 7949,
      "miyor ": 7950,
      "Mus": 7951,
      "güçlendir": 7952,
      "yapmak ": 7953,
      "kişisel ": 7954,
      "Haberin Tamamı İç": 7955,
      "eleri ve ": 7956,
      "Şu ": 7957,
      "okuyun ": 7958,
      "ı-": 7959,
      "ibiyot": 7960,
      "20 ": 7961,
      "devlet ": 7962,
      ").": 7963,
      "görünce ": 7964,
      "go ": 7965,
      " son ": 7966,
      "sada ": 7967,
      "alma ": 7968,
      "lar d": 7969,
      "olup olma": 7970,
      "ker": 7971,
      "DI": 7972,
      "Çev": 7973,
      "toplum ": 7974,
      "gazetec": 7975,
      "baştan ": 7976,
      "konum": 7977,
      "Sah": 7978,
      "TÜ": 7979,
      "doğu ": 7980,
      "sürecinde ": 7981,
      "dönüştür": 7982,
      "İkinci ": 7983,
      "genin ": 7984,
      " yılı ": 7985,
      "internet": 7986,
      "Nur": 7987,
      "nas": 7988,
      "muş ": 7989,
      "sınav": 7990,
      "manızı ": 7991,
      "kullanılmıştır": 7992,
      "tekl": 7993,
      "gerçekçi ": 7994,
      "konuyu ": 7995,
      ". İn": 7996,
      "Afr": 7997,
      "edildi.": 7998,
      "teşekkür ederim": 7999,
      "eyh": 8000,
      "ığı, ": 8001,
      "genelde ": 8002,
      "kalitesini ": 8003,
      "vs": 8004,
      "genel": 8005,
      "mükemmel bir ": 8006,
      ". İl": 8007,
      "bu konuda ": 8008,
      "mayı başar": 8009,
      "tıbbi ": 8010,
      "ba ": 8011,
      "ki gibi ": 8012,
      "seyirler": 8013,
      "Tak": 8014,
      "çök": 8015,
      "strat": 8016,
      "uklu ": 8017,
      "burun ": 8018,
      "Ap": 8019,
      "işe yar": 8020,
      "coğraf": 8021,
      "hayr": 8022,
      "standart": 8023,
      "gaz": 8024,
      "almak ": 8025,
      "pazar": 8026,
      " r": 8027,
      "işini ": 8028,
      "add": 8029,
      "anında ": 8030,
      "ezil": 8031,
      " şekl": 8032,
      "müdahal": 8033,
      "Gök": 8034,
      "anlamak ": 8035,
      "okumaya ": 8036,
      "acaksınız": 8037,
      "Kitabın ": 8038,
      "ayi ": 8039,
      "unu, ": 8040,
      "sunul": 8041,
      "hitap ": 8042,
      "0,0": 8043,
      "maların ": 8044,
      "Kemal ": 8045,
      "alkol": 8046,
      "bulunuyor": 8047,
      "ekle ": 8048,
      "tespit": 8049,
      "pis": 8050,
      "ess": 8051,
      "on, ": 8052,
      "gök": 8053,
      "Kurulu ": 8054,
      " tam ": 8055,
      "fikr": 8056,
      "cık": 8057,
      "Kurul": 8058,
      "mahkem": 8059,
      "belirter": 8060,
      "açıklamada ": 8061,
      "Sağlık ": 8062,
      "düşünce ": 8063,
      "bağlant": 8064,
      "yardımcı olur": 8065,
      "kanal": 8066,
      "neden olur": 8067,
      "kaybı ": 8068,
      "dan, ": 8069,
      "çok güzel bir ": 8070,
      "bölgede ": 8071,
      "faydalan": 8072,
      "nasıl bir ": 8073,
      "tecr": 8074,
      "eza ": 8075,
      "kitapta ": 8076,
      "ettim": 8077,
      "kanseri ": 8078,
      "Kas": 8079,
      "baktığ": 8080,
      "başarı ": 8081,
      "hele ": 8082,
      "30 ": 8083,
      "bana göre ": 8084,
      "şeyler ": 8085,
      "ötesi ": 8086,
      ". Bu durum": 8087,
      "yorgun": 8088,
      " bunu ": 8089,
      "eden bir ": 8090,
      "dizi ": 8091,
      "i olarak ": 8092,
      "Port": 8093,
      "kemik ": 8094,
      "bir kaç": 8095,
      " savaş": 8096,
      "oldu.": 8097,
      "değişiklik ": 8098,
      "atu": 8099,
      "başladı": 8100,
      "Yılmaz ": 8101,
      "masal": 8102,
      "Edeb": 8103,
      "yarı ": 8104,
      "potansiy": 8105,
      "Bunun ": 8106,
      "masın ": 8107,
      "etmiyor": 8108,
      "lüman ": 8109,
      "yeterince ": 8110,
      "lardır:": 8111,
      "Merhab": 8112,
      "verdi ": 8113,
      "ına, ": 8114,
      "sosyal ": 8115,
      "itibariyle ": 8116,
      "lanması ": 8117,
      "arasına ": 8118,
      "los": 8119,
      "Özel ": 8120,
      "iktid": 8121,
      "hissi ": 8122,
      "imk": 8123,
      "çalışmaları ": 8124,
      "komed": 8125,
      "kadar k": 8126,
      "gittim ": 8127,
      "AKP": 8128,
      " kişinin ": 8129,
      " tavsiye ederim": 8130,
      " AN": 8131,
      "rem ": 8132,
      "ik olarak ": 8133,
      ": S": 8134,
      "= ": 8135,
      "İçin ": 8136,
      " bas": 8137,
      "omur": 8138,
      "cek ": 8139,
      "eksiyon": 8140,
      "etmen": 8141,
      "PKK": 8142,
      " tekn": 8143,
      "abilmek için ": 8144,
      "Bab": 8145,
      "etkisini ": 8146,
      "temsil ": 8147,
      ". Fakat": 8148,
      "hır": 8149,
      "tepki ": 8150,
      "ayıp": 8151,
      "imza ": 8152,
      " Eylül": 8153,
      "emem ": 8154,
      "diğimiz ": 8155,
      "madan önce ": 8156,
      "Eb": 8157,
      "evin ": 8158,
      "ıcı bir ": 8159,
      "hayır": 8160,
      "yağmur": 8161,
      "İYE": 8162,
      "6.": 8163,
      "ıyla, ": 8164,
      "lara göre ": 8165,
      "Bakanlığı ": 8166,
      "ian ": 8167,
      "ile": 8168,
      "Yöntem": 8169,
      "dek ": 8170,
      "malarını ": 8171,
      "ebileceği ": 8172,
      ": \"": 8173,
      " Bak": 8174,
      "taşıyan ": 8175,
      "üfür": 8176,
      "Güneş": 8177,
      "Kah": 8178,
      "Rec": 8179,
      "gönül": 8180,
      "kar ": 8181,
      "osyal ": 8182,
      "eygamber": 8183,
      "iyice ": 8184,
      "anat": 8185,
      "ikl": 8186,
      "insel ": 8187,
      "tı ve ": 8188,
      "düzenlem": 8189,
      "55": 8190,
      "görülmüştür": 8191,
      " hem de ": 8192,
      "agr": 8193,
      "Yen": 8194,
      "şir": 8195,
      "lığa ": 8196,
      " harika ": 8197,
      "madığ": 8198,
      "orij": 8199,
      "emde ": 8200,
      "ge": 8201,
      "sindir": 8202,
      "lerinden biri ": 8203,
      "ski ": 8204,
      " bekl": 8205,
      "duğumuz ": 8206,
      "esi'nde ": 8207,
      "Fakat ": 8208,
      "dem ": 8209,
      "hac": 8210,
      "alandır": 8211,
      "komut": 8212,
      "ayarak ": 8213,
      "15 ": 8214,
      "dip": 8215,
      "ları için ": 8216,
      "olmadığ": 8217,
      " başka ": 8218,
      "filmlerin ": 8219,
      "olurdu ": 8220,
      "çiç": 8221,
      ". U": 8222,
      "ılarına ": 8223,
      "öğrencilerin ": 8224,
      "iletişim ": 8225,
      "eriş": 8226,
      "ders ": 8227,
      "yerel ": 8228,
      "beklediğ": 8229,
      " kavr": 8230,
      "2, ": 8231,
      "maktadır. Bu ": 8232,
      "yol açabilir": 8233,
      "mız": 8234,
      " puan ": 8235,
      "- M": 8236,
      "maması ": 8237,
      " dest": 8238,
      "çalışmanın ": 8239,
      "Rusya ": 8240,
      "uydu ": 8241,
      " hiss": 8242,
      "Teşekkürler ": 8243,
      "vizyon": 8244,
      "İYOR": 8245,
      "eğine ": 8246,
      " yıld": 8247,
      "mıyorum ": 8248,
      "Test": 8249,
      "imlerin ": 8250,
      " Ab": 8251,
      "Ken": 8252,
      "Yüksek ": 8253,
      "iyer": 8254,
      "elinden ": 8255,
      "cik": 8256,
      "ore ": 8257,
      "merakla ": 8258,
      "lan ": 8259,
      "bu yüzden ": 8260,
      "klin": 8261,
      " Ayrıca ": 8262,
      "ılardan ": 8263,
      "fayda ": 8264,
      "iş yap": 8265,
      "49": 8266,
      "zinc": 8267,
      "unu": 8268,
      "Yunan": 8269,
      "co": 8270,
      "rep": 8271,
      "idare ": 8272,
      "emi": 8273,
      "2000": 8274,
      "uyorum": 8275,
      " futbol": 8276,
      "bölümde ": 8277,
      "Fenerbahçe ": 8278,
      "fab": 8279,
      "47": 8280,
      "kapan": 8281,
      "Prof": 8282,
      "hale getir": 8283,
      "nüfus": 8284,
      "tusunda ": 8285,
      "a göre ": 8286,
      "altın ": 8287,
      "kapalı ": 8288,
      "savc": 8289,
      "ÜRÜN": 8290,
      "eminim ": 8291,
      "'ün ": 8292,
      "işletm": 8293,
      "iletiş": 8294,
      "Yer": 8295,
      " hak": 8296,
      "eleriyle ": 8297,
      "Fatih": 8298,
      "’nun ": 8299,
      "bir gün ": 8300,
      "karşılık ": 8301,
      "sağlar": 8302,
      "sün": 8303,
      "fantastik ": 8304,
      "Jam": 8305,
      "da çok ": 8306,
      "isyon ": 8307,
      "teşem": 8308,
      "kayg": 8309,
      "0.0": 8310,
      "Kim": 8311,
      "âz": 8312,
      "(%": 8313,
      "Mill": 8314,
      "tam": 8315,
      "ıldığında ": 8316,
      "en fazla ": 8317,
      "renc": 8318,
      ": B": 8319,
      "ta, ": 8320,
      " sit": 8321,
      "organiz": 8322,
      "ölçüm": 8323,
      "böbrek ": 8324,
      "temas": 8325,
      " düzen": 8326,
      "dikten sonra ": 8327,
      "stratej": 8328,
      "landı": 8329,
      "birlikte, ": 8330,
      " TL": 8331,
      "birliği ": 8332,
      "roj": 8333,
      " GÖ": 8334,
      "oluşur": 8335,
      "Med": 8336,
      "Kültür": 8337,
      "187": 8338,
      "Sav": 8339,
      "aul": 8340,
      "kendilerine ": 8341,
      "yatan ": 8342,
      " Ancak ": 8343,
      "Var": 8344,
      "dolayısıyla ": 8345,
      "dikkate ": 8346,
      "Tekn": 8347,
      "cal": 8348,
      "koc": 8349,
      "Lig": 8350,
      "um ve ": 8351,
      " konuş": 8352,
      "ılığıyla ": 8353,
      "solun": 8354,
      "Serinin ": 8355,
      "EŞ": 8356,
      "eği": 8357,
      "yer veril": 8358,
      "birleştir": 8359,
      "unç": 8360,
      "kütüphan": 8361,
      ",”": 8362,
      "fat": 8363,
      "açıklam": 8364,
      "geleceğ": 8365,
      " Kar": 8366,
      "- A": 8367,
      "Hat": 8368,
      "tv": 8369,
      "II, ": 8370,
      "â ": 8371,
      "kısmı ": 8372,
      "lere göre ": 8373,
      "şiddetli ": 8374,
      "kalb": 8375,
      "temsil": 8376,
      "inanç": 8377,
      "diyet": 8378,
      "takt": 8379,
      "sabit": 8380,
      "mür": 8381,
      "çok kaliteli ": 8382,
      "başından ": 8383,
      "acağına ": 8384,
      "aboratu": 8385,
      "taşın": 8386,
      "kavuş": 8387,
      "iyileşme ": 8388,
      "Lev": 8389,
      "basar": 8390,
      "kişiye ": 8391,
      "damar": 8392,
      "kül": 8393,
      " telef": 8394,
      "kendilerini ": 8395,
      "edin ": 8396,
      "yıllık ": 8397,
      "sonunu ": 8398,
      "tanın ": 8399,
      "tetik": 8400,
      "çalışıyor": 8401,
      "zor ": 8402,
      "mail": 8403,
      "uzman ": 8404,
      "o d": 8405,
      "vir": 8406,
      "oluşum": 8407,
      "85": 8408,
      "Kans": 8409,
      "verdi": 8410,
      "i için ": 8411,
      "iler ve ": 8412,
      "gülüm": 8413,
      "ml": 8414,
      "üler ": 8415,
      "id ": 8416,
      "anızı ": 8417,
      "bu tarz ": 8418,
      "igim ": 8419,
      "dahil ": 8420,
      "2022": 8421,
      "kendime ": 8422,
      "Mart": 8423,
      "amaktadır": 8424,
      "Ac": 8425,
      "okuyuc": 8426,
      "erin ": 8427,
      "etkinlik": 8428,
      "iet": 8429,
      "istih": 8430,
      "Çocuk ": 8431,
      ". Doğ": 8432,
      "gıd": 8433,
      "mış bir ": 8434,
      " tes": 8435,
      "alarla ": 8436,
      " kalitesi ": 8437,
      "DU": 8438,
      "Jos": 8439,
      "lerdeki ": 8440,
      "acak bir ": 8441,
      "Büyük": 8442,
      "akat": 8443,
      "harikay": 8444,
      "yılın ": 8445,
      "basit ": 8446,
      "zorluk": 8447,
      "Yard": 8448,
      " kans": 8449,
      "omet": 8450,
      "şunları ": 8451,
      "İran ": 8452,
      "madığını ": 8453,
      "bileş": 8454,
      "imizden ": 8455,
      "altern": 8456,
      "am ve ": 8457,
      "icinde ": 8458,
      "kullanıc": 8459,
      "çamaşır": 8460,
      "kafa ": 8461,
      "mişti ": 8462,
      "şef": 8463,
      "al ve ": 8464,
      "ümde ": 8465,
      "kitaplar": 8466,
      "Hind": 8467,
      "medi": 8468,
      "çok güzeldi ": 8469,
      " yıllık ": 8470,
      " kaçır": 8471,
      "det ": 8472,
      "liği, ": 8473,
      "ler ile ": 8474,
      "sağlık sorun": 8475,
      "dir.": 8476,
      "aklaşık ": 8477,
      "anlama": 8478,
      "LA": 8479,
      "lor": 8480,
      "eceğim": 8481,
      "belirli ": 8482,
      "düzelt": 8483,
      "İsrail": 8484,
      "Is": 8485,
      "ses ": 8486,
      "şüph": 8487,
      "bilgisayar ": 8488,
      "Ödülü": 8489,
      "urken ": 8490,
      "çok da ": 8491,
      "Davut": 8492,
      "Mü": 8493,
      "lav": 8494,
      "Zaman ": 8495,
      "set": 8496,
      "aka ": 8497,
      "uzay": 8498,
      "üvenlik ": 8499,
      "olmasına ": 8500,
      "Dan": 8501,
      "Faz": 8502,
      "isk": 8503,
      "andan ": 8504,
      "çizg": 8505,
      "çalışması ": 8506,
      "lywood": 8507,
      "harika": 8508,
      " ses": 8509,
      "bu durum": 8510,
      " vitam": 8511,
      "Tah": 8512,
      "malzeme ": 8513,
      "kolay ": 8514,
      "ayy": 8515,
      "görülebilir": 8516,
      "iyileştir": 8517,
      "NA": 8518,
      "çok sayıda ": 8519,
      "ebev": 8520,
      "şunlardır:": 8521,
      "onlar": 8522,
      "46": 8523,
      "adıyla ": 8524,
      "karanlık ": 8525,
      "indedir": 8526,
      "gereksiz": 8527,
      "ziyaret ": 8528,
      "nokta ": 8529,
      "gözler": 8530,
      "perd": 8531,
      "Karad": 8532,
      "vd": 8533,
      "ici bir ": 8534,
      "kaynak ": 8535,
      "lira ": 8536,
      "ağını ": 8537,
      "izleme ": 8538,
      "32": 8539,
      "beden": 8540,
      "cins": 8541,
      "oku ": 8542,
      "mış, ": 8543,
      "üket": 8544,
      "bulundur": 8545,
      "niteliğ": 8546,
      "yönlendir": 8547,
      ". Bununla ": 8548,
      "yah": 8549,
      " yavaş": 8550,
      "(d. 193": 8551,
      "7 10": 8552,
      "durdur": 8553,
      "birine ": 8554,
      "ideal ": 8555,
      "köş": 8556,
      " Yap": 8557,
      "gü ": 8558,
      " Av": 8559,
      "dönemin ": 8560,
      "ön plan": 8561,
      "avvuf": 8562,
      "ou": 8563,
      "Anahtar K": 8564,
      "ırp": 8565,
      "bür": 8566,
      "eor": 8567,
      "Trabz": 8568,
      "dünyas": 8569,
      "mol": 8570,
      "Hav": 8571,
      "2011": 8572,
      "resm": 8573,
      "miz": 8574,
      "türlü": 8575,
      "Nisan ": 8576,
      "sözc": 8577,
      "Aynı ": 8578,
      "çay": 8579,
      "masıdır": 8580,
      "için bir ": 8581,
      "bulgu": 8582,
      "başlıyor": 8583,
      "ru": 8584,
      "Haf": 8585,
      "Mich": 8586,
      "tras": 8587,
      "küçük bir ": 8588,
      " İÇİN": 8589,
      "gen ": 8590,
      "okul ": 8591,
      "toplumsal": 8592,
      "Bal": 8593,
      " böyle ": 8594,
      "tüy": 8595,
      "Muhammed": 8596,
      "liği": 8597,
      "problem ": 8598,
      "İd": 8599,
      "anak": 8600,
      "yöntem ": 8601,
      " yapıl": 8602,
      " konusunda ": 8603,
      "abb": 8604,
      "mesaf": 8605,
      "ılar, ": 8606,
      "kamu ": 8607,
      "omp": 8608,
      "içeriği ": 8609,
      "otob": 8610,
      "güs": 8611,
      "yonun ": 8612,
      " tüm ": 8613,
      "div": 8614,
      "basın": 8615,
      " ED": 8616,
      "sana ": 8617,
      "sıkılmadan ": 8618,
      "onda ": 8619,
      "taleb": 8620,
      "sebebi ": 8621,
      "var ama ": 8622,
      "yaptık": 8623,
      "olabilirdi ": 8624,
      "terk ": 8625,
      "çalıştır": 8626,
      "Osmanl": 8627,
      "larda, ": 8628,
      "aralarında ": 8629,
      "ash": 8630,
      "artan ": 8631,
      "göze ": 8632,
      "üstün ": 8633,
      "orjinal": 8634,
      "io ": 8635,
      " Parti ": 8636,
      " ki, ": 8637,
      "areti ": 8638,
      "uzaklaş": 8639,
      "düzenlen": 8640,
      "kadınların ": 8641,
      "ikat": 8642,
      "Abdullah": 8643,
      "inin": 8644,
      "olu": 8645,
      "Atatürk ": 8646,
      "maktır": 8647,
      " belir": 8648,
      "heyecan ": 8649,
      "ru ": 8650,
      "olasıl": 8651,
      " BU": 8652,
      "konom": 8653,
      " ancak ": 8654,
      "olası ": 8655,
      "tespit edil": 8656,
      "mede ": 8657,
      "maşık ": 8658,
      "likleri ": 8659,
      "sene ": 8660,
      "olmasa da ": 8661,
      "ımcısı ": 8662,
      "Eğitim ": 8663,
      "mal ": 8664,
      "uluk ": 8665,
      "Başkan ": 8666,
      "altına alın": 8667,
      "avor": 8668,
      "rop": 8669,
      "memek ": 8670,
      "ıklıkla ": 8671,
      "sag": 8672,
      "mişti": 8673,
      "günden ": 8674,
      "ing ": 8675,
      "sistem ": 8676,
      "cumhur": 8677,
      "are ": 8678,
      "person": 8679,
      "ihtimal": 8680,
      "yönel": 8681,
      "tesekkur": 8682,
      "muhal": 8683,
      "Kitabı ": 8684,
      "bir daha ": 8685,
      "is, ": 8686,
      " büyük ": 8687,
      "kalın": 8688,
      "99": 8689,
      ": D": 8690,
      "tuğu ": 8691,
      "idrar ": 8692,
      "artesi ": 8693,
      "Aslında ": 8694,
      "ekib": 8695,
      "Lis": 8696,
      "g/": 8697,
      "ix": 8698,
      "yur": 8699,
      "ografik ": 8700,
      "iltihap": 8701,
      "Bana ": 8702,
      "masız ": 8703,
      "alarından ": 8704,
      "uygulamalar": 8705,
      ". Yaş": 8706,
      "ayakkab": 8707,
      "iyan": 8708,
      "anlatmış": 8709,
      "hayatımda ": 8710,
      " boyut": 8711,
      "Am": 8712,
      "Jo": 8713,
      "çıkıyor": 8714,
      "ettin ": 8715,
      "çevre ": 8716,
      "ampiyon": 8717,
      "adı.": 8718,
      "efend": 8719,
      "yetiştir": 8720,
      "10 üzerinden ": 8721,
      "bitk": 8722,
      "e göre ": 8723,
      "algıl": 8724,
      "izledikten sonra ": 8725,
      ". Yani ": 8726,
      "öğretmen": 8727,
      "Fiz": 8728,
      "çeken ": 8729,
      "slında ": 8730,
      "programı ": 8731,
      "2012": 8732,
      " mer": 8733,
      "önemi ": 8734,
      "Kaç": 8735,
      "o kadar": 8736,
      "the ": 8737,
      "bir yapım ": 8738,
      "görmüş": 8739,
      "Abdül": 8740,
      "yazarı ": 8741,
      "gösteril": 8742,
      "eğitim": 8743,
      "kabul": 8744,
      "etmiştir": 8745,
      " Parçalı ": 8746,
      "çok şey": 8747,
      ". Böylece ": 8748,
      "yanına ": 8749,
      "satış": 8750,
      "olan ve ": 8751,
      "arak": 8752,
      "yorumlara ": 8753,
      "tedavi yöntem": 8754,
      " hastal": 8755,
      "anlığın ": 8756,
      " yağ": 8757,
      "arşiv": 8758,
      "DHA": 8759,
      "saygı ": 8760,
      "edip ": 8761,
      "C ": 8762,
      "uları ": 8763,
      " mes": 8764,
      "sigara ": 8765,
      "ükle": 8766,
      "oskop": 8767,
      "den, ": 8768,
      "etkileş": 8769,
      "kapasit": 8770,
      "savaş ": 8771,
      "izlediğim en iyi ": 8772,
      "ihtiyaç duy": 8773,
      " bazı ": 8774,
      "keyifle ": 8775,
      "binlerce ": 8776,
      "aşı ": 8777,
      "işley": 8778,
      "bazıları ": 8779,
      "incelenmiştir": 8780,
      "68": 8781,
      "onay": 8782,
      "kurulan ": 8783,
      "sebebiyle ": 8784,
      "doz": 8785,
      "hal ": 8786,
      " Ger": 8787,
      "aydınlat": 8788,
      " gir": 8789,
      "devamı ": 8790,
      "mektup": 8791,
      "rahatsızlık": 8792,
      "her iki ": 8793,
      "bir film olmuş": 8794,
      "odaklan": 8795,
      "imsel ": 8796,
      "Gal": 8797,
      "lendiği ": 8798,
      "babası ": 8799,
      "AĞ": 8800,
      "eyf": 8801,
      "2010": 8802,
      "3, ": 8803,
      "miştim ": 8804,
      " nokt": 8805,
      "birkaç ": 8806,
      "ertesi ": 8807,
      "to": 8808,
      " dedi": 8809,
      "Bugün ": 8810,
      " Paş": 8811,
      "ığı": 8812,
      "lik, ": 8813,
      "yazılı ": 8814,
      "görevl": 8815,
      ": A": 8816,
      "Çin": 8817,
      "emek": 8818,
      "Herkese ": 8819,
      "Küçük ": 8820,
      "adi ": 8821,
      "sağlıyor": 8822,
      "yorum yap": 8823,
      "Tat": 8824,
      "ke": 8825,
      ".0": 8826,
      "Bilg": 8827,
      "Ker": 8828,
      "toplant": 8829,
      "kurgusu ": 8830,
      "noktada ": 8831,
      "bir kısm": 8832,
      "Mo": 8833,
      "ael ": 8834,
      "çocuklar için ": 8835,
      "Düz": 8836,
      "endiş": 8837,
      "yapılır": 8838,
      "olağan": 8839,
      " kaynak": 8840,
      "ach": 8841,
      "hepsiburada ": 8842,
      "enk": 8843,
      "etbol": 8844,
      "takip": 8845,
      "yth": 8846,
      "ılır?": 8847,
      "pencer": 8848,
      "Kılıç": 8849,
      "landa ": 8850,
      "de çok ": 8851,
      "anlatılmış": 8852,
      "bat ": 8853,
      " teşekkür": 8854,
      "müthiş bir ": 8855,
      ". Buna ": 8856,
      "yola çık": 8857,
      "sisteminin ": 8858,
      "hesab": 8859,
      "çıl": 8860,
      "sızdır": 8861,
      "yetersiz": 8862,
      "konuya ": 8863,
      "ziyaret": 8864,
      "Bas": 8865,
      "sağlık": 8866,
      "engel ": 8867,
      "ağız ": 8868,
      "amıyorum ": 8869,
      "tığım ": 8870,
      "ı'na ": 8871,
      "yaşat": 8872,
      " Eylül ": 8873,
      "um, ": 8874,
      " numara ": 8875,
      ". O ": 8876,
      "Christ": 8877,
      "Japon ": 8878,
      "müzis": 8879,
      "ileri ve ": 8880,
      " Kur": 8881,
      "yazı ": 8882,
      "yazık ki ": 8883,
      "bilgilendir": 8884,
      "doğrusu ": 8885,
      "elbette ": 8886,
      "ilm": 8887,
      "tedavisinde ": 8888,
      " mu": 8889,
      " sahip": 8890,
      "vakt": 8891,
      "iğinin ": 8892,
      "ceza ": 8893,
      "otomobil": 8894,
      "Psik": 8895,
      "toplumun ": 8896,
      "eklent": 8897,
      "Willi": 8898,
      "kın ": 8899,
      "vermek ": 8900,
      "atış": 8901,
      "Kalp": 8902,
      "ediler ": 8903,
      "puanı ": 8904,
      " müz": 8905,
      "var ve ": 8906,
      "tatlı ": 8907,
      "zarar ": 8908,
      "tebrik ": 8909,
      "eat": 8910,
      "ımının ": 8911,
      "meyecek ": 8912,
      "gelişen ": 8913,
      "belirlenmiştir": 8914,
      "zamanı ": 8915,
      "niyet ": 8916,
      "amadı ": 8917,
      "bulunmuştur": 8918,
      "Ayd": 8919,
      "ayrıntılı ": 8920,
      "Lİ": 8921,
      "mimar": 8922,
      "almaya ": 8923,
      "paraya ": 8924,
      "öncesinde ": 8925,
      "ifadelerini ": 8926,
      "Tes": 8927,
      "ward": 8928,
      "kaldı ": 8929,
      "çok hızlı ": 8930,
      "geldiğ": 8931,
      "ÜZEL": 8932,
      "bk": 8933,
      "akları ": 8934,
      "plastik ": 8935,
      "HDP": 8936,
      " k": 8937,
      "süreçte ": 8938,
      "iyle, ": 8939,
      "farklılık": 8940,
      "diş ": 8941,
      "berg": 8942,
      "Anahtar Kelimeler": 8943,
      "Tedavi ": 8944,
      " kız": 8945,
      "çalışma": 8946,
      "kıymet": 8947,
      "sürükleyic": 8948,
      "io": 8949,
      "Erdoğ": 8950,
      "takv": 8951,
      "olayları ": 8952,
      "giren ": 8953,
      " yen": 8954,
      "Gazet": 8955,
      "Tw": 8956,
      "(cid:271)": 8957,
      "EV": 8958,
      "siyasetçi ": 8959,
      "ederken ": 8960,
      "hükümet": 8961,
      "bile": 8962,
      "ederiz": 8963,
      "ıp, ": 8964,
      "lendi": 8965,
      "endiği ": 8966,
      "etkilem": 8967,
      "aracılığıyla ": 8968,
      " tavsiye ": 8969,
      "aracı ": 8970,
      "onya ": 8971,
      "a nın ": 8972,
      ". İk": 8973,
      "Başbakan ": 8974,
      "izli ": 8975,
      "filim ": 8976,
      "mış ol": 8977,
      "ÜK": 8978,
      "eleri": 8979,
      ". Son ": 8980,
      "tikçe ": 8981,
      "olunca ": 8982,
      ". Ab": 8983,
      "Kürt": 8984,
      " hızlı ": 8985,
      "deniz ": 8986,
      "http": 8987,
      " hüc": 8988,
      "kullanarak ": 8989,
      "vakit geçir": 8990,
      "ean ": 8991,
      "atç": 8992,
      " has": 8993,
      " tek": 8994,
      " sorun": 8995,
      "üstün": 8996,
      "lerindeki ": 8997,
      "özel bir ": 8998,
      "îr": 8999,
      "ımı": 9000,
      " örgüt": 9001,
      "iklet": 9002,
      "imm": 9003,
      "itter ": 9004,
      "rut": 9005,
      "santr": 9006,
      "mektedir. Bu ": 9007,
      "yönetim ": 9008,
      "lılık ": 9009,
      "veriler ": 9010,
      "bezi ": 9011,
      "kitabı": 9012,
      "maruz kal": 9013,
      "bilgisayar": 9014,
      "endik": 9015,
      " Gün": 9016,
      "senaryosu ": 9017,
      "ilerleyen ": 9018,
      "hayat ": 9019,
      "okumayı ": 9020,
      "söylemek ": 9021,
      "aşık ": 9022,
      "Biraz ": 9023,
      ". Oy": 9024,
      "ledik": 9025,
      "puan": 9026,
      "abilecek": 9027,
      "üstü": 9028,
      "esela ": 9029,
      "çik": 9030,
      "ciddi bir ": 9031,
      "teşekkür ederim ": 9032,
      "paketleme ": 9033,
      "78": 9034,
      "hata ": 9035,
      "tez ": 9036,
      " El": 9037,
      "olarak": 9038,
      "yaz ": 9039,
      "yapısı ": 9040,
      ". Çünkü": 9041,
      "yanıl": 9042,
      ", C": 9043,
      "eceg": 9044,
      "özen": 9045,
      "ekim ": 9046,
      "izlemesi ": 9047,
      "elin ": 9048,
      "gerçekt": 9049,
      "oyuncuların ": 9050,
      "izin ver": 9051,
      "ına kadar ": 9052,
      "bulunmaktadır": 9053,
      "EB": 9054,
      "ste": 9055,
      "tanr": 9056,
      "ajı ": 9057,
      "FA": 9058,
      "oyunu ": 9059,
      "İsveç": 9060,
      "ümüş": 9061,
      "macera ": 9062,
      "yaptı": 9063,
      "- G": 9064,
      "cevap ver": 9065,
      "Mak": 9066,
      "kod": 9067,
      "mışlar ": 9068,
      "liter": 9069,
      "kale ": 9070,
      "ediyor ": 9071,
      "'u ": 9072,
      "hol": 9073,
      "istiyor": 9074,
      "uzakl": 9075,
      "gizli ": 9076,
      "adalet": 9077,
      "EC": 9078,
      "cak, ": 9079,
      "denedim ": 9080,
      "du ve ": 9081,
      "sakl": 9082,
      "eşi ": 9083,
      "miş, ": 9084,
      "dığı için ": 9085,
      "daha yüksek ": 9086,
      "asıl ": 9087,
      "ayakta ": 9088,
      "İslâm ": 9089,
      "alar, ": 9090,
      "artık": 9091,
      "ozof": 9092,
      "ama çok ": 9093,
      "tahl": 9094,
      " kısm": 9095,
      "ra": 9096,
      "Yİ": 9097,
      "rest": 9098,
      "’i ": 9099,
      "masi ": 9100,
      "kayıp": 9101,
      "lar ile ": 9102,
      "ması gerekir": 9103,
      "(d. 194": 9104,
      "zengin": 9105,
      " beklem": 9106,
      "okunabilir": 9107,
      "konuştu.": 9108,
      "DAN": 9109,
      " Bey": 9110,
      "yetiş": 9111,
      "Millet": 9112,
      "böylece ": 9113,
      "zihn": 9114,
      "DEN": 9115,
      "ier": 9116,
      "Çin ": 9117,
      "olduğum ": 9118,
      "bireylerin ": 9119,
      "gelir ": 9120,
      "mantık ": 9121,
      "bireyin ": 9122,
      "ıl ": 9123,
      "başkanı ": 9124,
      "uyu": 9125,
      " En": 9126,
      "sırad": 9127,
      "lamaya ": 9128,
      "karşı karş": 9129,
      "ca": 9130,
      "aza ": 9131,
      "etmeden ": 9132,
      " belirt": 9133,
      "​ ​ ": 9134,
      "yoluyla ": 9135,
      "başkent": 9136,
      "bölüm ": 9137,
      "ağan ": 9138,
      "olur ": 9139,
      "sc": 9140,
      "âs": 9141,
      " Son": 9142,
      "tek başına ": 9143,
      "öğrenci ": 9144,
      "sıkı ": 9145,
      "yapılması ": 9146,
      "müşter": 9147,
      "Sov": 9148,
      "gayr": 9149,
      "Erk": 9150,
      "aşkın ": 9151,
      "BMM": 9152,
      "uyumlu ": 9153,
      "lenf": 9154,
      "dern": 9155,
      "aklıma ": 9156,
      "sağlığı ": 9157,
      "PS": 9158,
      "or ": 9159,
      "eter ": 9160,
      "den sonra ": 9161,
      "nez": 9162,
      "ama, ": 9163,
      "ileri Nelerdir?": 9164,
      "e'nin ": 9165,
      "ves": 9166,
      "zann": 9167,
      "Daha önce ": 9168,
      "gidiyor": 9169,
      "yumuşak ": 9170,
      "pratik ": 9171,
      "Aj": 9172,
      "osit": 9173,
      "besin": 9174,
      "mül": 9175,
      "orum": 9176,
      "ulaştır": 9177,
      "ayım ": 9178,
      "amam ": 9179,
      "çocuğu ": 9180,
      "pişik ": 9181,
      "10 8": 9182,
      "Rad": 9183,
      "deh": 9184,
      ". Tüm ": 9185,
      "lık, ": 9186,
      "şu an ": 9187,
      "senarist": 9188,
      "onunla ": 9189,
      "bu şekilde ": 9190,
      "çok çok ": 9191,
      "çıkarıl": 9192,
      "Şer": 9193,
      "ürünleri ": 9194,
      "izlenmesi gereken ": 9195,
      "barış": 9196,
      "sub": 9197,
      "bilmiyor": 9198,
      "ımıyla ": 9199,
      "göğüs": 9200,
      "başarılı bir ": 9201,
      "geleneksel ": 9202,
      "işlenmiş": 9203,
      " dar": 9204,
      "göre": 9205,
      " bir şekilde ": 9206,
      "iyor ama ": 9207,
      "larımı ": 9208,
      "bir kiş": 9209,
      "yönetic": 9210,
      "söyleyen ": 9211,
      "üyesi ": 9212,
      "anlamlı bir ": 9213,
      "dediği ": 9214,
      "tt": 9215,
      "kullanış": 9216,
      "farkında ": 9217,
      "değişken": 9218,
      "çözül": 9219,
      "efsane ": 9220,
      "o y": 9221,
      "’ı ": 9222,
      "öneril": 9223,
      "MAS": 9224,
      "Cok ": 9225,
      "indan ": 9226,
      "karın ": 9227,
      "civar": 9228,
      "Biz ": 9229,
      "gunu ": 9230,
      "geldiğini ": 9231,
      "Hz": 9232,
      "kendinizi ": 9233,
      "dı. ": 9234,
      "inizden ": 9235,
      "şimdi": 9236,
      "tı, ": 9237,
      "larımızın ": 9238,
      "And": 9239,
      "Bütün ": 9240,
      "ini ve ": 9241,
      "ınızın ": 9242,
      "pahalı ": 9243,
      "Ey": 9244,
      "evet": 9245,
      "lendirme ": 9246,
      "eğitimi ": 9247,
      " grubu ": 9248,
      "lilik ": 9249,
      "ment": 9250,
      "nesn": 9251,
      "üyor ": 9252,
      "ece": 9253,
      "Yunan ": 9254,
      "ph": 9255,
      "ipt": 9256,
      "tadı ": 9257,
      " biz": 9258,
      "kalab": 9259,
      "Yas": 9260,
      "î’nin ": 9261,
      "iyiz": 9262,
      "siz bir ": 9263,
      "altını ": 9264,
      "geriye ": 9265,
      "başkan": 9266,
      " dışında ": 9267,
      "Ne": 9268,
      "coc": 9269,
      "olaylar ": 9270,
      "Kızıl": 9271,
      "ürr": 9272,
      "tereddüt": 9273,
      "içeris": 9274,
      "150": 9275,
      "//": 9276,
      "oluşturan ": 9277,
      "(M": 9278,
      "Kaf": 9279,
      "inle ": 9280,
      " dep": 9281,
      "1980": 9282,
      "abi ": 9283,
      "lerden biri ": 9284,
      "ifadelerini kullan": 9285,
      "Ven": 9286,
      "ikr": 9287,
      "202": 9288,
      "300": 9289,
      "çok büyük ": 9290,
      " mem": 9291,
      "diğimiz": 9292,
      "tavsiye edilir": 9293,
      "azzam ": 9294,
      "Yine ": 9295,
      "dört ": 9296,
      "başkalar": 9297,
      "bölgesinde ": 9298,
      "www": 9299,
      "özgün ": 9300,
      "hikây": 9301,
      "çağır": 9302,
      "lar k": 9303,
      "eklem ": 9304,
      " hale ": 9305,
      "dava ": 9306,
      "öğretmen ": 9307,
      "Bu film ": 9308,
      "hakkında bilgi ": 9309,
      " tr": 9310,
      "miş ol": 9311,
      "mek istey": 9312,
      "dikkatli ": 9313,
      "türü ": 9314,
      "tamamlan": 9315,
      "bire": 9316,
      "onav": 9317,
      "ar, ": 9318,
      "bulundu": 9319,
      "obel ": 9320,
      "asker ": 9321,
      "mesinden ": 9322,
      " İb": 9323,
      "herkese tavsiye ederim": 9324,
      "5.": 9325,
      "zevkle ": 9326,
      "içe ": 9327,
      "Char": 9328,
      "ısıt": 9329,
      "Roma ": 9330,
      "Ben": 9331,
      "acak.": 9332,
      "izlemenizi ": 9333,
      "abiliriz": 9334,
      " The ": 9335,
      "Mel": 9336,
      "olabilecek ": 9337,
      "ağına ": 9338,
      "umur": 9339,
      "uzu ": 9340,
      "muhteşem": 9341,
      " belki ": 9342,
      "depres": 9343,
      "şr": 9344,
      "hasar": 9345,
      "kulak ": 9346,
      "larımızı ": 9347,
      "arda ": 9348,
      "denet": 9349,
      "sabırsız": 9350,
      "num": 9351,
      "mekle ": 9352,
      "RT": 9353,
      "damar ": 9354,
      " sırasında ": 9355,
      " 1": 9356,
      "isin ": 9357,
      "başk": 9358,
      "oksij": 9359,
      " getir": 9360,
      " sayesinde ": 9361,
      "pozitif": 9362,
      "sm": 9363,
      "lenmesi ": 9364,
      "7-": 9365,
      "düşünmüyor": 9366,
      "Özgür": 9367,
      "rej": 9368,
      "IC": 9369,
      "eydi ": 9370,
      "itan": 9371,
      " edil": 9372,
      "kampan": 9373,
      " diz": 9374,
      "uğun ": 9375,
      "etmeyi ": 9376,
      "ebilen ": 9377,
      "yakından ": 9378,
      "diye kadar ": 9379,
      "tiğimiz": 9380,
      "ünüz ": 9381,
      ". Hayat": 9382,
      "milli ": 9383,
      "Roman": 9384,
      "ar.": 9385,
      "arbak": 9386,
      "Galatasaray": 9387,
      "Sh": 9388,
      "meden": 9389,
      "elle ": 9390,
      "Senary": 9391,
      "pren": 9392,
      "bir an ": 9393,
      "lıklı ": 9394,
      "biraz": 9395,
      "emiyorum ": 9396,
      "Yıldır": 9397,
      "ir, ": 9398,
      "Seç": 9399,
      "leri için ": 9400,
      "millî": 9401,
      "tarihinin ": 9402,
      "gan ": 9403,
      "Şen": 9404,
      "lamak": 9405,
      "üny": 9406,
      "likte ": 9407,
      "konuştu ": 9408,
      "alt ": 9409,
      "mi": 9410,
      "yıllardır": 9411,
      "bölge ": 9412,
      "basın ": 9413,
      "Avustur": 9414,
      "ikal": 9415,
      "yaparak ": 9416,
      "larından biri ": 9417,
      "çoğunlukla ": 9418,
      "sivil": 9419,
      "çeş": 9420,
      "aydı ": 9421,
      "mış gibi ": 9422,
      "uhaf": 9423,
      "örneği ": 9424,
      "i'nde ": 9425,
      "aff": 9426,
      " hav": 9427,
      "İslam": 9428,
      "günlerde ": 9429,
      " tarz": 9430,
      "ografi ": 9431,
      "Paris": 9432,
      "söyledi": 9433,
      "; M": 9434,
      "Su": 9435,
      "oyunculuklar ": 9436,
      "gördük": 9437,
      "ılarda ": 9438,
      "Go": 9439,
      ". Kon": 9440,
      "Üzer": 9441,
      "renkli ": 9442,
      " ise ": 9443,
      "cak": 9444,
      "paz": 9445,
      "gerçekleştirilen ": 9446,
      "lari ": 9447,
      "Gö": 9448,
      "Sın": 9449,
      "birde ": 9450,
      "amaçlı ": 9451,
      "la birlikte ": 9452,
      " bur": 9453,
      " ta ": 9454,
      " sınır": 9455,
      "imat": 9456,
      "aşağı ": 9457,
      " kelim": 9458,
      "lemeye ": 9459,
      "birinc": 9460,
      "geçiş": 9461,
      "tabl": 9462,
      "ıcak ": 9463,
      "gayet başarılı ": 9464,
      "bis": 9465,
      " de": 9466,
      "olan bu ": 9467,
      "belirgin ": 9468,
      "ortadan kaldır": 9469,
      ": M": 9470,
      "Şim": 9471,
      "Antal": 9472,
      "antibiyot": 9473,
      " Oy": 9474,
      "Taş": 9475,
      "oiler ": 9476,
      "aykır": 9477,
      "acil": 9478,
      "Güzel": 9479,
      "seni ": 9480,
      "kaleme ": 9481,
      " güc": 9482,
      "186": 9483,
      "refer": 9484,
      "sendrom": 9485,
      "karaciğer ": 9486,
      "Karş": 9487,
      ". Ön": 9488,
      "kıv": 9489,
      "yetkil": 9490,
      "bunlar ": 9491,
      ". Sonuç": 9492,
      "es, ": 9493,
      " tip": 9494,
      " hareket": 9495,
      "TV": 9496,
      "ıktan sonra ": 9497,
      "akciğer ": 9498,
      "Ir": 9499,
      " İz": 9500,
      "UZ": 9501,
      "meni ": 9502,
      "eral ": 9503,
      "umdan ": 9504,
      " KAR": 9505,
      "Birleşik Devlet": 9506,
      "emli ": 9507,
      "istir": 9508,
      "alternatif": 9509,
      "ger ": 9510,
      "aldım": 9511,
      " gazet": 9512,
      "Belediye ": 9513,
      "Sorulan ": 9514,
      "5 10": 9515,
      "alç": 9516,
      "alim": 9517,
      "bu kadar": 9518,
      "indek": 9519,
      "başladı ": 9520,
      "yalan ": 9521,
      "tam anlamıyla ": 9522,
      "ecekler": 9523,
      "mekaniz": 9524,
      "'li ": 9525,
      "ömr": 9526,
      "Sorulan Sor": 9527,
      "vef": 9528,
      "ebiliriz": 9529,
      "elini ": 9530,
      "filozof": 9531,
      " KİT": 9532,
      " FİLM": 9533,
      "arkadas": 9534,
      "ital ": 9535,
      "ine ve ": 9536,
      "sonuçlar ": 9537,
      "soruşturma ": 9538,
      " şeklinde ": 9539,
      "Di": 9540,
      "bö": 9541,
      "yör": 9542,
      " En ": 9543,
      "bayıldım ": 9544,
      "eyt": 9545,
      "usul": 9546,
      ". En": 9547,
      "mesi gereken bir ": 9548,
      "filmlerden biri ": 9549,
      "el olarak ": 9550,
      "çok az ": 9551,
      "rengi ": 9552,
      "çerçevesinde ": 9553,
      "Gaz": 9554,
      "... ": 9555,
      "Co": 9556,
      "yaptıkları ": 9557,
      ". Diğer ": 9558,
      "ID": 9559,
      "hayal kırıklığı ": 9560,
      "kusursuz ": 9561,
      "istediği ": 9562,
      "merkezi ": 9563,
      "ler yap": 9564,
      "karşın ": 9565,
      "3,": 9566,
      " dk ": 9567,
      "marım ": 9568,
      "da olsa ": 9569,
      "esinde, ": 9570,
      " suç": 9571,
      "derg": 9572,
      "bakım ": 9573,
      "Recep": 9574,
      "IYOR": 9575,
      "görme ": 9576,
      "sorular": 9577,
      "alınarak ": 9578,
      "vitam": 9579,
      "bakarak ": 9580,
      "dünc": 9581,
      "10 9": 9582,
      "Dik": 9583,
      " beğen": 9584,
      "var ki ": 9585,
      "her ne kadar ": 9586,
      "ıyor ama ": 9587,
      "pak": 9588,
      "eşlik ": 9589,
      "lemesi ": 9590,
      "ilçesinde ": 9591,
      "gidip ": 9592,
      "sinemaya ": 9593,
      "küçükresim|upright=": 9594,
      "plat": 9595,
      "sis": 9596,
      "elsef": 9597,
      ">>>": 9598,
      "daha güzel ": 9599,
      "gerçek bir ": 9600,
      "Kemal": 9601,
      "tuk": 9602,
      "çocuklarda ": 9603,
      " dol": 9604,
      "belli bir ": 9605,
      "umuzu ": 9606,
      "ığına uğr": 9607,
      "Ör": 9608,
      "bakan ": 9609,
      "fragman": 9610,
      "solunum ": 9611,
      "-S": 9612,
      "diyorum ": 9613,
      "nih": 9614,
      "oynay": 9615,
      "dayalı ": 9616,
      "melidir.": 9617,
      "old": 9618,
      " kut": 9619,
      "çocuklar ": 9620,
      "95": 9621,
      "Don": 9622,
      "filmlerde ": 9623,
      " mik": 9624,
      "demokras": 9625,
      "’ye ": 9626,
      "\", \"": 9627,
      "graf": 9628,
      "erg": 9629,
      "acag": 9630,
      " olsa ": 9631,
      "gelecekt": 9632,
      "ölçül": 9633,
      "kuc": 9634,
      "çel": 9635,
      "doğal ": 9636,
      "günümüz ": 9637,
      "farkınd": 9638,
      "7.": 9639,
      ", N": 9640,
      "Ann": 9641,
      "2008": 9642,
      "Davutoğlu ": 9643,
      "ilişkili ": 9644,
      "finans": 9645,
      "favor": 9646,
      "ediğimiz ": 9647,
      "tığımız ": 9648,
      "psikoloj": 9649,
      "kin": 9650,
      "ası ve ": 9651,
      "eler ve ": 9652,
      "lık ve ": 9653,
      "yarısı ": 9654,
      "ortada ": 9655,
      "eli ve ": 9656,
      "cinsiyet": 9657,
      "defalarca ": 9658,
      "anlamak için ": 9659,
      "neden olan ": 9660,
      "ikler ": 9661,
      "ump": 9662,
      "ımına ": 9663,
      ". Ev": 9664,
      "kims": 9665,
      "Irak ": 9666,
      " sun": 9667,
      "kullandığım ": 9668,
      "destek": 9669,
      "keyif al": 9670,
      "Kab": 9671,
      "ova ": 9672,
      "hastalar ": 9673,
      "biçim": 9674,
      "sir": 9675,
      "dönemi ": 9676,
      "hediy": 9677,
      "adığım ": 9678,
      "evet ": 9679,
      "kaynağı ": 9680,
      "red": 9681,
      "ilim ": 9682,
      "tabiki ": 9683,
      " Nisan ": 9684,
      "ağının ": 9685,
      "olayların ": 9686,
      "LARI": 9687,
      "orn": 9688,
      "lenmiştir": 9689,
      "dışarı ": 9690,
      "çok iyi bir ": 9691,
      "uyla ilgili ": 9692,
      "Mas": 9693,
      " mü": 9694,
      "reng": 9695,
      "Rah": 9696,
      "sed": 9697,
      "el bir ": 9698,
      "yaparken ": 9699,
      " Em": 9700,
      "koruma ": 9701,
      "gesi ": 9702,
      "emeyen ": 9703,
      "hücre ": 9704,
      "sevk ": 9705,
      ". Sonra ": 9706,
      " yas": 9707,
      "kullanılabilir": 9708,
      "Kadın": 9709,
      "unma ": 9710,
      "Can": 9711,
      "batı ": 9712,
      "filmlerinin ": 9713,
      "söyleyebilirim ": 9714,
      "laboratu": 9715,
      "ki bu ": 9716,
      "günler": 9717,
      "çocuklar": 9718,
      "cevab": 9719,
      "suzluk ": 9720,
      "Çık": 9721,
      " sene ": 9722,
      " İstanbul": 9723,
      "iel ": 9724,
      "filminden ": 9725,
      "izled": 9726,
      " OK": 9727,
      "Olur?": 9728,
      "Ölüm": 9729,
      "bağırsak ": 9730,
      "istatistiksel olarak ": 9731,
      "kart": 9732,
      ". Ak": 9733,
      "zamanın ": 9734,
      " (ö. ": 9735,
      "ida ": 9736,
      "yerli ": 9737,
      "cinayet": 9738,
      "korkut": 9739,
      "benzeri ": 9740,
      "ation": 9741,
      "- Y": 9742,
      "varlık": 9743,
      " GÜZEL": 9744,
      "iyim": 9745,
      "oynadığı ": 9746,
      "köp": 9747,
      "K ": 9748,
      "ardı ": 9749,
      "iyle": 9750,
      "robot": 9751,
      "dolar ": 9752,
      "luğunu ": 9753,
      "karakteri ": 9754,
      "şehir Bel": 9755,
      "ısız": 9756,
      "ne kadar": 9757,
      "Görün": 9758,
      ". Ancak, ": 9759,
      "prima kullan": 9760,
      "kitaplardan ": 9761,
      "her gün ": 9762,
      "okudum": 9763,
      "kolaylaştır": 9764,
      " yıldır": 9765,
      "meden önce ": 9766,
      "nşr": 9767,
      " kuş": 9768,
      "temp": 9769,
      ". Dünya ": 9770,
      "talep ": 9771,
      " dik": 9772,
      "ına var": 9773,
      "fizik": 9774,
      "ima": 9775,
      "zaf": 9776,
      "emiyor": 9777,
      "yapılmış ": 9778,
      "öz konusu ": 9779,
      ". Çok ": 9780,
      "sön": 9781,
      "inden, ": 9782,
      "Filme ": 9783,
      "na": 9784,
      "TBMM": 9785,
      ", Alman ": 9786,
      "hayal ": 9787,
      "bulundu ": 9788,
      "ül rahat": 9789,
      "onavirüs": 9790,
      "macı ": 9791,
      "oranda ": 9792,
      " yer ": 9793,
      "andar": 9794,
      "vel": 9795,
      "hoşlan": 9796,
      "Brezil": 9797,
      "Aç": 9798,
      "tılar": 9799,
      "üst ": 9800,
      "cası ": 9801,
[...]
